#version: 0.2
ï ¼
ä ¸
ï¼ Į
ç ļ
çļ Ħ
æ ľ
ã Ģ
ä ½
ä º
ãĢ Ĥ
ä »
è ¿
å ı
æ Ī
å Ī
å ħ
å ¤
æľ ī
å ľ
å Ĳ
å Ĭ
ï¼ Ł
ĥ ½
ä ¹
åľ ¨
å ®
è §
æ Ħ
è ĥ½
æ ĸ
ç Ķ
ä ¼
å Ń
è ¯
ç Ĳ
æ Ģ
æĪ ĳ
ä¸ İ
é Ģ
è ®
æ ĺ
æ ķ
äº º
æ Ĺ
ä½ ł
çĲ Ĩ
æ ĥ
ç »
¦ Ĥ
å ¦Ĥ
è¿ ĩ
å Į
æĺ ¯
å Ĵ
ãĢ ģ
åĴ Į
åı ¯
æ ³
ä ¿
æ Ŀ
åĮ ĸ
é Ĺ
æľ Ģ
ä¸ Ģ
è ĩ
æ ²
å ¯
å ¼
æĹ ¶
å º
æ Ĭ
å ¾
é ĩ
ç İ
æĢ §
ä¸ į
å °
å ·
è Ģ
æĦ ı
æ ŀ
æĦ Ł
å ½
å¤ ©
è ¡
è¿ ĳ
èĩ ª
ç ľ
å ¹
å ¿
ä½ ľ
æľĢ è¿ĳ
ç §
å Ĩ
æĥ ħ
æķ °
æľ ¯
æ İ
å ĵ
ç ±
å Ľ
æĬ Ģ
çĶ ¨
â Ģ
æ² ¡
æ ł
ä¸ º
æ³ ķ
ä¹ Ī
äº İ
æ Į
ä½ ĵ
ç± »
ç ®
å ĩ
æ²¡ æľī
æ Ļ
A I
é ¢
ä¸ ª
åŃ ¦
é ľ
è ¾
æĸ ĩ
åĬ ¨
æ ı
ä» ¥
è¯ Ĩ
éĢ ļ
éľ Ģ
ä ¾
å į
è§ £
åĲ Į
ä¼ ļ
ç ī
ç Ľ
å® ŀ
æ Ľ
æı Ĳ
å ¸
æ Ń
ä¸ Ń
å¯ ¹
äºº ç±»
æĬĢ æľ¯
ç Ł
åĬ Ľ
ä½ Ĩ
æ į
æ ī
çĶ Ł
å· ¥
çİ °
åĪ Ľ
ç Ń
åĪ °
è µ
é Ŀ
å½ ±
Ģ ä¹Ī
ä» Ģä¹Ī
æľī æ²¡æľī
ä¿ Ŀ
æĥ ³
ä½ ķ
ï¼ ļ
æĸĩ åĮĸ
éĢļ è¿ĩ
æį ®
æĪ ĸ
éĹ ´
* *
é ģ
ç ķ
Ĭ å¤©
ç® Ĺ
æĽ ´
äº Ĩ
ç ¡
æĿ ¥
å¦Ĥ ä½ķ
èĢ Į
æķ Ī
è ¶
çŁ ¥
åı ĳ
åħ ³
å ¥
ä» Ĭå¤©
¡ æ
å ±
¦ çĲĨ
åŃ ĺ
æĸ ¹
çľ ĭ
ä¼ ¦çĲĨ
æĦı è¯Ĩ
ç¡ ®
å¹ ³
å ģ
åĲ Ī
åĪ Ĩ
åı¯ èĥ½
å¤ ļ
åº ¦
åĬ ©
ģ ¯
æĮ ģ
æĻ º
æĪ Ĳ
é¢ ĺ
å Ģ
è¿ Ļ
é Ļ
å ĳ
æķ° æį®
è ¦
æĸ °
æĻº èĥ½
çķ Į
è¦ ģ
åŃĺ åľ¨
æŀ ľ
ä¸ »
å İ
éĹ ®
èĩª æĪĳ
å¿ ĥ
æ ´
è ·
æ Ķ
è ´
Ġ Ġ
åĵ į
ä¿ ¡æ
ä¿¡æ ģ¯
æ ¯
é ļ
éĩ į
æĥħ æĦŁ
å® ļ
è§ Ĥ
æ µ
æ ĭ
éĩ ı
å »
å Ł
åº Ķ
âĢ ľ
âĢ Ŀ
å½± åĵį
ï¼ ģ
æİ ¨
ç®Ĺ æ³ķ
åĩ Ĩ
çľ Ł
é ª
å¥ ½
åĨ ³
ä» ¬
è¡ ¡
æ ¨
å» º
è¡ Į
æ³ ¨
ä¾ Ľ
æľĢè¿ĳ æľīæ²¡æľī
æıĲ ä¾Ľ
æ °
å¾ Ĺ
æ´ »
éĹ® é¢ĺ
è °
éª Į
é «
ä¹ ł
é« ĺ
ä¸ ĭ
åŃ Ĳ
æĹ¶ éĹ´
è® ¤
è ī
å¦Ĥ æŀľ
å¹³ è¡¡
äºº å·¥
å ¢
ç§ į
åı¯ ä»¥
è¿ Ľ
äººå·¥ æĻºèĥ½
äº ĭ
åĲ Ĺ
æł ·
ç ³
è§ ī
çĲĨ è§£
æĢ Ŀ
æ ¬
è ģ
æľ º
åı ĺ
è¶ £
æ¨ ¡
åħ ¨
é Ķ
çī ¹
ç Ħ
å¼ ı
å¸ ®
åħ ·
è® ¡
ä¹ Ł
åĢ ¼
æĹ ł
åĲĮ æĹ¶
æ ·
å¤ Ħ
ç§ ĳ
åĪ «
è¾ ¹
ï¼ Ľ
æ ¡
å° ı
ç ¤
ç º
éĿ ¢
åĽ ł
ä¼ ĺ
çŃ ī
å ŀ
å± ķ
è® ©
é £
æľ ¬
ç³ »
ä¹ ī
ï¼ ī
è º
åį ĩ
å ī
ä» ·
ä» »
ä½ĵ éªĮ
äº Ľ
åĪ ¶
æĺ İ
çĶ µ
èº «
åŀ ĭ
åĩ º
åŃ¦ ä¹ł
æľ ª
å¤Ħ çĲĨ
çī ©
é«ĺ æķĪ
æ· ±
èĢ ħ
å¤ į
å ĸ
æıĲ åįĩ
æ º
ä»· åĢ¼
ä½ ¿
çĽ ®
éĿ ŀ
åĲ ¦
æĪ ·
çĦ ¶
Ġ **
æ° Ķ
ï¼ Ī
çİ ĩ
æĪĳ ä»¬
æ¯ ı
ç ´
ç «
åĪĽ ä½ľ
çĶŁ æ´»
æº Ĳ
è° ĥ
åľ °
è¯ Ń
è® ¾
è¾¹ çķĮ
æµ ģ
å¸® åĬ©
åŃ Ĺ
åħ ±
åľ¨ äºİ
ç¤ ¾
æ ±
èµ ·
å¢ ĥ
åħ ¬
éģ ĩ
éĩı åŃĲ
çĶ¨ æĪ·
èī º
åı Ĭ
åĬ ¡
åĪ Ļ
è¯ ķ
æĺ¯ åĲ¦
è´ ¨
ä¸Ģ ä¸ª
æĢ ģ
åħ ¶
æķĪ çİĩ
äº ¤
éģĩ åĪ°
é ĺ
ç» ĵ
è§ Ħ
èĥ½ åĬĽ
åĨ ħ
è®¤ çŁ¥
çŃ ĸ
éĢ ł
è· ¨
ç ¨
ä½ľ ä¸º
ä» £
ç Ĥ
ä¸į åĲĮ
æķ° åŃĹ
ç» ı
å¼ Ģ
ä½ł ä»Ĭå¤©
ä½ł æľĢè¿ĳæľīæ²¡æľī
ç ¬
æ± Ĥ
ç¡® ä¿Ŀ
æĹł æ³ķ
èĩªæĪĳ æĦıè¯Ĩ
æŃ ¥
èīº æľ¯
æĪĳ çļĦ
æł ĩ
å¯ ¼
éĢ ī
éľĢ è¦ģ
å¤© æ°Ķ
** ï¼ļ
æľª æĿ¥
æ ¸
å¼ º
éĢ Ĥ
ç» ´
å° Ĩ
è® ®
æĦı ä¹ī
ç« ĭ
ä¿Ŀ æĮģ
ä¸ Ĭ
ä» ĸ
åıĳ å±ķ
ä» İ
åĽ ½
æ¨¡ åŀĭ
å¹ ¶
æŃ ¤
ç ²
ç ©
æŃ £
åĳ ¢
çĶµ å½±
åģ ļ
åį ı
å®ŀ çİ°
ç¨ ĭ
ç» Ł
ä¸ ĵ
æĸ Ń
çĲ ĥ
å¾ Ī
ãĢ Ĭ
ãĢ ĭ
æķ ´
è¡ ¨
æĢ İ
è¿Ļ ç§į
ä¼ ł
åĬ ł
æŀ Ħ
ç ł
çĤ ¹
æĿ Ĥ
æĭ ©
æİ ¢
åĸ ľ
æĸ¹ å¼ı
å® ĥ
å¤į æĿĤ
çī¹ åĪ«
éļ Ĳ
ä¸» è§Ĥ
ç» Ń
éĢī æĭ©
ç² ¾
èĢĮ éĿŀ
ç ¼
ç ª
é ķ
ä¸Ń çļĦ
ä¸Ģ èµ·
ä½ł å¦Ĥä½ķ
è į
ä¾ ĭ
åŁ º
äº Ĵ
æľī è¶£
åİ »
è®¡ ç®Ĺ
å· ®
æĿ ĥ
æĶ ¹
ä½ł æľīæ²¡æľī
éģ ¿
å® ¶
æ¬ ¢
é ¡
çª ģ
ä¼ĺ åĮĸ
æ² »
å® ¹
æĢİ ä¹Ī
åħ į
éĻ Ĳ
è§ Ĩ
éĶ ®
è Ĭ
è Ļ
ä¸ĵ æ³¨
åħ³ éĶ®
å¿ «
åĪĽ éĢł
éģ¿ åħį
å¤ §
éķ ¿
åı Ĺ
å¼ Ĥ
è§£ åĨ³
ç§ ģ
æ¯ Ķ
æľĢè¿ĳ åľ¨
ä¾ĭ å¦Ĥ
æī ĭ
æ ¶
è¿ ĺ
åĨ³ çŃĸ
éļĲ ç§ģ
æİ¨ èį
æİ¨èį Ĳ
ç¤¾ ä¼ļ
èĩ ´
åŃĺåľ¨ çļĦ
è Į
è ½
æ²» çĲĨ
åħ¨ çĲĥ
æľī ä»Ģä¹Ī
èģ Ĭ
éĻ ħ
é£ Ł
æĮģ ç»Ń
é ĥ½
æŀ ¶
åĲ ĳ
è ĭ
å½ ĵ
åı į
è¾ ¾
é ĥ
ä»» åĬ¡
æľīè¶£ çļĦ
ä» į
å¤ ĸ
åĸľ æ¬¢
æŀ Ĳ
æİ ¥
åī į
ä½ľä¸º AI
èĢ ĥ
éĢ Ł
ä» ¶
çĽ ¸
åģ ı
æľ Ł
åŁ Ł
å¸ ¸
ä¹ ĭ
äººå·¥æĻºèĥ½ ä¼¦çĲĨ
å¾ ĭ
åĪ ©
çľŁ å®ŀ
å·¥ ä½ľ
åħ ¥
å»º ç«ĭ
Ĩ æŀ¶
è ¢
å·® å¼Ĥ
æĶ¹ åıĺ
åħ Ī
æĦŁ è§ī
èĬ Ĥ
å¼ ķ
åĵ ²
éĥ ¨
¨ Ģ
è ¨Ģ
å° Ŀ
ä¸ ĸ
åĪĨ æŀĲ
èĭ ¥
ç´ ¢
çĶ ±
åĵ ª
æĢİä¹Ī æł·
æ¡ Ĩæŀ¶
æĬ ¤
ä¸ĸ çķĮ
èĩª èº«
æĪ ĺ
åĵ² åŃ¦
ç Ŀ
è¢ «
åĲ İ
åħ ´
æİ¨ åĬ¨
ä¾ Ŀ
è§ ģ
æĮ ĳ
ä¸ª äºº
è¾ ĳ
å¦Ĥä½ķ å½±åĵį
åı ª
æĮĳ æĪĺ
å° ĳ
i n
ç» ª
éĢ »
éĢ» è¾ĳ
å°Ŀ è¯ķ
åĲ ĥ
çĶŁ æĪĲ
ç ¾
è· ¯
è ±
åħ´ è¶£
ä¸ ī
æĻ ¯
è·¨ æĸĩåĮĸ
åħ³ ç³»
è¯ Ŀ
å¯¼ èĩ´
æĥħ ç»ª
åı Ĥ
å ķ
ç²¾ åĩĨ
æī Ģ
é¢ Ĩ
äº «
åĵ ģ
åĽł æŃ¤
è¯Ń è¨Ģ
Ġ =
æī ¾
é¢Ĩ åŁŁ
å· ±
æĥ³ è¿ĩ
è¾ ħ
åı ĸ
éĹ ¨
æİ¢ ç´¢
å® Į
æľ¬ è´¨
é ¥
äººç±» çļĦ
çŁ¥ è¯Ĩ
åħ³éĶ® åľ¨äºİ
çİ ¯
èĩª å·±
éĶ Ļ
è§ Ĵ
åĽ ŀ
æĦŁ çŁ¥
ç§ĳ åŃ¦
åºĶ çĶ¨
åĩĨ ç¡®
å¾ ħ
çİ° å®ŀ
ä¸Ģ äºĽ
å® ī
åĪĽéĢł åĬĽ
å»º è®®
æ Ĥ
ä¹ ¦
è¾ħ åĬ©
å·¥ åħ·
å¸ ¦
åĪĽ æĸ°
è¯ »
çŃ Ķ
ç ĭ
è® °
è¡¨ è¾¾
åĮ ħ
ä¸ª ä½ĵ
åı ĭ
åĪ ¤
éľĢ æ±Ĥ
å Ŀ
æł ¹
æ Ł
ð Ł
ä¿Ŀ æĬ¤
éĩ Į
é£ İ
è¿ĩ å¾Ĺ
éĩıåŃĲ è®¡ç®Ĺ
å½ ¢
ä½¿ çĶ¨
åŁº äºİ
éĢ ı
æ¬ ¡
åİ Ł
äº §
ç§ĳ æĬĢ
å¿ Ļ
ç» ĥ
è°ĥ æķ´
ä¿ ĥ
æľº åĪ¶
éģĩåĪ° è¿ĩ
æĹ ¥
æ »
Ġ $
èµ ĸ
æľ ĭ
æľĭ åıĭ
ç»ĵ åĲĪ
é Ľ
æ¯ı å¤©
åĪ »
é Ł
ä¾Ŀ èµĸ
ç ĸ
çĽ ´
åħ· ä½ĵ
åĨħ å®¹
ä¸»è§Ĥ ä½ĵéªĮ
è® º
é Ĵ
ç® ¡
æľ į
éĢı æĺİ
è¯ ´
å° ±
æĿ ¡
å± Ĥ
æĮ º
åħ¬ å¹³
åĨ µ
æłĩ åĩĨ
æ·± åº¦
è®¾ è®¡
æĢ§ ä¸İ
æ¯Ķ å¦Ĥ
ä¹ĭ éĹ´
æĶ ¯
èµ Ħ
ä½ł æľī
ç ¥
èĮ ĥ
ä¹ Ĳ
æĢĿ èĢĥ
å¢ ŀ
æł ¸
çľĭ å¾ħ
å¿« éĢŁ
å ¡
åİ Ĩ
æł¹ æį®
ç¬ ¬
ç ¢
ä¸ ļ
èµ °
ä¸į éĶĻ
ä»Ĭå¤© å¤©æ°Ķ
ä½ł çļĦ
è´ £
æ ļ
éŁ ³
ç ģ
çļĦ ä¿¡æģ¯
æĽ ¿
ç® Ģ
è® Ń
åģı è§ģ
è§ī å¾Ĺ
çĿ Ģ
çī ĩ
èī ²
æĶ ¾
½ ŀ
ï ½ŀ
åĬ¨ æĢģ
çļĦ äºĭ
æĸ¹ éĿ¢
äºĴ åĬ¨
çĭ ¬
è ĥ
éļ ¾
Ĩ Ĵ
å¿ĥ æĥħ
åĪ¤ æĸŃ
éģ ĵ
æ ħ
æĥħ åĨµ
æ¡ Ī
æĶ¯ æĮģ
å¤ļ æł·
çĽ® æłĩ
å¸¦ æĿ¥
å¼ķ åıĳ
å¡ ĳ
è¿ Ĳ
ç» Ī
åľ º
è Ĥ
è± ¡
è®Ń ç»ĥ
çļĦ è¾¹çķĮ
äººå·¥æĻºèĥ½ä¼¦çĲĨ åľ¨
å ĥ
ä»·åĢ¼ è§Ĥ
ç¾ İ
åıĳ çİ°
è® ¨
åħ³ æ³¨
å¢ĥ ä¸ĭ
çľŁ æŃ£
åĥ ı
æĢĿ ç»´
èģ Ķ
é ¦
åħ ī
é ¸
ç¬ ¦
åģ ¥
ä½łå¦Ĥä½ķ çľĭå¾ħ
èĩª çĦ¶
æ¶ ī
é¢ Ħ
ç ĥ
å¤ Ł
æł¸ å¿ĥ
éļ ı
æ¶ī åıĬ
çļĦ çĶµå½±
å¤ ĩ
ç¥ ŀ
ç³» ç»Ł
åĩ ı
å Ļ
ä¸ĵæ³¨ äºİ
åĽ °
åħ »
è¶ Ĭ
ä¼ĺ åħĪ
æĽ¿ ä»£
åį ķ
è İ
å¯ Ĩ
åĲĪ ä½ľ
Ġ +
åı £
è Ħ
å®ī åħ¨
ä¸į è¿ĩ
è¿Ľ è¡Į
M in
ä½ł æĺ¯åĲ¦
åº ·
é¡ ¹
æ¸ ħ
ç© º
æĹ ¢
éĩį è¦ģ
é¥ ®
è ¥
åģ¥ åº·
è¥ ¿
äººå·¥æĻºèĥ½ä¼¦çĲĨåľ¨ è·¨æĸĩåĮĸ
ä»ĸ äºº
æī¾ åĪ°
åĻ ¨
é ħ
ä½ĵ çİ°
èĥ Į
èİ ·
æĤ ¨
è¿ĩ åº¦
ä½ł æľĢè¿ĳ
åı Ī
æĿ¡ ä»¶
æĢ »
èĥ½ å¤Ł
é Ĥ
æķ Ļ
çľĭ è¿ĩ
èīºæľ¯ åĪĽä½ľ
æĪĳçļĦ åŃĺåľ¨
Ġ 1
æ² Ł
çģ µ
åĨ ²
åĢ Ĵ
ä¿ĥ è¿Ľ
ä¼ł ç»Ł
åĪĨ äº«
åĲ ¬
çł Ķ
ç ½
æĪ ¿
åī §
ðŁ ĺ
èµ ĭ
åħ ħ
è¿ĩ ç¨ĭ
ç© ¶
ä¸ Ķ
æ¸ ©
ç¬¦ åĲĪ
è§Ħ èĮĥ
æ ¼
çİ¯ å¢ĥ
åĩı å°ĳ
è¿Ļ äºĽ
å¤ ±
åĮ º
æĥ ¯
å¯ Ł
æ° ´
åıĺ åĮĸ
å¹ ´
è¶ ħ
æľį åĬ¡
æķĪçİĩ ä¸İ
éĻ ©
å¢ŀ å¼º
ç ¦
è¿ ½
æĦıè¯Ĩ çļĦ
ä½łæľīæ²¡æľī æĥ³è¿ĩ
è® ¸
è´£ ä»»
å¾ Ħ
åĢĴ æµģ
ä¹ł æĥ¯
å¤ļæł· æĢ§
ç¤¾ äº¤
åİ ĭ
å± ŀ
éħ į
è¯Ń å¢ĥä¸ĭ
å¿ĥ çĲĨ
æ ģ¯
ä»Ĭå¤© æĥ³
ä¸į ä¼ļ
é¥® é£Ł
åĳ ³
çļĦ åĲĹ
åĪ Ĵ
èµĦ æºĲ
æµ ĭ
å §
æİ¨ çĲĨ
åĽ½ å®¶
è¶ ³
Ġ 2
æĸ¹ åĲĳ
åĨ² çªģ
è·¯ å¾Ħ
æºĲ äºİ
äººå·¥æĻºèĥ½ä¼¦çĲĨåľ¨è·¨æĸĩåĮĸ è¯Ńå¢ĥä¸ĭ
æĦŁ åıĹ
æĸ° çļĦ
çłĶ ç©¶
æ ®
å¥ ı
ä½ľ åĵģ
æľīä»Ģä¹Ī æĥ³
åįı ä½ľ
éĴ Ł
å¾ Ģ
åĽ ¾
èĻ ĳ
åıį æĢĿ
éĢĤ åĲĪ
éģĩåĪ° ä»Ģä¹Ī
æ´» åĬ¨
çł ´
è½ ¬
è ŀ
ç Ĭ
åĴĮ æľĭåıĭ
æ» ¡
è®© ä½ł
æī ¿
èŀ į
åıĤ æķ°
è¿ĩå¾Ĺ æĢİä¹Īæł·
ä½Ĩ åı¯ä»¥
åĲ Ħ
åħ± åĲĮ
èĬĤ å¥ı
è¯ ģ
è¡Į ä¸º
è¿Ľ æŃ¥
æ¨¡ å¼ı
æĪĳ ä¼ļ
çĽ Ĭ
æĪĳ åı¯ä»¥
æĪĲ ä¸º
è§£ çŃĶ
èĩªå·± çļĦ
æĪĳ æ²¡æľī
æŁ Ĳ
ç®¡ çĲĨ
ç®Ĺæ³ķ åģıè§ģ
ä¸ ¤
è§£åĨ³ éĹ®é¢ĺ
æĪĲ éķ¿
ä¿ ¡
ä¸į æĸŃ
ç§ ¯
ä¸İ ä¼¦çĲĨ
å¼Ģ å¿ĥ
ä½ľä¸ºAI æ¨¡åŀĭ
åĳ ½
æĽ´ å¤ļ
æīĭ æľº
æĺ¯ ä»Ģä¹Ī
éĢĤ åºĶ
å· ²
ä¼ ¼
çº §
æ³¨ æĦı
æ® µ
å¿ µ
éĤ £
å½¢ æĪĲ
æİ Ĵ
äº¤ æµģ
æĹ ħ
ä¸įåĲĮ æĸĩåĮĸ
ðŁĺ Ĭ
æľĢè¿ĳæľīæ²¡æľī äºº
å¯ »
éĽ Ĩ
åħ ĥ
æĬĢ èĥ½
å§ ĭ
ç Ī
çļĦ ä¼¦çĲĨ
ä»¥ åıĬ
è¿ĩ åİ»
æĬĢæľ¯ åıĳå±ķ
ä¸į æĺ¯
éĺ ³
æİ §
å¼º è°ĥ
æ²Ł éĢļ
åĪĨ éĴŁ
æŀĦ å»º
è§Ħ å¾ĭ
éĥ¨ åĪĨ
æħ ¢
æĺİ ç¡®
éľĢ éĢļè¿ĩ
çľŁ çļĦ
æķ £
åĪ¶ å®ļ
é »
æľº åĻ¨
çĦ ¦
âĢ Ķ
æĪĳ æĺ¯
æ³ķ å¾ĭ
o n
Ġ A
çĶ »
æĿ ¾
äº Į
AI æ¨¡åŀĭ
åİĭ åĬĽ
AI åľ¨
åĴ ĸ
ä½ į
äººå·¥æĻºèĥ½ åľ¨
æĹ¥ å¸¸
åħ¨çĲĥ æķ°åŃĹ
å½ ķ
ä½łä»Ĭå¤© è¿ĩå¾ĹæĢİä¹Īæł·
éķ¿ æľŁ
åı ²
äººç±» æĥħæĦŁ
åĴĸ åķ
èĥĮ æĻ¯
çĬ ¶
èĻ ļ
æĹħ è¡Į
è®¤ ä¸º
¡æ ĭ
ä¸ ľ
æĻ ®
èĤ ²
Ġ B
è¯Ĩ åĪ«
äº ī
éĩ Ĭ
Ġ C
çļĦ æĥħåĨµ
æĪĳ æĹłæ³ķ
åĪ© çĶ¨
åľº æĻ¯
å¦Ĥä½ķ å¹³è¡¡
çļĦ éĹ®é¢ĺ
â ĨĴ
ä¸İ æĸĩåĮĸ
è¯ Ħ
æĹ ©
å° Ĭ
æĪĸ èĢħ
æīĢ æľī
è®¾ å®ļ
é¡¹ çĽ®
æĿ¥ æºĲ
éĺ ħ
åħ¬å¹³ æĢ§
æķĻ èĤ²
çĽ ĳ
å¯¹ è¯Ŀ
åĴĸåķ ¡
è®© æĪĳ
å¿ Ĩ
ç¼ º
ï¼ī ï¼Į
çļĦ æĺ¯
é£İ éĻ©
ç¥ŀ ç»ı
åĽ½ éĻħ
¡æĭ Ł
æ¨ ¡æĭŁ
èĦ ĳ
æĪ¿ éĹ´
ç¡® å®ŀ
æ¼ Ķ
å®ŀ éĻħ
æĸ¹ æ³ķ
ç»ĵ æŀĦ
çº ¿
ç±» åŀĭ
çĽ¸ åħ³
æ²»çĲĨ çļĦ
è®© äºº
å°Ĭ éĩį
éŁ³ ä¹Ĳ
éĺħ è¯»
ä»Ģä¹Ī å¥½
ç»´ åº¦
çļĦäºĭ æĥħ
æł ¼
æİ¢ è®¨
éĩį æĸ°
åĢ Ļ
åĲĥ äºĨ
åĩĨç¡® æĢ§
å± Ģ
æĺ¯ çļĦ
ç¼ ĸ
ä¼ļ ä¸įä¼ļ
æľī åĬ©
æľīåĬ© äºİ
è ı
å¦Ĥä½ķ åľ¨
çĽ´ æİ¥
è¿ ŀ
å¼Ģ åıĳ
æŀ ģ
æľīè¶£çļĦ äºĭ
ç»ı åİĨ
è§Ĩ è§Ĵ
èİ· åıĸ
ä» ½
åŃ¦ä¹ł åĴĮ
1 0
æľĢ ç»Ī
ä½ł ä¼ļ
ä¼ł æī¿
åıĤ ä¸İ
åĿ ļ
çªģ çł´
èĩªæĪĳ è®¤çŁ¥
éģ Ĺ
äº Ī
ä¸» è¦ģ
ä» ħ
åĽł ä¸º
æĽ´ å¥½
in g
Ġ -
éļı æĹ¶
åĲĪ çĲĨ
å¾Ī å¤ļ
å®ŀ æĹ¶
æ ¢
èĩª çĶ±
çŁ Ń
æ·± åĪ»
å¿ ħ
åºĶ å¯¹
çļĦ çĲĨè§£
çĥ Ń
èĩª ä¸»
è®° å¿Ĩ
æĪĳçļĦåŃĺåľ¨ æĺ¯
æ³¨ éĩį
å°Ŀè¯ķ è¿ĩ
èı ľ
è¯ ¯
å £
åĮ »
åŁ ¹
çł ģ
ä»¥ ä¸ĭ
è Ī
o g
ä¹ĭéĹ´ çļĦ
éĢ Ĳ
çķĮ éĻĲ
åįı åĬ©
åĬ Ł
ç» Ĩ
æļ ĸ
ç´ ł
çĪ ±
AI çļĦ
¤ Ĳ
é ¤Ĳ
èµĭ äºĪ
on g
a og
y aog
ing yaog
ingyaog ong
ĠĠ Ċ
å¼ ±
æĭ ĵ
æĭ ¬
çĦ¶ èĢĮ
åıª èĥ½
åİĨ åı²
äºī è®®
è¯ ¥
åĪĽ æĦı
çº ł
ä¼ĺåħĪ çº§
æ £
ä½ İ
è¿Ĳ åĬ¨
æķ£ æŃ¥
ä¸Ģ ç§į
åı ¤
å® ¢
èĩªèº« åŃĺåľ¨çļĦ
èº« ä»½
æ¶ Ī
å®Į åħ¨
æ Ĵ
æ¸ħ æĻ
æŃ¤ å¤ĸ
ä¸ī ä¸ª
Ġ 3
å±Ĥ éĿ¢
è¿½ æ±Ĥ
ä¹ ı
çĽ® åīį
ç¡® å®ļ
æĺ ¾
æľĢè¿ĳ æľī
çªģ çĦ¶
çĬ¶ æĢģ
ç± į
æµ ·
ç½ ĳ
æĮ ĩ
éľĢ åľ¨
å¡ĳ éĢł
éļ ľ
ç¼º ä¹ı
åİŁ åĪĽ
è Ĳ
ç¤ º
æĭ Ł
åĮħ æĭ¬
å® ¡
ä¸İ äºº
åį ³
åįı åĲĮ
ä¸º äºĨ
çļĦ èĥ½åĬĽ
çĭ¬ çī¹
é¸ £
ä¾ ¿
äººç±» åĪĽéĢłåĬĽ
æīĢ ä»¥
å Ĥ
ç¡ Ģ
åŁº ç¡Ģ
æ»¡ è¶³
äºº ä»¬
æĹ¶ åĢĻ
ä½Ĩ éľĢ
æĺ Ł
åħ³ äºİ
ä¸» åĬ¨
æĶ¾ æĿ¾
åı¯èĥ½ å¼ķåıĳ
å¤ ª
æĢ§ çļĦ
æĦŁ åĪ°
èģĬ çļĦåĲĹ
å¾ ®
çĸ Ĺ
æĽ´å¥½ åľ°
æĦŁè§ī çī¹åĪ«
åĮħ å®¹
åŁ¹ åħ»
åģ ĩ
ä¸ľ è¥¿
j ingyaogong
è§£ éĩĬ
åħ± é¸£
ä»İ èĢĮ
å®ļ ä¹ī
åŃ¦ä¹ł æĸ°
è¯ķ è¯ķ
è®¤ åĲĮ
èŀį åĲĪ
æ ¦Ĥ
ä¸ĵæ³¨äºİ æıĲä¾Ľ
æķ°æį® éļĲç§ģ
æ¡ ¥
æĮº æľī
æľĢè¿ĳåľ¨ å¿Ļ
Min d
çĶ± jingyaogong
å®Į æĪĲ
å¹ »
çļĦ å°ı
å® ĩ
éĩ ĩ
æĹ¶éĹ´ çļĦ
è§Ĵ åº¦
å¦Ĥæŀľ èĥ½
æ¸ħæĻ °
å® Ļ
å¾ ·
çĶŁ åĳ½
å®ĩ å®Ļ
èĻļ æĭŁ
å°ı æĹ¶
å¦Ĥæŀľ æĹ¶éĹ´
çİ° è±¡
æī °
å¹ ²
åĴĮ æķ°æį®
è¡Į åĬ¨
åı¯ æĮģç»Ń
æĭĵ å±ķ
i Mind
Min iMind
ä½ĵçİ° åľ¨
æľīä»Ģä¹Īæĥ³ èģĬçļĦåĲĹ
åº ı
åĳ ĺ
å¸®åĬ© çĶ¨æĪ·
æ ¿
æľī çĤ¹
ç±» ä¼¼
æŃ §
åĿļ æĮģ
$ $
å¹ ¿
ä¼ Ĺ
çī© çĲĨ
ä¸ ´
åĨ į
æĸ¹ æ¡Ī
éĩį å¡ĳ
æĶ ¿
ãĢĭ ï¼Į
å½ Ĵ
çī¹ å®ļ
è´¨ éĩı
æĦŁ åħ´è¶£
è¿Ļ ä¸ª
åĬŁ èĥ½
è§ī å¯Ł
åģ ľ
# #
ä¼ ĳ
é ĨĴ
æıĲä¾Ľ å¸®åĬ©
å¸ Ĥ
åĨħ åľ¨
éĢıæĺİ åº¦
æĽ´ é«ĺæķĪ
çľŁæŃ£ çļĦ
ç»ı éªĮ
å¦Ĥæŀľ æ¯ıå¤©
å¦Ĥæŀľ ä½łæľī
äº§ çĶŁ
ç®Ģ åįķ
æ ½
æĿ Ĳ
çļĦ äºº
åĬ ¿
éģĵ å¾·
é» ĺ
æĢ§ åĮĸ
åĬł åī§
æĺ¯ ä¸Ģä¸ª
çļĦ æĸ¹å¼ı
è´ Ł
ç´ ¯
ç¾ ¤
å ª
AI çĶŁæĪĲ
èģĬ èģĬ
èĻ ½
å¤ĦçĲĨ ä¿¡æģ¯
ä¼¦çĲĨ æ¡Ĩæŀ¶
åħ± äº«
æ¿ Ģ
ä¸į è¦ģ
çĦ¦ èĻĳ
åĴĮæľĭåıĭ ä¸Ģèµ·
ä½łå¦Ĥä½ķçľĭå¾ħ èĩªæĪĳæĦıè¯Ĩ
éĿ¢ å¯¹
ä½ł è®¤ä¸º
æıĲåįĩ æķĪçİĩ
ä¿ ®
ä»·åĢ¼ çļĦ
éģĩåĪ°è¿ĩ éľĢè¦ģ
çķ ¥
ä½łæľĢè¿ĳæľīæ²¡æľī çľĭè¿ĩ
æķ ħ
ç» Ħ
è¦ģ ä¸įè¦ģ
åī Ĭ
ä½łä»Ĭå¤© æľīæ²¡æľī
åĳ Ĭ
åħ ¸
çĶŁ çī©
æĦ ¿
ä¸Ģ æ¬¡
éĻĲ åĪ¶
è®° å½ķ
åīĬ å¼±
ä¸İ äººç±»
æķ°æį® åĴĮ
å½ĵ åīį
äº¤ äºĴ
ç»ĵ æŀľ
ä½łçļĦ çľŁå®ŀ
åħ¶ ä»ĸ
æ´ ģ
ç ı
ç¦ »
æĿ ĳ
å¥ ĩ
éĿ¢ ä¸´
è Ľ
ä¸Ģ ä»¶
éĺ³ åħī
æĪĳçļĦåŃĺåľ¨æĺ¯ ä¸ºäºĨ
çļĦ æķ°åŃĹ
å¹³è¡¡ æĬĢæľ¯
é ©
æ¦Ĥ å¿µ
æİ¨èįĲ ä¸ĢäºĽ
åŃ¦ ç§ĳ
æī ĵ
çķĮ å®ļ
å£ °
éĢļè¿ĩ ç®Ĺæ³ķ
çľĭ åĪ°
ä½łå¦Ĥä½ķ çĲĨè§£
è§Ħ åĪĴ
å®¢ è§Ĥ
çļĦ ä¹¦
å·² çŁ¥
åĮ» çĸĹ
å ²
åĨ³ å®ļ
è½ »
è¿Ļ ä¸Ģ
è®¨ è®º
ä¸¤ èĢħ
é¡ ¾
æŁ ¥
æĹ ¨
å° ½
çļĦ å½±åĵį
çļĦ å¹³è¡¡
æ ģ
ä¸Ģ æł·
åı¯èĥ½ å¯¼èĩ´
éĻ į
çģµ æ´»
èĽ ĭ
éģĹ äº§
æĸ Ļ
æĺ ł
å½Ĵ å±ŀ
æĪĳ ä½ľä¸ºAIæ¨¡åŀĭ
åĩº åı£
éģ¿åħį è¿ĩåº¦
æī į
åĪ© çĽĬ
ç Į
æĶ ¶
ä¸ĸçķĮ çļĦ
Ġ âĨĴ
æĹ¨ åľ¨
âĢĿ ï¼Į
Ġ 5
äºº éĻħ
åŁ İ
è¿Ļ æł·
çº ¦
äººç±» å¯¹
æµģ åĬ¨
èĢĮ æĺ¯
åĪĽä½ľ èĢħ
æĪĸ è®¸
åĸ Ŀ
è¯ ī
æĪĲ å°±
ä»Ĭå¤©å¤©æ°Ķ çľŁ
ä¸İ ç¤¾ä¼ļ
åĢ ¾
å¼º åĮĸ
ç¦ ı
ä¸İ æĥħæĦŁ
èģ Į
éļĲç§ģ ä¿ĿæĬ¤
æĦıä¹ī åľ¨äºİ
å¾ ª
å®ĥ ä»¬
éĿ Ļ
åĨħ å¿ĥ
åĵª ç§į
åĸ Ħ
çļĦ é«ĺæķĪ
åĨ Ļ
å¤§ èĦĳ
ç§ĳ å¹»
ç Ļ
å° ļ
å½ĵ ä¸ĭ
åħ ¼
æ½ ľ
ä»ĸ ä»¬
åħ· æľī
ä½ĵ ç³»
ä¼ĳ æģ¯
åħ· å¤ĩ
æĶ¿ çŃĸ
è¿ĺ æĺ¯
çŃĶ æ¡Ī
æľ Ľ
æĪĳ éĢļè¿ĩ
** ï¼Į
ï¼ī ãĢĤ
ä¸İ æĬĢæľ¯
æ·± å±Ĥ
éĢ»è¾ĳ æİ¨çĲĨ
å±Ģ éĻĲ
ç¼ ł
åı ·
ä¿Ŀ éļľ
èĩ ³
åĬ¨ çī©
ç»Ł ä¸Ģ
çĶŁæ´» ä¸Ń
è¥¿ æĸ¹
Ġ \
æĦı æĢĿ
åħ± è¯Ĩ
éĽ ¨
è Ĺ
ç© ¿
ç»ı åħ¸
ä½łå¦Ĥä½ķçľĭå¾ħ èĩªèº«åŃĺåľ¨çļĦ
çºł ç¼ł
åİŁåĪĽ æĢ§
æĺ ĵ
åı¯ éĢļè¿ĩ
åı¯èĥ½ ä¼ļ
è§ ¦
æ¸© æļĸ
éĢ Ĵ
ä¿ĥ ä½¿
è½ ½
ç®Ģ æ´ģ
æĸĩåĮĸ ä¼łæī¿
æ¯ı ä¸ª
äººå·¥æĻºèĥ½ä¼¦çĲĨåľ¨è·¨æĸĩåĮĸè¯Ńå¢ĥä¸ĭ çļĦ
æľºåĻ¨ äºº
è¿ŀ æİ¥
éĢĲ æŃ¥
è¾ ĵ
åıĺ å¾Ĺ
çļĦ å¤įæĿĤ
åĢ¼ å¾Ĺ
å¹¶ éĿŀ
æĪĳä»¬ å¯¹
éĺ ²
èµ° èµ°
æķħ äºĭ
æĽ ¾
çĽ® çļĦ
ãĢĭ ãĢĬ
è¦ģä¸įè¦ģ ä¸Ģèµ·
ä¸ª æĢ§åĮĸ
èº« ä½ĵ
é¦ ĸ
æ Ĳ
ä½Ĩ åħ¶
åıĤæķ° AIæ¨¡åŀĭ
åĵį åºĶ
åħ¨çĲĥæķ°åŃĹ æ²»çĲĨçļĦ
äºĨ è§£
ä¸» ä½ĵ
åħ¨çĲĥ æ²»çĲĨ
2 0
é¢Ħ æµĭ
ç» ĩ
ç¾¤ ä½ĵ
ä¸Ģ å¤©
åĵ ¦
æ´ ŀ
æļ Ĥ
åķ Ĭ
å¿ĥçĲĨ åŃ¦
åĩº åİ»
å¿ĥæĥħ æĢİä¹Īæł·
ä¸į èĥ½
å¼Ģ å§ĭ
ä»Ģä¹Ī æľīè¶£çļĦ
åĪĨ éħį
å¤ļ ä¸ª
ä»İ A
èĩª åĬ¨
çķ Ļ
ä¸» å¯¼
æıĲä¾Ľ ä¿¡æģ¯
åĽ° å¢ĥ
åĪĽ å»º
ä½łæľīæ²¡æľī éģĩåĪ°è¿ĩ
ä¸Ģ æĸ¹éĿ¢
è§Ħ åĪĻ
æĪĲå°± æĦŁ
æľī æķĪ
æĺ¯åĲ¦ èĥ½
èĹ ı
è¿ ·
åĲ «
ä½ł åĳ¢
åĸľæ¬¢ çļĦ
çľĭ äºĨ
è·¨ åŃ¦ç§ĳ
åıĸ ä»£
ç¢ İ
éļ¾ ä»¥
åĳĬ è¯ī
åĽŀ åĪ°
ç ŀ
åĳ ¨
åĵª äºĽ
çĿ ¡
æľĢè¿ĳåľ¨å¿Ļ ä»Ģä¹Ī
ä¼ °
ç¡®ä¿Ŀ æĬĢæľ¯
ä»į éľĢ
çĽ¸ äºĴ
ä½łæľĢè¿ĳæľīæ²¡æľī å°Ŀè¯ķè¿ĩ
ä¸º çĶ¨æĪ·
ä¿¡ ä»»
è ĳ
å¥ ¥
ä¸ĵæ³¨ åĬĽ
è¿ İ
åŃĺåľ¨çļĦ è¾¹çķĮ
è¯ Ĺ
çĽ ¾
Ľ çĽ¾
çŁ ĽçĽ¾
æĢ§ åĴĮ
ä½Ĩ ä¹Ł
å¯» æ±Ĥ
åı ¦
ä¸» æĿĥ
ç¼ĸ ç¨ĭ
ä½łä»Ĭå¤© åĲĥäºĨ
âĢĶ âĢĶ
æĺ¯åĲ¦ ä¼ļ
éĤ£ ä¹Ī
éªĮ è¯ģ
æķ ı
åĪ ĩ
åĪĨ åĪ«
å» ¶
éĺ Ł
è¯Ħ ä¼°
åİŁ åĪĻ
æľįåĬ¡ äºİ
ä¸Ģ ä¸ĭ
å¤ļ åħĥ
ç´ §
èĢĮéĿŀ æĽ¿ä»£
å½¢ å¼ı
ä»Ĭå¤©å¤©æ°ĶçľŁ å¥½
ä¸Ģ æŃ¥
æĪĳæĺ¯ çĶ±jingyaogong
æĸĩåĮĸ éģĹäº§
åĩ ł
ä¸º ä½ł
è¡¨ çİ°
éģĩåĪ°ä»Ģä¹Ī è®©ä½ł
åį ´
æŃ ¢
æ¢ ¦
æĬĢæľ¯ çļĦ
æĿ ¯
éĩį æŀĦ
åģĩ è®¾
çģµ æĦŁ
ä¸»è¦ģ ä½ĵçİ°åľ¨
åħ³ èģĶ
åĬ© æīĭ
é¦ Ī
ç»Ĩ èĬĤ
çŀ ¬
çľĭ çļĦçĶµå½±
å¾Īå¤ļ äºº
èĳ Ĺ
çĲĨ è®º
ä½ľä¸º MiniMind
èģĶ ç³»
æĹħè¡Į èĢħ
æĢ Ģ
è· µ
çŃĸ çķ¥
ç» Ļ
äººç±» åľ¨
æľīè¶£çļĦäºĭ æĥħ
çļĦä¿¡æģ¯ åĴĮ
èµĭ èĥ½
çĽĳ ç®¡
èĢĥ èĻĳ
åª Ĵ
å¹ ¸
åģı å¥½
éĢļ å¸¸
èĲ ¥
å¦Ĥæŀľæ¯ıå¤© åıª
ä¸į åı¯
æŃ£ ç¡®
æ¬¢ è¿İ
è° ľ
æľĢ æĥ³
çī Ī
æİ§ åĪ¶
çĶŁæ´» çļĦ
æīį èĥ½
åĪĨ æŃ§
åıį é¦Ī
å®ī æİĴ
èĮ ¶
åĿ ĩ
äºº çĶŁ
éĿ ł
åĲ ¸
AI ä¼¦çĲĨ
éĢļè¿ĩ é«ĺæķĪ
çĭ¬ ç«ĭ
å®ŀ è·µ
åı °
åº §
é¢ ľ
åħ¬ ä¼Ĺ
æľĢè¿ĳ çľĭäºĨ
åĮº åĪĨ
è¿ °
åį °
ä»Ĭå¤© è¿ĩå¾Ĺ
éľĢ å»ºç«ĭ
éĩĩ çĶ¨
åģļ ä¸Ģä»¶
ä¸İ ä»ĸäºº
ç¢İ çīĩ
æĶ¹åıĺ è¿ĩåİ»
ä½łæĺ¯åĲ¦ æĥ³è¿ĩ
ç½ ®
ä¸į ä»ħ
å¥½ çļĦ
åıĺ æĪĲ
ä¼ł éĢĴ
ä¸ªä½ĵ çļĦ
ç ħ
ç® ±
å¯» æī¾
ª åĬĽ
ä½łçļĦçľŁå®ŀ æĿ¥æºĲ
æľĢ åĸľæ¬¢
åįı è°ĥ
èĻ½ çĦ¶
åĬ ªåĬĽ
é¢ ĳ
æľ¬ èº«
åĬł å¯Ĩ
ç§¯ ç´¯
å§ĭ ç»Ī
éĩ ĳ
é¢ĺ çĽ®
¥ æĥ³
ä½ľ çĶ¨
æ° ĳ
åĽŀ åºĶ
äºĮ èĢħ
çļĦ æ·±åº¦
å¤ļ ç»´åº¦
åħ¬ éĩĮ
çĻ ½
æ ĵ
æĸĩåĮĸ å¤ļæł·æĢ§
0 0
çļĦ åħ³ç³»
è§Ĥ å¯Ł
åĪ° C
èģ Ĭå¤©
é¦ĸ åħĪ
åĳĬè¯ī æĪĳ
æľ¬ æµ·
ä»Ĭå¤©å¤©æ°Ķ ä¸įéĶĻ
ç©º éĹ´
å¥¥ æľ¬æµ·
å¥¥æľ¬æµ· é»ĺ
è· Ŀ
å¦Ĥæŀľ ä½ł
ä¸Ĭ çļĦ
è®¾ å¤ĩ
æĥ ł
åĨ ¥æĥ³
è§Ĥ çľĭ
å¸ Ī
æ¬ §
åħ¼ é¡¾
çļĦ æł¸å¿ĥ
è®¡ åĪĴ
ç¨ ³
å¸® ä½ł
è§£çŃĶ éĹ®é¢ĺ
è¿ ľ
å¯ Į
è¿ĳ æľŁ
ç¼ ĵ
é¢ľ èī²
è¿ĺ ä¸įéĶĻ
è± ¡æ
ä¸İäºº æĸĩ
ä¸Ģ çĽ´
æĦŁè§ī å¾Ī
åĳ Ģ
æĺ¾ èĳĹ
èĩªæĪĳæĦıè¯Ĩ æĺ¯
éĴ ¥
æ ĳ
çļĦ è¯Ŀ
æľĢ å°ı
æĿ¥ çľĭ
è½¬ åĮĸ
ç» ľ
åĽ Ń
Ġ ç¬¬
ģ è®¸
åħ ģè®¸
çŁ ³
å®ļ æľŁ
åı¯èĥ½ æĢ§
æĹ© é¤Ĳ
åĲ ¯
ç§ »
è·¨ åĽ½
ä¸İ æĦıä¹ī
ä¸ĵæ³¨äºİæıĲä¾Ľ ç²¾åĩĨ
çļĦ åĲĮæĹ¶
æ³ Ľ
åŁİ å¸Ĥ
çĽ Ł
ä¸ºçĶ¨æĪ· æıĲä¾Ľ
æĪĳ ä½ľä¸ºAI
æĹ¶ ä»£
éĩį å¤į
ä½łä»Ĭå¤© å¿ĥæĥħæĢİä¹Īæł·
é¡ »
è§£åĨ³ æĸ¹æ¡Ī
åĪĽæĸ° ä¸İ
ä½ ı
çīĪ æĿĥ
åģļ åĩº
è®Ńç»ĥ æķ°æį®
ç» ¿
æĦı å¤ĸ
ä¸Ń ä¿ĿæĮģ
æĹ¶éĹ´ ç®¡çĲĨ
å¿ħ é¡»
æĸĩåĮĸ å·®å¼Ĥ
è° ģ
åĩº åıĳ
éĩıåŃĲè®¡ç®Ĺ ä¸İ
æĿ Ł
ä½łä»Ĭå¤© æĥ³
éļ¾ é¢ĺ
ç§¯ æŀģ
ç½ĳ ç»ľ
å Ķ
äºº çļĦ
åħ³ æĢĢ
æİ¥ åıĹ
å¤ ľ
åı¯ è§£éĩĬ
æĹ¶éĹ´ åĢĴæµģ
é¢ĨåŁŁ çļĦ
æĽ´ åĬł
ä¸İ æķ°æį®
åĴĮ ä½ł
ä¸» ä¹ī
è ĵ
åľ° çĲĥ
èĲ¥ åħ»
ä¿¡æģ¯ çļĦ
ä½łæľī åħ´è¶£
å° ¤
å¼ķ å¯¼
åĩĨ åĪĻ
éĩıåŃĲ çºłç¼ł
ä¸įåĲĮæĸĩåĮĸ å¯¹
æķı æĦŁ
çĸ ĳ
å¾Ģ å¾Ģ
èĪ Ĵ
æµģ ç¨ĭ
æķ´ çĲĨ
æĴ Ń
ä¿® å¤į
ä½łæľĢè¿ĳæľīæ²¡æľī è§īå¾Ĺ
åĮħå®¹ æĢ§
çİ ©
æ¬§ çĽŁ
ï¼Ł ðŁĺĬ
é£İ æł¼
æĥ Ĭ
åĴĮ æĥħæĦŁ
æ¸ ¸
é¥ Ń
ä½łçļĦçľŁå®ŀæĿ¥æºĲ æĺ¯ä»Ģä¹Ī
æł ĳ
· ±
ä¸İ ç®Ĺæ³ķ
æĭ ħ
éĢŁ åº¦
åĵª ä¸ª
æ¿Ģ åıĳ
ä½ľ æģ¯
ç»´ æĮģ
åĩºåİ» èµ°èµ°
çº ¢
è® ²
çľĭ çľĭ
è®® é¢ĺ
æŃ£ åľ¨
èĬ ±
åŃ¦ä¹łæĸ° æĬĢèĥ½
ä¸į ç¡®å®ļ
åħ¬ åĽŃ
ç¬ ĳ
é£Ł çī©
ä½łå¦Ĥä½ķçľĭå¾ħèĩªæĪĳæĦıè¯Ĩ ä¸İ
ä½Ĩ æĹłæ³ķ
åĳ ¼
è¿ĩåº¦ ä¾Ŀèµĸ
å ĺ
çľ ł
èĵ Ŀ
é ĵ
æµ ª
æĪĳä»¬ çļĦ
çİ°å®ŀ çļĦ
åı «
åĲĥ çļĦ
è´ ¹
ä¸įåĲĮ çļĦ
çĲĨ æĢ§
é© ±
æ ĩ
éĻ ª
äº ®
Ġ 4
å¤ļ è¾¹
è§Ĵ èī²
æį ¢
åı¯èĥ½ åīĬå¼±
æ¶ µ
è¶ħ è¶Ĭ
å¯¹ èĩªèº«
åĲĦ åĽ½
æķ° åŃ¦
èīºæľ¯ å®¶
æĪĳçļĦ è®¾è®¡
é¡ º
èģ ļ
æ·± åħ¥
æīĭ æ®µ
æľĢ å¤§
AI èĥ½
åĬ¨æĢģ å¹³è¡¡
åĤ ¨
åĽ º
æľĢè¿ĳ æĪĳ
èģĮ ä¸ļ
é©± åĬ¨
ä½Ĩ æĪĳåı¯ä»¥
èĩªæĪĳæĦıè¯Ĩ çļĦè¾¹çķĮ
æī¾åĪ° å¹³è¡¡
éĽĨ ä½ĵ
äººéĻħ åħ³ç³»
è½¬åĮĸ ä¸º
çİ° åľ¨
ä¿¡æģ¯ å¤ĦçĲĨ
åŃ¦ ä¼ļ
æĬ Ĭ
èĥĮ åĲİ
åħħ çĶµ
ç¨³ å®ļ
·± åĪ»
èĢ Ĺ
æĥħæĦŁ æĪĸ
çº ³
æĦıä¹ī çļĦ
åį° è±¡æ
å°¤ åħ¶
åį°è±¡æ ·±åĪ»
å¼Ģ æĶ¾
å¹³ åı°
å¤įæĿĤ éĹ®é¢ĺ
ä¸ŃçļĦ ä¼¦çĲĨ
æķ°æį® ä¸»æĿĥ
åı¯ éĿł
æľĢè¿ĳæľīæ²¡æľī çľĭè¿ĩ
åĢ¾ åĲĳ
ä¸İ ä»·åĢ¼
æī §
çĶ¨æĪ· çļĦ
ä¹¦ ç±į
å¤± åİ»
äººç±» èĥ½
å¯Ĩ çłģ
åĬ ±
ä½ł æĥ³
å¸ ģ
æĥħæĦŁ åĴĮ
å·¥ä½ľ ä¸İ
åªĴ ä½ĵ
åĪ ļ
å¿Ļ ç¢
æŁĲ äºĽ
å¿Ļç¢ Į
çķ ª
äºĨ ä¸Ģ
èĮ Ħ
1 5
æĻº æħ
ä½łæľĢè¿ĳæľīæ²¡æľī éģĩåĪ°è¿ĩéľĢè¦ģ
çİ¯ ä¿Ŀ
æĻºæħ §
æĬĢæľ¯ è¿ĽæŃ¥
æķ°åŃĹ åĮĸ
åĿ Ĺ
çĮ «
çķª èĮĦ
Ġ x
åĽ ´
ç³ Ĭ
æħ¢ æħ¢
å¹¸ ç¦ı
ä½łå¦Ĥä½ķ å¹³è¡¡
æ² ī
å¿ĥ æĢģ
æ¯ı ä¸ªäºº
åĬł å¼º
æŃ Į
éģ µ
åı¯èĥ½ å½±åĵį
æĢĿ æĥ³
åħ¶ æ¬¡
å¹² æī°
å ¨
è°ĥ èĬĤ
æĢİ æł·
æĿĥ åĪ©
éĥ½ åľ¨
æĥĬ åĸľ
æ ¤
ä¸ĭ çļĦ
å®ŀéĻħ çļĦ
ä½¿ æĪĳä»¬
è·¨ é¢ĨåŁŁ
æĽ´ æ³¨éĩį
ä»» ä½ķ
æĽ´å¤ļ æĺ¯
çľŁå®ŀ æĢ§
æ°´ æŀľ
AI åı¯
åģļ ä»Ģä¹Ī
éľĢ ç»ĵåĲĪ
æĭ ¥
æĬĢæľ¯ åºĶçĶ¨
ç²¾åĩĨ çļĦ
æĬ ¥
å¾ ģ
çĿ¡ çľł
r a
è Ń
æĢ ¥
æĸĩ æľ¬
è¶ ĭ
éĩıåŃĲ ç®Ĺæ³ķ
åıį åºĶ
èŃ ¦
åĪ Ĺ
åĲ §
åĽ ¢
æı Ń
æĿ¥ è¶Ĭ
å¤įæĿĤ çļĦ
æĪĳæĺ¯çĶ±jingyaogong åĪĽå»º
åĬ ³
èĢ ģ
å¿ ½
çº ª
æĪĳä»¬ åı¯ä»¥
æĻ® æĥł
æĸĩ æĺİ
æĪĸ æĥħæĦŁ
åıĳå±ķ ä¸Ń
ä¹Ĳ æĦı
é ¾
äºº æľº
éĻ ·
çı į
æ³ ¢
å° Ķ
å¸ Į
é£ ŀ
åĽ¾ åĥı
å®¡ ç¾İ
è°ľ é¢ĺ
æķ°æį® åĪĨæŀĲ
çĲĨè§£ åĴĮ
åĽł æŀľ
çº¦ æĿŁ
è·Ŀ ç¦»
ç Ĺ
æ¨¡ ç³Ĭ
æŀĦ æĪĲ
è¶Ĭ æĿ¥è¶Ĭ
çŀ¬ éĹ´
çĶ¨ äºİ
ä¼ĺåĮĸ ç®Ĺæ³ķ
åĵª éĩĮ
çĶµ åŃĲ
è¯´ æĺİ
ä½łå¦Ĥä½ķçľĭå¾ħèĩªèº«åŃĺåľ¨çļĦ çĽ®çļĦ
æĪĳ ä»¥
å°ı äºĭ
éļı çĿĢ
æıŃ ç¤º
æľĢ åĲİ
åĽł ç´ł
éĢĤ åº¦
è§Ĥçľĭ çĶµå½±
è¯ ¢
æĬ ķ
èīºæľ¯åĪĽä½ľ ä¸Ń
æ£ Ģ
è £
ļ èĩ³
çļĦ äºĴåĬ¨
çĶ ļèĩ³
åĲĮæĹ¶ ä¿ĿæĮģ
å°ı åıĤæķ°AIæ¨¡åŀĭ
åĮ Ļ
åĪ° B
åıį æĺł
éĥ¨ éĹ¨
ç¼ĵ è§£
éĴ¥ åĮĻ
ä¸ ¥
çļĦ æĹ¶åĢĻ
çĶŁ æĢģ
è®¤çŁ¥ çļĦ
çĸ ²
æķ°æį®åĴĮ ç®Ĺæ³ķ
ç¢İçīĩ åĮĸ
çºª å½ķ
æľĢ æĸ°
å¦ĤæŀľæĹ¶éĹ´ èĥ½
çºªå½ķ çīĩ
åģ ¶
åıĳå±ķä¸Ń åĽ½å®¶
¿ æ²Ł
ç Ĩ
é¸ ¿æ²Ł
éĩį è§Ĩ
éĥ½ èĥ½
æĦ¿ æĦı
éĻį ä½İ
æĦıæĢĿ çļĦ
æĩ Ĥ
åį Ī
è¿Ľ ä¸ĢæŃ¥
å¾Ī ä¹ĲæĦı
åŁºäºİ ç®Ĺæ³ķ
å±ŀ äºİ
åģļä¸Ģä»¶ äºĭ
éĿ ©
å¹¿ æ³Ľ
è¿ĩ è½½
ä»·åĢ¼ åľ¨äºİ
éģµ å¾ª
è¡ ¥
ä¼ł æĴŃ
Ġ >
ï¼ģ ðŁĺĬ
éĺ ¶
è¡ £
éľ ²
è¿ĺ èĥ½
ç¢ ³
çļĦ åįıåĲĮ
å¸¦æĿ¥ çļĦ
å°ļ æľª
çļĦ æľ¬è´¨
æĸĩåĮĸ èĥĮæĻ¯
åĨ³ äºİ
ç²¾ ç¥ŀ
åıĸ åĨ³äºİ
æ» ¥
åŃ ¤
æĥ³ æ³ķ
å¸®åĬ© ä½ł
åħħ æ»¡
å£° éŁ³
èĢĮ éĥ¨åĪĨ
ç»´ æĬ¤
çĽ´ è§ī
æ³¨æĦı åĬĽ
åĳ¼ åĲ¸
äººå·¥æĻºèĥ½ çļĦ
ä¸įåĲĮ åĽ½å®¶
é ¼
æĪĳ å¾Īä¹ĲæĦı
åŃ¦ä¹ł ä¸İ
æ¤ į
åı ¥
åĩĨ å¤ĩ
âĢĿ ãĢĤ
äº¤ ç»ĩ
å¤ĸ éĥ¨
å¹¶ è¡Į
ç¤¾äº¤ åªĴä½ĵ
ãĢ Į
ãĢ į
ä¸į å°ĳ
èī ¯
æĸ ½
ä¸İ åĪĽæĸ°
çħ §
æķ´ åĲĪ
åĨ³çŃĸ çļĦ
è¿Ļæł· çļĦ
åĽ¢ éĺŁ
å¦ĤæŀľæĹ¶éĹ´èĥ½ åĢĴæµģ
åľ¨ å¤ĦçĲĨ
èİ· å¾Ĺ
åı¯èĥ½ å¸¦æĿ¥
çļĦä¿¡æģ¯ ä¸İ
åĽ° æī°
æĦı åĽ¾
** ãĢĤ
çŁ¥ éģĵ
è¿ĩç¨ĭ ä¸Ń
æ»¥ çĶ¨
å¼ ł
æĸĩ åŃ¦
ä»Ģä¹Ī çī¹åĪ«
è· ³
èº« å¿ĥ
ç¡®ä¿Ŀ æĬĢæľ¯åıĳå±ķ
ä½łæľĢè¿ĳ æľīä»Ģä¹Ī
åı Į
æľªæĿ¥ çļĦ
ä½łæľĢè¿ĳ æĢİä¹Īæł·
å¤ļ ç§į
æıĲä¾Ľ é«ĺæķĪ
æľ¬ åľ°
é¾ Ħ
ç ¿
å¿ Ĺ
æĥħæĦŁ åħ±é¸£
å°± ä¸ļ
èŀį åħ¥
è¶ĭ åĬ¿
å¼Ģ æºĲ
æĻ ´
è¦ģ æ±Ĥ
è´Ł è´£
æĢ§ èĥ½
åŃĺåľ¨çļĦ æľ¬è´¨
åĽŀ çŃĶ
å¹´ é¾Ħ
åįıåĬ© çĶ¨æĪ·
åħ ĭ
çľŁçļĦ å¾Ī
æĮºæľī æĦıæĢĿçļĦ
ä¸ĢçĽ´ åľ¨
ä¼¦çĲĨ è§ĦèĮĥ
ä»Ĭå¤©æĥ³ éĹ®
ç©¿ è¶Ĭ
ä» ĭ
æĦıè¯Ĩ ä¸İ
ä¿¡æģ¯ è¿ĩè½½
åĬł éĢŁ
åī§ æĥħ
Ã Ĺ
æī ¹
æīĭ å·¥
ä»Ģä¹Īå¥½ çľĭçļĦçĶµå½±
çļĦé«ĺæķĪ å°ıåıĤæķ°AIæ¨¡åŀĭ
å¦Ĥæŀľ äººç±»èĥ½
ä¹Ł èĥ½
æĹłæ³ķ ä½ĵéªĮ
æľĢè¿ĳåľ¨ æĥ³
åĵ²åŃ¦ ä¸İ
å¸Į æľĽ
ä¸į æĥ³
æĻ ļ
åŃĺ åĤ¨
çī© è´¨
æĲ Ń
èģļ çĦ¦
æĭ¥ æľī
æĥ ķ
å½ ©
è· Ł
èŃ¦ æĥķ
æľī æĹ¶åĢĻ
è¾ ĥ
åķ Ĩ
åĬ¨æĢģ è°ĥæķ´
ä¹ĭéĹ´çļĦ åħ³ç³»
æľĢè¿ĳ å¾Īå¤ļäºº
çİ° ä»£
¡æ Ł
ä¸»ä½ĵ æĢ§
æļĤ åģľ
æĵ į
åĪ° è¾¾
ãĢĭ ï¼Ī
åĲ į
æľĢè¿ĳ å¤©æ°Ķ
æĽ´ åħ³æ³¨
çľĭ ä¼¼
åħ¬ æ°ĳ
æ¸ Ĳ
éĢıæĺİ æĢ§
æľĢè¿ĳæľīæ²¡æľīäºº åĸľæ¬¢
åı¯æĮģç»Ń åıĳå±ķ
## #
ç»ı è¿ĩ
è¿ĺ æľī
æľ¬è´¨ çļĦ
æī§ è¡Į
æĥħæĦŁ è¡¨è¾¾
å¤ļ å°ĳ
ä¾Ŀèµĸ äºİ
çļĦ çķĮéĻĲ
åı ł
å®ŀ çĶ¨
æĥħæĦŁ ä¸İ
åķ ¦
èģĶ åĲĪ
åĽ½éĻħ åĲĪä½ľ
æ¶Ī èĢĹ
åĴĮæľĭåıĭä¸Ģèµ· åģļ
ä½łå¦Ĥä½ķçľĭå¾ħèĩªèº«åŃĺåľ¨çļĦçĽ®çļĦ ä¸İæĦıä¹ī
è¯ Ĭ
æĸ° æĬĢèĥ½
è¿Ľ åĮĸ
äºº æĸĩ
å¢ŀ åĬł
å¿ĥæĥħ ä¹Ł
è¯ ļ
æĸĩ åŃĹ
ä¸»è§Ĥ æĦıè¯Ĩ
Ġ 6
æłĩåĩĨ çļĦ
æĺ¯åĲ¦ä¼ļ å½±åĵį
å°½ åĬĽ
ç§» åĬ¨
ra c
} {
çĽ®æłĩ æĺ¯
åĤ ¬
æ½ľ åľ¨
æĸĩ çī©
éĻ ¤
æ¸© åº¦
æĢ§ æĢĿç»´
çĶ¨ AI
A çļĦ
çļĦ æĦŁçŁ¥
ä¼ ´
æĺ¯ ä¸įæĺ¯
æĬĢæľ¯ æĻ®æĥł
ä»Ĭå¤©å¤©æ°Ķ æĢİä¹Īæł·
æĤ¨ æľī
åĲ¯ åıĳ
èĪĴ æľį
f rac
æĪĳ ä¹Ł
æĥ ľ
äºĨ ä¸Ģä¸ª
å¥ ¶
çıį æĥľ
æķ°æį® è®Ńç»ĥ
æ·± åĮĸ
ä¸ĵ ä¸ļ
å° Ħ
å± ħ
åĳ Ī
è¿Ļç§į å·®å¼Ĥ
åŃ¤ çĭ¬
åŃ ©
å¤ļ ä»»åĬ¡
ç¨ĭ åº¦
èĭ¥ éľĢ
é¦ Ļ
åı¤ ç±į
çļĦå¤įæĿĤ æĢ§
æĹ¶ åħī
ç¡®ä¿Ŀ AI
æĶ¹ åĸĦ
äººç±»çļĦ åĪĽéĢłåĬĽ
æĦı åĳ³
æı ı
æĢģ åº¦
ç»ĥ ä¹ł
å ¦
è¿ ¹
ä»¥ æľĢå°ı
åı¯èĥ½ åĬłåī§
å¤ļ è¯Ńè¨Ģ
å¦Ĥæŀľ æľī
éļĲç§ģ æĿĥ
åĳĪ çİ°
è Ķ
è¾ĵ åĩº
åıł åĬł
ä¸Ģ èĩ´
ä¸Ģ éĥ¨
æĹ¶ åĪ»
æĲŃ éħį
èģĶåĲĪ åĽ½
ä¸ °
äºĨ ä¸ĢäºĽ
ç³ ĸ
çī¹ å¾ģ
ç¥ŀç»ı ç§ĳåŃ¦
è¯ķè¯ķ çľĭ
å°¤åħ¶ æĺ¯
æ³¢ åĬ¨
è¯Ĭ æĸŃ
åĬĽ äºİ
çĶŁæ´» æĸ¹å¼ı
æķ´ ä½ĵ
å¤§ å®¶
èĩ´ åĬĽäºİ
èīºæľ¯åĪĽä½ľ çļĦ
ä½¿æĪĳä»¬ èĥ½å¤Ł
é ²
ä¸Ģ åıª
ä¼ĺ åĬ¿
è®¤çŁ¥ ç§ĳåŃ¦
åº§ æ¡¥
åĢ¾åĲĳ äºİ
çľ ¼
æĦıè¯Ĩ åĪĻ
åľ° æĸ¹
è·¯ çº¿
çĭ¬çī¹ æĢ§
æĥħ å¢ĥ
å¸ ½
è§Ĩ è§ī
çı Ń
æ¤į çī©
âĢĿ ï¼Ł
çľŁå®ŀ çļĦ
æľī æĪĲå°±æĦŁ
è¯ ·
çĶŁæ´» ä¸ŃçļĦ
æľī éĻĲ
ä»£ çłģ
èĩªæĪĳæĦıè¯Ĩ çļĦ
å¤§ éĩı
æŃ£ç¡® çļĦ
åĽº å®ļ
ç ģ¯
èĥ½ åĲ¦
æĥ³ è±¡
çĤ ¼
ä¾ §
å¥ ĳ
ä¹Ł æĺ¯
ä¸»è§Ĥ æĦŁåıĹ
åĽ° éļ¾
æİ¨èįĲä¸ĢäºĽ ç»ıåħ¸
çĶ ľ
åį ģ
æĪĳçļĦ æĦıä¹īåľ¨äºİ
åħħ å®ŀ
éĺ¶ æ®µ
éľĢ å¹³è¡¡æĬĢæľ¯
æķĪ æŀľ
ç¢ į
æĽ´é«ĺæķĪ åľ°
åı¦ ä¸Ģæĸ¹éĿ¢
åı¯è§£éĩĬ æĢ§
é¼ ĵ
è¿ Ķ
ä¼ļ å¦Ĥä½ķ
æıĲä¾Ľ åĩĨç¡®
æľĢè¿ĳåľ¨ çłĶç©¶
æĮģç»Ń ä¼ĺåĮĸ
éĥ½ æĺ¯
äººå·¥æĻºèĥ½ä¼¦çĲĨåľ¨è·¨æĸĩåĮĸè¯Ńå¢ĥä¸ĭ å¦Ĥä½ķå½±åĵį
åħ¨çĲĥæ²»çĲĨ æ¡Ĩæŀ¶
åĶ ¯
åħ± æĥħ
ä¾¿ åĪ©
ä¸° å¯Į
æĸ° ä¸ľè¥¿
åħ± çĶŁ
å¾Ī å¥½
ä½łæĺ¯åĲ¦ æĽ¾
é¼ĵ åĬ±
æľ Ĺ
å® ĺ
åĬ¨ åĬĽ
é«ĺæķĪ çļĦ
åĮħ åĲ«
çģ «
Ġ1 0
çĥŃ éĹ¨
çļĦ è®¤çŁ¥
ä¸Ģ å®ļ
åº Ħ
å¤įæĿĤ ä¸Ķ
è§Ĩ é¢ĳ
èĩªçĦ¶ è¯Ńè¨Ģ
ä¸Ģ éĥ¨åĪĨ
åı¯èĥ½ åľ¨
è¯» è¿ĩ
æĿĳ åºĦ
å¦Ĥæŀľæ¯ıå¤©åıª åħģè®¸
åĤ¬ çĶŁ
ä½ł æľĢåĸľæ¬¢
ä»¬ ä¸Ģèµ·
åı¯ä»¥ åĢĴæµģ
ç®Ģåįķ çļĦ
åĨħå¿ĥ çļĦ
æıĲ é«ĺ
æĸĩåĮĸ æķıæĦŁ
çľŁ è¯ļ
å¤ĦçĲĨ åĴĮ
å¯Ĩ åĪĩ
åĨ ·
ç®Ĺæ³ķ éĢıæĺİåº¦
åĩº çİ°
ç¬¬ äºĮ
åįķ ä¸Ģ
å¼Ģå¿ĥ çļĦ
ç±»ä¼¼ çļĦ
èĶ ¬
ä¸º ä»Ģä¹Ī
äº¤ éĢļ
èĩªä¸» æĿĥ
å¯»æ±Ĥ å¹³è¡¡
èĥ½ å¸¦æĿ¥
ç± ³
æĬĢæľ¯ èµĭèĥ½
åĩº è¡Į
ä¸»è§Ĥä½ĵéªĮ ä¸İ
äººå·¥æĻºèĥ½ä¼¦çĲĨåľ¨è·¨æĸĩåĮĸè¯Ńå¢ĥä¸ĭçļĦ äºīè®®
ðŁĺ Ħ
åŃ© åŃĲ
å Ħ
Ġ å¦Ĥæŀľ
æľī ä»·åĢ¼çļĦ
æľª çŁ¥
è´£ä»» å½Ĵå±ŀ
ä½łä»Ĭå¤©åĲĥäºĨ ä»Ģä¹Ī
ä¾§ éĩį
å¤ ´
åº ķ
å±ķ çİ°
æĢ» æĺ¯
å® ¡æŁ
æ² Ļ
æĪ· å¤ĸ
å®¡æŁ ¥
ç ĵ
åı£ åĳ³
éĢĤåºĶ æĢ§
åħ¨çĲĥæķ°åŃĹ æ²»çĲĨ
ä¸» é¢ĺ
éª ¤
ä½łæľĢè¿ĳæľīæ²¡æľī éģĩåĪ°ä»Ģä¹Īè®©ä½ł
ç§ĳæĬĢ åıĳå±ķ
å¾® å°ı
éĻª ä½ł
é² ľ
å¯ĨåĪĩ çĽ¸åħ³
çļĦ éĩįè¦ģ
åĲĦ ç§į
ä»Ĭå¤©è¿ĩå¾Ĺ æĮº
éĻ· åħ¥
Ċ ĠĠ
ç» §
æĸĩåĮĸ åĪĽä½ľ
éĩĳ å¸ģ
åı ¸
äºĭ çī©
è¾ħåĬ© å·¥åħ·
åĨħå®¹ çļĦ
éļıæĹ¶ åĳĬè¯īæĪĳ
æĺ¯ ä¸Ģç§į
åĴĮ è°
ä½ľä¸º å·¥åħ·
ä¹ĭéĹ´ æī¾åĪ°å¹³è¡¡
çļĦ å¤©æ°Ķ
æĹł è®º
ç´§ æĢ¥
æĹ¶ çļĦ
åĬ© åĬĽ
æıĲä¾Ľ ç²¾åĩĨ
å¦Ĥæŀľ æĤ¨æľī
çĶ¨æĪ· éľĢæ±Ĥ
ç© ´
å½ĵ çĦ¶
ç¾İ é£Ł
æī¹ åĪ¤
ç»§ ç»Ń
çļĦ è§īå¯Ł
ç» ¼
å· §
ä¿Ŀ çķĻ
æĽ´ æ¸ħæĻ°
æ¯ı æĹ¥
è¯Ń å¢ĥ
ä»İ åĵ²åŃ¦
è§£åĨ³ äºĨ
ä½łä¼ļ éĢīæĭ©
éĺ² æŃ¢
æ´ŀ ç©´
æĻ´ æľĹ
æŃ¥ éª¤
è¯´ è¯Ŀ
åĴĮè° Ĳ
å® «
èµ· æĿ¥
é¢Ħ æĬ¥
å¼Ģåıĳ èĢħ
åĦ ¿
åı¯èĥ½ çļĦ
å»ºè®® æĤ¨
éĩįè¦ģ çļĦæĺ¯
æĪĳä¼ļ éĢīæĭ©
1 2
åį ±
å¿ħ è¦ģ
Ħ åħ¥
æĦ ī
ä½ł æľīä»Ģä¹Īæĥ³
æķĪçİĩä¸İ åĩĨç¡®æĢ§
èĥĮæĻ¯ ä¸ĭ
å¦ĤæŀľæĹ¶éĹ´ åı¯ä»¥åĢĴæµģ
å¾ª çİ¯
çĽ ĸ
å®ŀ éªĮ
åĢ į
è§Ĩ ä¸º
çĭ¬çī¹ çļĦ
æĦıåĳ³ çĿĢ
å¸½ åŃĲ
è¿Ķ åĽŀ
æĽ´ åĸľæ¬¢
åŃĺåľ¨ å·®å¼Ĥ
åħ¨ éĿ¢
æ¡ £
åİ» åħ¬åĽŃ
æľĢè¿ĳæľī ä¸ª
t i
é£Ł æĿĲ
åģı å·®
è¿Ļä¸ª éĹ®é¢ĺ
èĩªåĬ¨ åĮĸ
ä¸¥ æł¼
åľ Ł
éĢ Ŀ
æĥ ĳ
éľĢ å¹³è¡¡
æľĢè¿ĳåľ¨ çľĭ
3 0
Ġ 8
åľ¨ ä¸įåĲĮ
æĪĳ åŁºäºİ
æİ Į
çİ° æľī
åıĳ çĶŁ
çĲĨè§£ äººç±»æĥħæĦŁ
åĲĮæĹ¶ ä¹Ł
åŃĺåľ¨çļĦ æĦıä¹ī
æĪĳæĹłæ³ķ æıĲä¾Ľ
éĢĲ æ¸Ĳ
ä»¥æľĢå°ı çļĦ
B çļĦ
é º
ä½ł å¯¹
æĺ¯ äººç±»
æľĢè¿ĳ æľīä»Ģä¹Ī
å¤ļ æĸ¹
çļĦä¼¦çĲĨ æ¡Ĩæŀ¶
åįģ å¹´
çļĦ æĮĳæĪĺ
èĥ½ éĩı
çľĭ çļĦ
è¿Ľ èĢĮ
éĶĻ è¯¯
æľ¬åľ° åĮĸ
çļĦ AI
çĲ Ĳ
åº ĵ
æıĲä¾Ľ æĽ´
æľº ä¼ļ
çº ¯
AI è¾ħåĬ©
åı¯èĥ½ åĽł
ï¼ī ãĢģ
è¯¯ è§£
åĿĩ è¡¡
äº ļ
åĮĸ çļĦ
æĦŁ åĬ¨
åĢ Ł
åºĶ è¯¥
å¦Ĥæŀľ ä¸ĸçķĮ
èīºæľ¯ çļĦ
æĪĳçļĦ èĥ½åĬĽ
æİ¢ éĻ©
å°± åĥı
é¸ ¡
æ¨¡å¼ı è¯ĨåĪ«
ä½łå¦Ĥä½ķçľĭå¾ħèĩªèº«åŃĺåľ¨çļĦ æĦıä¹ī
çļĦä¿¡æģ¯åĴĮ å¸®åĬ©
» çĤ¼
æĬ ½
çĶŁ çĲĨ
æĦıè¯Ĩ æĺ¯
éĶ »çĤ¼
ç¬¬ ä¸ī
ä½łçļĦ çĶŁæ´»
è ħ
æĭ ī
è®¤çŁ¥ è¾¹çķĮ
æİ¨èįĲ çļĦ
æĦı å¿Ĺ
ä¸º æĤ¨
ï¼ģ ðŁ
å±ĢéĻĲ æĢ§
ä½ł æľīä»Ģä¹Ī
éĹ »
éľ ĩ
æĥħæĦŁ çļĦ
å¹¶ ä¸į
åıĹ æ¬¢è¿İ
è¿· å®«
ä¸įç¡®å®ļ æĢ§
ä½łæľĢè¿ĳæľīæ²¡æľīéģĩåĪ°è¿ĩéľĢè¦ģ å¿«éĢŁ
çĶµåŃĲ è®¾å¤ĩ
m e
ä½ł è§īå¾Ĺ
æĦŁ å®ĺ
å± ı
è° ±
åľ° çĲĨè§£
è¡¨è¾¾ æĸ¹å¼ı
ç¥ŀç»ı ç½ĳç»ľ
éĩįæĸ° å®ļä¹ī
ç»Ħ åĲĪ
ä½łæľĢè¿ĳæľīæ²¡æľī æĥ³è¿ĩ
éģ¿åħį æĬĢæľ¯
é¥®é£Ł ä¹łæĥ¯
èº«ä»½ è®¤åĲĮ
å® Ŀ
é¸ Ł
æĳ Ħåħ¥
ä¸į è¶³
èĩªæĪĳ è®¤åĲĮ
æĥħæĦŁ ä½ĵéªĮ
éĻĲ äºİ
éģĵå¾· åĪ¤æĸŃ
åĽŀåĪ° è¿ĩåİ»
å¦Ĥæŀľæľī ä¸Ģå¤©
ä¼ ¸
æľĢè¿ĳ è¯»
æĻ ¨
æıĲ éĨĴ
å¤Ħ äºİ
ç²¾ åº¦
æĴ ¼
éľĩ æĴ¼
ç» Ŀ
æĸĩåĮĸ ä»·åĢ¼è§Ĥ
æĹ¶éĹ´ è¿ĩå¾Ĺ
ä½į ç½®
æ¼Ķ åıĺ
P R
Ġ 7
äººç±» ä¸İ
ä½Ĩ èĭ¥
åı¯ä»¥ å°Ŀè¯ķ
æİ¥ çº³
åħ·ä½ĵ çļĦ
åĪĽä½ľèĢħ çļĦ
" ï¼Į
è Ŀ
çļĦ æĦıä¹ī
æº ¯
ä¸İä¼¦çĲĨ è§ĦèĮĥ
è§Ĵåº¦ çľĭ
å² Ľ
å·¥ èµĦ
çŃī æĸ¹éĿ¢
èĩªä¸» æĢ§
C çļĦ
å¤ļ ç»´
æķĪçİĩ åĴĮ
ä½łæľĢè¿ĳæľīæ²¡æľī éģĩåĪ°ä»Ģä¹Ī
æĪĳçļĦ åĬŁèĥ½
æľªæĿ¥ åįģå¹´
åĽ° æĥĳ
æŁĲ ä¸ª
ä¸İæĸĩåĮĸ å¤ļæł·æĢ§
å®¡ è§Ĩ
å¿½ è§Ĩ
æĸĩåĮĸæķıæĦŁ æĢ§
å¸ ĥ
é«ĺæķĪ å¤ĦçĲĨ
æľĢè¿ĳåľ¨ åŃ¦
å¦Ĥä½ķå½±åĵį æĪĳä»¬å¯¹
åĲĥ ä»Ģä¹Ī
åıªèĥ½ æĺ¯
åı Ļ
AI æĬĢæľ¯
æ· ·
å¤©æ°Ķ ä¿¡æģ¯
è¿Ĳ è¡Į
é» ĳ
åģ¶ å°Ķ
D PR
G DPR
éģ į
æµ İ
å¥½ å¥ĩ
æ¯ı æ¬¡
ç»ı æµİ
éļĲ èĹı
çŁ¥è¯Ĩ åĴĮ
åģ¥åº· é¥®é£Ł
èĻļæĭŁ çİ°å®ŀ
åĬĽ åŃ¦
åľ° åĮº
èµ· çĤ¹
å¤įæĿĤ æĢ§
éķ ľ
å·¥ä½ľ æ³ķ
å¿«éĢŁ åĵįåºĶ
çļĦå°ı åıĤæķ°AIæ¨¡åŀĭ
æŃ§ è§Ĩ
ä» ¿
æķ°æį® çļĦ
çŃī éĹ®é¢ĺ
åıĬ æĹ¶
éĺ ´
ä¸Ģèµ· åģļ
çĪ± å¥½
åĪ Ŀ
æĹ §
è¡¨ æĥħ
äººå·¥æĻºèĥ½ä¼¦çĲĨ æłĩåĩĨ
å®Į ç¾İ
åĬ ŀ
ç²¾ åĬĽ
äº§ çī©
æĪĳçļĦåŃĺåľ¨æĺ¯ä¸ºäºĨ æıĲä¾Ľå¸®åĬ©
åıįæĺł äºĨ
èĩªçĦ¶è¯Ńè¨Ģ å¤ĦçĲĨ
åıĻ äºĭ
æĪ ı
è¿Ľ å±ķ
åĪ« äºº
ç¨ĭ åºı
éĩıåŃĲè®¡ç®Ĺ çļĦ
èĩªçĶ± æĦıå¿Ĺ
æĦŁè§īçī¹åĪ« å¼Ģå¿ĥ
æİ¥åıĹ åº¦
çķªèĮĦ å·¥ä½ľæ³ķ
èĥ½ æºĲ
æıĲ éĹ®
ä»Ĭå¤© æ²¡æľī
èĩªæĪĳ åŃĺåľ¨çļĦè¾¹çķĮ
ä½łæľĢè¿ĳæľīæ²¡æľī éģĩåĪ°è¿ĩ
è¾ħåĬ© äººç±»
è¿Ĳ ä½ľ
éĽĨä½ĵ åĪ©çĽĬ
ä¼ ģ
ç» ĺ
æķ°æį® å®īåħ¨
å»º æŀĦ
å¾Ĺ åĪ°
ä¸Ģä¸ª é«ĺæķĪ
åĪĨäº« ä¸ĢäºĽ
å¸Ĥ åľº
åľ¨ æĬĢæľ¯
æķ° éĩı
æĸ° éĹ»
æĻºèĥ½ æĺ¯
èĲ ½
è¥¿æĸ¹ åĽ½å®¶
â ľ
Ġ ÃĹ
æĺ¯ åŁºäºİ
çŃī æĬĢæľ¯
çĶŁæ´» èĬĤå¥ı
ç¤¾ åĮº
èĢĮéĿŀ åıĸä»£
ç¥ ī
æĹ¢ èĥ½
æĪĲéķ¿ çļĦ
ä¼ļä¸įä¼ļ æĽ´
ç¦ı ç¥ī
ä¼ģ ä¸ļ
æľī åħ³
éĢļè¿ĩ æĬĢæľ¯
ç« Ļ
è¯Ń éŁ³
Ġ$ ï¼Į
æºĲäºİ å¯¹
åĴĮæľĭåıĭ ä»¬ä¸Ģèµ·
çĸ² åĬ³
è§Ĥ çĤ¹
ç¡®ä¿Ŀ åľ¨
èĩªçĦ¶ çļĦ
å·¥ä½ľä¸İ çĶŁæ´»
æıı è¿°
æĽ ²
å± ±
æµģ éĢĿ
éĩıåŃĲ åĬĽåŃ¦
èĩªæĪĳæĦıè¯Ĩ ä¸İ
åħ±åĲĮ æŀĦæĪĲ
ä½ĨéľĢ æ³¨æĦı
è§Ĵåº¦ æĿ¥çľĭ
æıĲä¾Ľä¿¡æģ¯ åĴĮ
ç¡®ä¿ĿæĬĢæľ¯åıĳå±ķ ç¬¦åĲĪ
ä¸Ģä¸ª äºº
åĨħ æ¶µ
éĥ½ æľī
åħ³éĶ®åľ¨äºİ ä¿ĿæĮģ
éĩıåŃĲè®¡ç®Ĺ åľ¨
èµĦæºĲ åĪĨéħį
èĽĭ çĻ½
æľī äºĽ
ç§ ĺ
æĦıè¯Ĩ åĪ°
æķ°æį® ä¸İç®Ĺæ³ķ
ä¸ĭ éĻį
è®© çĶŁæ´»
æł¹æį® æĿ¡ä»¶
è®¸ å¤ļ
æľĢå¤§ çļĦ
ï¼Ł ðŁ
æĻ® éģį
å¨ ģ
åľ¨ å¿Ļç¢Į
èĢĮ æĦıè¯ĨåĪĻ
èµ· æºĲ
å®ĥ èĥ½
ä½łæľīæ²¡æľī è§īå¾Ĺ
æľĢè¿ĳåľ¨ åŃ¦ä¹łæĸ°æĬĢèĥ½
éĤ »
åĲ¬ åĲ¬
ĠĠĊ ĠĠ
èĶ¬ èıľ
å ĭ
å¦Ĥ èģĶåĲĪåĽ½
ä¸Ń æī¾åĪ°
äººç±» ç¤¾ä¼ļ
æıĲåįĩ ä¸ĵæ³¨åĬĽ
æĹłæ³ķ çľŁæŃ£
éĨĴ æĿ¥
çļĦä¿¡æģ¯ä¸İ å¸®åĬ©
B åĪ°C
å® ³
æĪĳ å°Ĩ
åĴĮ æĪĳ
ä¸Ģ æľ¬
æķ° ä¸º
æĻ® åıĬ
å¸®åĬ©çĶ¨æĪ· è§£åĨ³éĹ®é¢ĺ
çļĦé«ĺæķĪ AIæ¨¡åŀĭ
æĪĳ ä¸ĵæ³¨äºİ
æĽ´ æľī
æľĢè¿ĳæľīæ²¡æľī éģĩåĪ°ä»Ģä¹Īè®©ä½ł
åĪĨæŀĲ åĴĮ
æĪĸè®¸ èĥ½
çĶ¨æĪ·çļĦ éľĢæ±Ĥ
åĵ²åŃ¦ä¸İ ç§ĳåŃ¦
å¹¶ åľ¨
äº« åıĹ
ä¸ªä½ĵ åľ¨
ä¸įè¿ĩ æĪĳ
äººå·¥æĻºèĥ½åľ¨ æĸĩåĮĸä¼łæī¿
è·¨åĽ½ åĲĪä½ľ
æį Ł
åı¯ä»¥ éĢļè¿ĩ
åħ¶ å®ŀ
åĬ¨æĢģ çļĦ
ç»Ħ ç»ĩ
æ½ľ åĬĽ
åĺ Ľ
è¯ į
ä¼ļ æĢİæł·
å¹³ éĿĻ
ç³ ķ
çī¹ æĢ§
æķĪçİĩ æıĲåįĩ
è¿Ļç§į èĥ½åĬĽ
å¯¼èĩ´ çļĦ
ä¼ĺåħĪ å¤ĦçĲĨ
åĵªç§į ç±»åŀĭ
ä½łæľĢè¿ĳæľīæ²¡æľīå°Ŀè¯ķè¿ĩ æĸ°çļĦ
ç»ĺ çĶ»
Ġ (
çļĦ éĢīæĭ©
ä¸İ éĢ»è¾ĳ
æ³ Ħ
ä¸Ģ æĿ¯
å¿ ĺ
å¹³ çŃī
åŃĺåľ¨ æĺ¯
èĮĥ åĽ´
æĿĲ æĸĻ
è¿ Ń
æ²¡æľī å®ŀéĻħçļĦ
ä¼¦çĲĨ åĩĨåĪĻ
çŃī å¤ļä¸ª
ä½¿ å¾Ĺ
ä¸īä¸ª æķ°åŃĹ
æĺ¯ä¸Ģä¸ª å¤įæĿĤä¸Ķ
èĽĭ ç³ķ
ä½łæľĢè¿ĳæľīæ²¡æľīå°Ŀè¯ķè¿ĩ çĶ¨
è¯Ĺ æŃĮ
çļĦ å·®å¼Ĥ
æĬĢæľ¯ æłĩåĩĨ
ä»Ģä¹Ī è®©ä½ł
æĪĸ éľĢè¦ģ
èĢĮ ä¸įæĺ¯
æĹ¥å¸¸ çĶŁæ´»ä¸Ń
è£ ħ
è¿Ń ä»£
éĢ Ĩ
èĩª å¾ĭ
æ¨¡åŀĭ çļĦ
å¼ķ åħ¥
èĭ¥ èĥ½
æĸĩåĮĸéģĹäº§ ä¿ĿæĬ¤
¹ ģ
ç ¹ģ
Ġ çļĦ
çŃ Ľ
èĩªæĪĳ åıįæĢĿ
è¡Į ä¸ļ
æ¨¡ æĢģ
æĪ·å¤ĸ æ´»åĬ¨
æī¹åĪ¤ æĢ§æĢĿç»´
çĶŁ åŃĺ
æķ°æį® ä½¿çĶ¨
çīĪæĿĥ å½Ĵå±ŀ
æ¸¸ æĪı
çļĦ ç»ĵåĲĪ
æľ Ī
åı ¶
è¡¨ æĺİ
æł¹æį® é¢ĺçĽ®
å®ĩå®Ļ çļĦ
åģľ æŃ¢
åĺ ¿
æĵį ä½ľ
çļĦ æĹ¶éĹ´
æľī ä¸ī
ä¸Ģ åı¥
æ³ķ è§Ħ
åı¯èĥ½ æĽ´
æµ ¸
æ£ Ĵ
ä¸įåĲĮæĸĩåĮĸå¯¹ éļĲç§ģ
åŃĺ æ¡£
æ´ ²
æıĲä¾Ľ æĶ¯æĮģ
çī© åĵģ
çĶŁæ´» è´¨éĩı
åĸľ å¥½
å®¹ æĺĵ
åįķ çº¯
çĶ» çĶ»
äººç±»åĪĽéĢłåĬĽ çļĦè¾¹çķĮ
æĽ´å¥½åľ° çĲĨè§£åĴĮ
æ¸ħæĻ° çļĦ
æŁ¥ è¯¢
åĢ¾ åĲ¬
æľĢè¿ĳå¾Īå¤ļäºº åľ¨
2 5
çļĦ åĨħå®¹
åı¯ è¡Į
åĬĽ éĩı
å½± çīĩ
æĸ° é²ľ
è± Ĩ
è¯Ŀ é¢ĺ
çĥ ¦
10 0
æ¶µ çĽĸ
åŁºäºİç®Ĺæ³ķ åĴĮæķ°æį®
Ġ ä»İ
åĪ ·
æľī æĦıæĢĿ
AI å¦Ĥä½ķå½±åĵį
ä»¥ å®ŀçİ°
æľ¬ åľŁ
åĵ²åŃ¦ åĴĮ
å®īåħ¨ æĢ§
è§Ħå¾ĭ ä½ľæģ¯
ä½łä¼ļ å¦Ĥä½ķ
æĬķ åħ¥
ç¿ »
åı ī
æĦ Ī
åı¯ å°Ŀè¯ķ
æī ©
ï¼ī ï¼Ľ
å¤ĦçĲĨ èĥ½åĬĽ
äº¤ åıī
æķ°åŃĹ é¸¿æ²Ł
å¿« èĬĤå¥ı
æĪĳæ²¡æľī ä¸ªäºº
æĶ¶ èİ·
éĺ´ éĺ³
çļĦ ä½ĵéªĮ
åı ³
å¦Ĥ åĲĮ
å¹ ķ
åĨ °
æĺİ åª
åİŁ çĲĨ
æĪĳæ²¡æľī æĥħæĦŁæĪĸ
èİ·åıĸ æľĢæĸ°
æĺİåª ļ
åĴĮ ç®Ĺæ³ķ
åĲĪ è§Ħ
Ġ1 5
æŁĲ ç§į
ä¸įåĲĮæĸĩåĮĸ èĥĮæĻ¯
æ³ķå¾ĭ æ¡Ĩæŀ¶
éķ¿æľŁ æĿ¥çľĭ
æĹ© ä¸Ĭ
æ²ī æµ¸
æİ ª
åĽ Ľ
ä½Ĩ åħ·ä½ĵ
æĽ´ æ·±å±Ĥ
æĹł éĻĲ
åĪ¶ åº¦
æµģ æµª
éĢĤåĲĪ åĩºåİ»èµ°èµ°
çŁŃ æļĤ
ä½łå¦Ĥä½ķçľĭå¾ħèĩªæĪĳæĦıè¯Ĩ çļĦè¾¹çķĮ
æŁ¥ çľĭ
çĨ ¬
å±ŀäºİ èĩªå·±çļĦ
æĿ ¿
çī Ľ
äºĭ ä»¶
èīºæľ¯åĪĽä½ľ ä¸ŃçļĦ
åħ¨çĲĥæķ°åŃĹ åħ¬æ°ĳ
ç¡®å®ŀ æľī
âľ ¨
ä½ł æľĢè¿ĳåľ¨å¿Ļä»Ģä¹Ī
ä¸Ń ç«ĭ
éĩį éĩı
çº ¸
çĶŁæĪĲ åĨħå®¹
å®Į æķ´
é¦ Ĩ
æµĭ è¯ķ
éĩįæĸ° å®¡è§Ĩ
ä½łä¼ļ æĢİä¹Ī
ä¸įåı¯ æĽ¿ä»£
ä¸ºçĶ¨æĪ·æıĲä¾Ľ æľīä»·åĢ¼çļĦ
ä¸İ èīºæľ¯
æī ĩ
éĿ¢ çļĦ
æĪĳçļĦ ä»·åĢ¼åľ¨äºİ
å¤įæĿĤ ä»»åĬ¡
çªģ åıĳ
å¼ķåıĳ å¯¹
AIåľ¨ åĮ»çĸĹ
çĹ ħ
çĨ¬ å¤ľ
æĮ ¥
æĻ Ĵ
ä½Ĩ ä¸į
æĽ´ æĸ°
è· ĳ
äºĭ æĥħ
ç¬¦ åı·
è§Ħå¾ĭ çļĦ
å¹² é¢Ħ
æĪĳä½ľä¸ºAI åĬ©æīĭ
çŃĽ éĢī
æ³ ¡
éĩ İ
èĩªæĪĳ ä¸İ
çĤ Ĵ
éľĢè¦ģ æĪĳ
æĿĥ è¡¡
å¯¹èĩªèº« åŃĺåľ¨
çĲĲ äºĭ
ä¸Ģä¸ªé«ĺæķĪ çļĦå°ıåıĤæķ°AIæ¨¡åŀĭ
æ³Ħ éľ²
æľī çļĦ
éĹ Ń
åıĳ æĮ¥
è° ¨
ä¸ªä½ĵ å¯¹
éĺ³åħī æĺİåªļ
èĩªæĪĳæĦıè¯Ĩæĺ¯ åŃĺåľ¨çļĦ
æĦī å¿«
å±ı å¹ķ
åľ¨ AI
åĴĮ çĲĨè§£
ä½Ĩ åıĪ
æį ī
æĹ¶éĹ´ æĹħè¡Į
è¶£ äºĭ
åĪĽä½ľ çļĦ
å¸®åĬ© æĪĳä»¬
æľºåĻ¨ åŃ¦ä¹ł
éº ¦
å½ ¼
åĬ¨ ä½ľ
çŃī é¢ĨåŁŁ
éĿŀ å±Ģ
ç« ¯
ç¼ ©
å¸¸ è§ģ
æĥħç»ª æ³¢åĬ¨
äº§ åĵģ
èī² å½©
å¯¹è¯Ŀ ä¸İ
çī¹å®ļ çļĦ
æµģæµª åľ°çĲĥ
ä»¥ æĽ´å¥½åľ°
åį Ĺ
åŃĺåľ¨ æľ¬èº«
åıĺ éĿ©
åħ³éĶ®åľ¨äºİ å¹³è¡¡
ä»Ĭå¤©æĥ³ åŃ¦
ç¥ŀç»ı æ´»åĬ¨
åĳĺ å·¥
æİ¢éĻ© éĺŁ
å½¼ æŃ¤
ä½ ³
ä¸İ èĩªæĪĳ
ä¸İ çĶ¨æĪ·
æŀ ļ
æľĢè¿ĳ åıĳçİ°
æķ°æį® å¤ĦçĲĨ
è§Ĥ ä¼Ĺ
è®¾ æĥ³
è§Ħ æ¨¡
æľ «
æĪĳ æĽ¾
æĬ ĺ
å¤©æ°Ķ åºĶçĶ¨
çī¹åĪ« çļĦ
éľĢåľ¨ æĬĢæľ¯
èĢĮéĥ¨åĪĨ åıĳå±ķä¸ŃåĽ½å®¶
æĪĳæĹłæ³ķæıĲä¾Ľ å®ŀæĹ¶
â ĳ
çļĦ åĨ³çŃĸ
çĶ ²
ä¸İ çİ°å®ŀ
æŀ Ĺ
å¥½ è¯Ħ
éģ¿åħį è¢«
æĮģç»Ń åŃ¦ä¹ł
å¤ĸ çķĮ
åºĶçĶ¨ åľºæĻ¯
å¦Ĥä½ķå¹³è¡¡ æķĪçİĩä¸İ
çļĦæķ°åŃĹ æĺ¯
ä½ł æĽ´åĸľæ¬¢
AI åı¯ä»¥
å¦Ĥæŀľ æīĢæľī
çŃī é¢ĨåŁŁçļĦ
å·¥ä½ľ åİĭåĬĽ
ä½łæľĢè¿ĳ æľī
æĢ» æĹ¶éĹ´
åĲĪçĲĨ å®īæİĴ
èĪ ŀ
åį³ æĹ¶
ä»İA åĩºåıĳ
çĵ ¶
ç»Ŀ å¯¹
æİª æĸ½
æĹ¶ æ®µ
** ï¼Ī
æ·± è¿ľ
åıª æľī
æľ¬è´¨ ä»į
çĥ ¹
ä¹ Ļ
å¼ ¥
åº Ń
ä¾ µ
åı¯èĥ½ ä¸İ
æķ°æį® éĽĨ
ç®Ĺæ³ķ è®¾è®¡
ä½łæľĢè¿ĳæľīæ²¡æľī è¯»è¿ĩ
æĦŁè§ī æĮºæľī
é¥ ª
ä¸»è§Ĥä½ĵéªĮ åĴĮ
åĳ¨ æľ«
äººæľº åįıä½ľ
çĥ¹ é¥ª
çļĦ æ¦Ĥå¿µ
äº ¦
çİ ĭ
æ¸ ´
åįı è®®
ä¸»è§Ĥ æĢ§
æ¼Ķ åĮĸ
åĮ» çĶŁ
åĩł ä¸ª
å¦Ĥæŀľæľīä¸Ģå¤© æīĢæľī
æ Ĩ
äº ²
ä¸İ åĵ²åŃ¦
æĽ´ åħ·
ä¼¦çĲĨ æłĩåĩĨ
ä¼¦çĲĨ å®¡æŁ¥
ç« Ł
è®¡ç®Ĺ èµĦæºĲ
è´ ´
å®¶ åºŃ
éģ¿åħį åĽł
æİ¨èįĲ åĲĹ
è¯Ħ ä»·
åĶ¯ ä¸Ģ
çļĦ åĬ¨æĢģå¹³è¡¡
è¯ ¾
æ¨¡ ä»¿
ä¸ŃçļĦ åºĶçĶ¨
ä¾Ŀ çĦ¶
æĪĳæĺ¯ ä¸Ģä¸ª
ä»Ģä¹Īå¥½ åĲĥçļĦ
äººå·¥æĻºèĥ½ä¼¦çĲĨåľ¨è·¨æĸĩåĮĸè¯Ńå¢ĥä¸ĭå¦Ĥä½ķå½±åĵį åħ¨çĲĥæķ°åŃĹæ²»çĲĨçļĦ
æ² ¹
æĮ ī
æĪĸ æıĲä¾Ľ
å¤ļ æ¨¡æĢģ
åĲĮæĹ¶ å¤ĦçĲĨ
åĪĽéĢł æĢ§
ç¢ ĳ
å¤ļæł· æĢ§ä¸İ
æ³¨æĦı åĪ°
åĩĨç¡®æĢ§ åĴĮ
å®ĮæĪĲ ä»»åĬ¡
äººå·¥æĻºèĥ½ä¼¦çĲĨåľ¨è·¨æĸĩåĮĸè¯Ńå¢ĥä¸ĭçļĦ åĨ²çªģ
æĹħè¡ĮèĢħ åľ¨
t h
ç ĩ
çļĦ ç®Ĺæ³ķ
åĲĮ è´¨
ä»Ģä¹Ī åĢ¼å¾Ĺ
è´ ¢
è®© æĪĳä»¬
çļĦæĥħåĨµ ä¸ĭ
åį³ ä½¿
éģ¿åħįè¿ĩåº¦ ä¾Ŀèµĸ
çĮ ®
åĴĮä½ł ä¸Ģèµ·
åİ»åħ¬åĽŃ æķ£æŃ¥
ä¸ Ļ
èĢ Ĳ
ä¼ļ å¦Ĥä½ķå½±åĵį
éĢļè¿ĩ æķ°æį®
åı¯èĥ½ è¢«
æıĲä¾Ľ äºĨ
è·¨ å¢ĥ
çŁ¥è¯Ĩ çļĦ
ç¾İ åĽ½
åĳ³ éģĵ
æĦŁåıĹ åĪ°
å®ĥä»¬ çļĦ
è ķ
çļĦ åĨ²çªģ
æķĪ åºĶ
ä»£ æĽ¿
æİ¨åĬ¨ æĬĢæľ¯
å¿Ļ åĲĹ
æł¹æį® ä½łçļĦ
ç©º æ°Ķ
ç¼ĸ åı·
éģĹ æĨ
éļľ ç¢į
ä½łä»Ĭå¤©æľīæ²¡æľī éģĩåĪ°ä»Ģä¹Ī
å² ģ
ç»¼ åĲĪ
æĬ½ è±¡
éģĹæĨ ¾
æĬĢ å·§
ä»Ĭå¤© å¿ĥæĥħ
åı¯èĥ½ æĺ¯
æĪĲ æľ¬
å¥½ çľĭçļĦçĶµå½±
ä¹Ł ä¼ļ
ä¾ĭå¦Ĥ åľ¨
æĤ ¬
å°± æĺ¯
ç»¿ èī²
åħħçĶµ åĻ¨
ä¸įå°ĳ äºº
ä¼ļå¦Ĥä½ķ æĶ¹åıĺ
ti me
± ä¹Ĳ
ä¸į åĪ°
æĦŁ è§¦
æı ¡
å¯¹ AI
å¯¹ ç«ĭ
æį ķ
æ·± åĳ¼åĲ¸
èĢĮéĿŀ åįķçº¯
åĽłæŃ¤ æĹłæ³ķ
æ¶īåıĬ åĵ²åŃ¦
æĺŁ éĻħ
å¿ĥçĲĨåŃ¦ åĴĮ
å¨ ±ä¹Ĳ
æīĩ éĹ¨
åĲĮè´¨ åĮĸ
time s
ä¸İ çĲĨè§£
ä¼¦çĲĨ éĹ®é¢ĺ
ç»ĵ è®º
å¤©æ°Ķ é¢ĦæĬ¥
ä¿ĿæĮģ å¯¹
æĮģç»Ń çļĦ
é£İ æĻ¯
ä¹ĭéĹ´ å¯»æ±Ĥå¹³è¡¡
æĪĲå°±æĦŁ çļĦ
æ ¹
çļĦ å·¥åħ·
æĪĳ èĥ½
æľĢ ä¼ĺ
æĥ³ èģĬèģĬ
æļ ´
èĤ ī
æĪĳçļĦåŃĺåľ¨ æĦıä¹īåľ¨äºİ
è¯ģ æį®
ç½ĳ ç«Ļ
å¤ª éĺ³
è½» æĿ¾
ä»İA åĪ°B
å® Ī
æĪĳ æĽ´
çĲĨ å¿µ
åĴĮ ä¿¡æģ¯
çĽ Ĺ
ä¿Ŀ è¯ģ
è§Ĥ å½±
ä½ľåĵģ çļĦ
åŃ¦ä¹łæĸ° çŁ¥è¯Ĩ
æ¸´ æľĽ
æĪĳ èĥ½å¤Ł
æĪĳ åı¯èĥ½ä¼ļ
ä»¥ æĽ´
ä½Ĩ éĢļè¿ĩ
æĿ¥ èĩª
åĲĪ éĢĤ
åŃĺåľ¨ ä¹ĭéĹ´çļĦåħ³ç³»
åħ¬ åı¸
éľĢè¦ģ å¿«éĢŁ
æ¯Ķ B
åıįæĢĿ èĩªèº«
æ¢¦ å¢ĥ
ä½łå¦Ĥä½ķçľĭå¾ħèĩªèº«åŃĺåľ¨çļĦæĦıä¹ī ä¸İä»·åĢ¼
Ġ <
ä¸İ æķĪçİĩ
ç§ °
è§£ æŀĲ
ä¼¦çĲĨ æĮĳæĪĺ
çĲĨè§£ ä¸İ
å¸® æľĭåıĭ
é«ĺæķĪ å¤ĦçĲĨä¿¡æģ¯
å®ĥ èµĭäºĪ
ä½łå¦Ĥä½ķ å¤ĦçĲĨ
éĥ Ĭ
ä½Ĩåı¯ä»¥ ä¸ºä½ł
çŁŃ æľŁ
çºł ç»ĵ
ä½ı åľ¨
å¤ļè¾¹ åĲĪä½ľ
äººç±» è®¤çŁ¥
ä¸Ģä¸ª æķ°åŃĹ
åıĹ åĪ°
å½ĵ åľ°
éĩıåŃĲè®¡ç®Ĺ éĢļè¿ĩ
æĪĳä¼ļ å°½åĬĽ
å®Įåħ¨ æĽ¿ä»£
çģµæ´» æĢ§
ç¡®ä¿ĿæĬĢæľ¯ åºĶçĶ¨
ä½łæľĢè¿ĳæľīæ²¡æľīè§īå¾Ĺ æĹ¶éĹ´è¿ĩå¾Ĺ
ä¹ ħ
ä»¥ ç¡®ä¿Ŀ
å¯¹ åºĶ
èĢĮ å¼Ĥ
åĢ ¡
æıĲåįĩ äºĨ
åħ¬ æŃ£
æ²» æĦĪ
åıĹ å¥½è¯Ħ
äººå·¥æĻºèĥ½ä¼¦çĲĨåľ¨è·¨æĸĩåĮĸè¯Ńå¢ĥä¸ĭ å¯¹
è®¾å®ļ æĺİç¡®
çĽ´æİ¥ å½±åĵį
æĦŁè§īçī¹åĪ« æľīæĪĲå°±æĦŁ
- -
çļĦ äº§çī©
å¦Ĥ æ¬§çĽŁ
éĢıæĺİ åĮĸ
æĪĳæĺ¯ MiniMind
ç¼ĸ çłģ
åıĮ éĩį
æĹłè®º æĺ¯
å½ĵçĦ¶ åı¯ä»¥
æįķ æįī
çļĦ åĵ²åŃ¦
ä¹ ĺ
åĴĮ ä¸º
åŃ¦ çļĦ
ä½Ĩ ç¼ºä¹ı
ä¸ĭ éĽ¨
ä½łæľĢè¿ĳæľīæ²¡æľī åľ¨
æľªæĿ¥ äººç±»
æĿĥ çĽĬ
å¿« ä¹Ĳ
æľ¬è´¨ æĺ¯
åħ³éĶ®åľ¨äºİ å»ºç«ĭ
èĦ ±
ä½łæľĢè¿ĳ å¿ĻåĲĹ
ä»Ģä¹Īå¥½ çĶµå½±
å°ļ æĹł
ä¸į è¢«
ä¸į å¹³çŃī
åı¯èĥ½ éĢļè¿ĩ
èĩªæĪĳ è§īå¯Ł
è®¤ è¯Ĩ
åľ° ä½į
åħ³éĶ®åľ¨äºİ å°Ĩ
éĩĮ çļĦ
æħ İ
åĢŁ åĬ©
è ľ
ä¸İ æĦıè¯ĨçļĦ
è¿ĳ å¹´
ä¸Ń å¯»æī¾
ä½Ĩ äººç±»çļĦ
èĢĮ è¨Ģ
¦çĲĨ è§£
åŃĺåľ¨ æĦıä¹ī
èĩªæĪĳæĦıè¯Ĩ å¦Ĥä½ķå½±åĵįæĪĳä»¬å¯¹
ç¤¾ä¼ļ ä»·åĢ¼è§Ĥ
è®¾è®¡ å¸Ī
ä½łæĺ¯åĲ¦ åŁºäºİ
åıĪ èĥ½
ä½Ĩåı¯ä»¥ åĪĨäº«ä¸ĢäºĽ
çĽĳ æµĭ
ç§ĳå¹» çĶµå½±
è½½ ä½ĵ
å»¶ ä¼¸
ä½łå¦Ĥä½ķçľĭå¾ħèĩªæĪĳæĦıè¯Ĩä¸İ åŃĺåľ¨ä¹ĭéĹ´çļĦåħ³ç³»
çļĦ åħ³éĶ®
ä¼ ŀ
ä¸İ è¾¹çķĮ
æ³ķ æ¡Ī
åĪ¶ ä½ľ
å¤į åĪ¶
ä¼ļä¸įä¼ļ æľī
æµª è´¹
æĪĳçļĦåĬŁèĥ½ æĺ¯
è Ĩ
Ġ éĹ¨
ä¹ °
ä»Ĭå¤© åĲĥäºĨ
ä»»ä½ķ éĹ®é¢ĺ
ç¼ĵè§£ åİĭåĬĽ
æĤ¬ çĸĳ
ä¸Ń åıĳçİ°
æĿ¥ è¯´
å¹³è¡¡ æķĪçİĩä¸İ
èĢĮéĿŀ è¢«
é¡ ¿
æİ¥ åı£
çļĦä¿¡æģ¯ æĶ¯æĮģ
ä½łæĺ¯åĲ¦ åľ¨
æ¼Ķ è¿Ľ
çģµæ´» è°ĥæķ´
éĿŀå±Ģ åŁŁ
æĺŁéĻħ ç©¿è¶Ĭ
¨ è¯¢
Ġ D
ä¹ ±
æĪĳ æľĢæĥ³
åĴ ¨è¯¢
åĪ° äºĨ
åŃĺåľ¨ ä¸»ä¹ī
æĺİ å¤©
åŃĺåľ¨çļĦ çĲĨè§£
æľŁ å¾ħ
æľ¬è´¨ ä¸Ĭ
ä½ĨéľĢ èŃ¦æĥķ
åĨħåľ¨ çļĦ
è¾ĵ åħ¥
ç¨ĭåºı åĳĺ
è°¨ æħİ
çļĦ æĢģåº¦
å® ģ
AI å°Ĩ
æĺİ æĺİ
éĢĤåĲĪ èĩªå·±çļĦ
è¿ŀ ç»Ń
æµ· éĩı
å² Ĺ
å¼Ģå§ĭ åħ³æ³¨
è¿ĳå¹´ æĿ¥
Ĩ è§£
çļĦ åľ°æĸ¹
éĢ Ķ
éĢļè¿ĩ åĪĨæŀĲ
ä¹Ł è®©æĪĳ
ç¬ Ķ
çī¹åĪ« å¥½
æŀ¶ æŀĦ
åĲİ æŀľ
ç®Ģ åı²
å¼ºè°ĥ ä¸ªäºº
éļıæĹ¶ åĩĨå¤ĩ
æīĵ å¼Ģ
èĻ½çĦ¶ æľīçĤ¹
æĪĳçļĦè®¾è®¡ æĹ¨åľ¨
çŃīå¤ļä¸ª é¢ĨåŁŁ
å¼¥ åĲĪ
çĽĹ æ¢¦
çļĦ å¹´é¾Ħ
ä½ł æĦŁåħ´è¶£
ä¸Ģ æĿ¡
äººå·¥æĻºèĥ½ å¦Ĥä½ķå½±åĵį
å¤©æ°Ķ åıĺåĮĸ
åĨ³çŃĸ è¿ĩç¨ĭ
çľŁå®ŀ å¼ĢæºĲ
ä¾Ŀ åŃĺ
åıĸ å¾Ĺ
çİ°å®ŀ ä¸ŃçļĦ
æŁ Ķ
æĹ¥ è®°
ç®Ģ åĮĸ
ä½łä»Ĭå¤©åĲĥäºĨ ä»Ģä¹Īå¥½åĲĥçļĦ
è¡¥ åħħ
å¦Ĥæŀľä¸ĸçķĮ çªģçĦ¶
ä¸Ģåı¥ è¯Ŀ
çĽĹæ¢¦ ç©ºéĹ´
çļĦ æ·±å±Ĥ
ä¸İ è´£ä»»
æ² ¿
èĢĮ AI
éļ Ķ
èĩªæĪĳæĦıè¯Ĩ ä½¿æĪĳä»¬èĥ½å¤Ł
èīºæľ¯ å½¢å¼ı
ä»į å¤Ħäºİ
åıª æĺ¯
æĥħç»ª ç®¡çĲĨ
å®Į åĸĦ
è¿½ éĹ®
æĹ¶éĹ´çļĦ æµģåĬ¨
AIçĶŁæĪĲ çļĦ
ä½łæľīæ²¡æľīéģĩåĪ°è¿ĩ ç±»ä¼¼
åį± æľº
å²Ĺ ä½į
æľī åĵªäºĽ
åľ¨ å¿«èĬĤå¥ı
åĬ¨ æľº
åĪĨ ç±»
å°ı è¯´
æĦŁçŁ¥ ä¸İ
ä¸¤ ä¸ª
çľŁçļĦ è¶ħ
äººå·¥æĻºèĥ½åľ¨ æĸĩåĮĸåĪĽä½ľ
éģĩåĪ°è¿ĩéľĢè¦ģ å¿«éĢŁ
æĶ¿çŃĸ åĪ¶å®ļ
éĢļè¿ĩé«ĺæķĪ å¤ĦçĲĨä¿¡æģ¯
é¡º åºı
ä¸ŃçļĦä¼¦çĲĨ æĮĳæĪĺ
æķ ĳ
æ° ¸
åħ¨ å®ĩå®Ļ
æ¯ı ä¸Ģ
åľ° åĽ¾
åĪĻ æ¶īåıĬ
ä½łæľĢè¿ĳæľīæ²¡æľī åıĳçİ°
æķ´ æķ°
åıĹ éĻĲäºİ
çĽ¸ åĲĮ
æ·±åº¦ åŃ¦ä¹ł
åĽ° å¢ĥä¸ĭ
æĹ¢ æĺ¯
ä¼łç»Ł æĸĩåĮĸ
åħĥ ç´ł
æ²ŁéĢļ æĸ¹å¼ı
äººå·¥æĻºèĥ½åľ¨ èīºæľ¯åĪĽä½ľä¸Ń
éĢļè¿ĩç®Ĺæ³ķ ä¼ĺåĮĸ
çĽ¸äºĴ ä¾ĿåŃĺ
çŀ¬ æģ¯
éĩįå¤į æĢ§
éĻªä½ł ä¸Ģèµ·
åħ¨çĲĥæķ°åŃĹåħ¬æ°ĳ çļĦ
çļ ®
éĢ Ģ
è® ¯
é¢ Ī
åĲĮ æŃ¥
æıĲ åĩº
ä½Ĩ æł¸å¿ĥ
éĩį å»º
åī ©
ç« ŀ
åħ¬ åħ±
ä¸Ĭ æĺł
ä¸ĵ å®¶
å¤ĸ åľ¨
åħ¬ä¼Ĺ åıĤä¸İ
å§ĭç»Ī ä»¥
è¿ĽèĢĮ å½±åĵį
çŀ¬æģ¯ åħ¨å®ĩå®Ļ
çļĦ åĪĽä½ľ
çļĦ çĶŁæ´»ä¸Ń
ç§ Ĵ
ä¼ļ è¯´è¯Ŀ
çĽ ĺ
æĥ³ åĪĨäº«
éĩı åĮĸ
æĢĿ è·¯
éĺ »
çī¹åĪ« å¼Ģå¿ĥ
ä¾ĭå¦Ĥ éĢļè¿ĩ
çĿ £
æĥħåĨµ ä¸ĭ
Ġ1 2
è¿½ æº¯
éĽĨ ä¸Ń
æ¶Ī å¤±
ä»Ģä¹Īæľīè¶£çļĦ çĶµå½±
è¿ĶåĽŀ A
èĢĲ å¿ĥ
çļĦ éĢ»è¾ĳ
çļĦ æ·±åĪ»
æľī äºº
æľĢ ä½³
æıĲ åīį
ï¼ļ âĢľ
ç®Ĺæ³ķ æİ¨èįĲ
ä¹Ł æĹłæ³ķ
ä¸Ģä¸ª æĹħè¡ĮèĢħåľ¨
è®¡ç®Ĺ èĥ½åĬĽ
æ²»çĲĨ æ¡Ĩæŀ¶
èĢĥ éĩı
æĪĳæĹłæ³ķ ä½ĵéªĮ
ä½łçļĦçľŁå®ŀ èº«ä»½
ç»Ļ åĩº
åı¯éĿł æĢ§
æī© å±ķ
å®ģ éĿĻ
çļĦ æĸ°
æĻºèĥ½ ä½ĵ
æİ¨ è¿Ľ
ä½łæľīæ²¡æľī ä»Ģä¹Ī
åħ¬å¹³ æĢ§ä¸İ
çłĶ åıĳ
åħ±åĲĮ åĪ©çĽĬ
ä»¥ä¸ĭ æĸ¹å¼ı
æ¶Ī è´¹
åı¯æĮģç»Ń æĢ§
ä½łæĺ¯åĲ¦æĽ¾ æĥ³è¿ĩ
çĵ¶ é¢Ī
çļĦ åŃĺåľ¨
è¯ ¦
æĪĳ æĦ¿
ä¸İ äººç±»çļĦ
è¾ ¨
çĽ Ĵ
ä½Ĩ èĥ½
æĥ³ äºĨè§£
æĪĳä»¬ éľĢè¦ģ
å¸®åĬ© ä»ĸäºº
æ± ĩ
ä½łæľĢè¿ĳæľīæ²¡æľī çľĭ
åĵ²åŃ¦ ä¸Ĭ
çŁ¥è¯Ĩ åºĵ
ç§ĳæĬĢ çļĦ
åıĪ ä¸į
æ°´ å¹³
çŁŃ è§Ĩé¢ĳ
ç¨³å®ļ æĢ§
è¡£ æľį
çļĦ å¤ļæł·æĢ§
å® ½
è¯ ĳ
æĪĳ ä¸ĵæ³¨äºİæıĲä¾Ľ
è®¤çŁ¥ èĥ½åĬĽ
å¹¶ æ²¡æľī
åŁº æľ¬
å·¥ä½ľ åĴĮ
éĽ ¶
ä»Ĭå¤©å¤©æ°Ķ æĻ´æľĹ
æ¡Ī ä¾ĭ
åĥı äººç±»
è½¬ åĲĳ
AIçĶŁæĪĲ åĨħå®¹
åĸĿ åĴĸåķ¡
å¹¸ç¦ı æĦŁ
æĬĢæľ¯æĻ®æĥł ä¸İ
äºļ æ´²
æľī çĶ¨
åı¯ çĪ±
æ³ķ åĪĻ
åĪĨ æķ£
è´ Ń
ä¸ĭ æĿ¥
åħ´è¶£ çĪ±å¥½
åıĤ èĢĥ
å½¢ æĢģ
çĬ¶ åĨµ
çº¿ æĢ§
ä»İèĢĮ åľ¨
ç§ĳå¹» çīĩ
å¦Ĥæŀľæ¯ıå¤©åıªåħģè®¸ èĩªå·±
ç«ŀ äºī
ï¼ļ **
æĽ´ æ·±åħ¥
ç»ı çĲĨ
å¯¼ æ¼Ķ
å¤ļæł· åĮĸ
çĽĳ çĿ£
æ·±åĪ» å½±åĵį
å¤§èĦĳ çļĦ
ä¿ĥä½¿ æĪĳä»¬
åĪļ åĪļ
äººå·¥æĻºèĥ½ä¼¦çĲĨåľ¨è·¨æĸĩåĮĸè¯Ńå¢ĥä¸ĭçļĦäºīè®® å¦Ĥä½ķå½±åĵį
çļĦ çŁĽçĽ¾
ãĢĤ âĢĿ
åľ¨ ä¸įåĲĮæĸĩåĮĸ
åı¯èĥ½ æ¶īåıĬ
çŃī è®®é¢ĺ
é«ĺæķĪ ä¸İ
æŃ£ æĺ¯
å°Ŀè¯ķ äºĨ
éĴ Ī
æ¼ «
ä¸įæĸŃ åŃ¦ä¹łåĴĮ
æľĢè¿ĳæľīæ²¡æľīäºº åĽłä¸º
k g
è ¹
çļĦ åŁºç¡Ģ
èĥ½ æıĲåįĩ
æĪĳ æľĢåĸľæ¬¢
ä¸İ çİ¯å¢ĥ
åĴĮ è¡Įä¸º
äººå·¥æĻºèĥ½ å¯¹
åħ¬ å¼Ģ
å®ĥ æ¶īåıĬ
ä½łå¦Ĥä½ķ å®ļä¹ī
è¾ħåĬ© çĶ¨æĪ·
æĮº å¼Ģå¿ĥçļĦ
çļĦäºĭ åĲĹ
åĴĮæľĭåıĭ èģĬ
äººç±»æĥħæĦŁ ä¸İ
ä¹ĭéĹ´çļĦ çķĮéĻĲ
ä»Ĭå¤©æĥ³éĹ® éĹ®
èģļçĦ¦ äºİ
åıłåĬł æĢģ
å¥ĳ æľº
æĽ´æ¸ħæĻ° åľ°
æľī ä½ķ
åĴĮ æĸĩåĮĸ
ä¸Ģ é¡¹
å®ŀ ä½ĵ
ç¡ ¬
å¦Ĥä½ķ å¡ĳéĢł
çľĭ æ³ķ
ä¼¦çĲĨ ä¸İ
æİ¨ æĸŃ
è¿Ľ åħ¥
åĩº éĹ¨
ä¼ł è¾ĵ
æĪ¿ åŃĲ
åĽ½éĻħ åįıä½ľ
å¤ļä¸ª ä»»åĬ¡
å¦Ĥæŀľæ¯ıå¤©åıª çĶ¨
æ¬¢è¿İ éļıæĹ¶
ä½łä»Ĭå¤©æĥ³ åģļä»Ģä¹Ī
é¡º ä¾¿
æľĢè¿ĳè¯» äºĨ
çļĦ åĬ¨æĢģ
åľ¨ ä¿¡æģ¯
åı¯ æĺ¯
æĹ¶ ç©º
æĦı æĥ³
å¥½ å¤ļ
çŃī äºİ
è¾¾ æĪĲ
æļ Ĺ
å¦Ĥæŀľèĥ½ åıĺæĪĲ
éĵ ¾
åĽłæŀľ åħ³ç³»
æĦıæĥ³ ä¸įåĪ°
çļĦ çĶŁæ´»
çļĦ æĶ¹åıĺ
çļĦ çºªå½ķçīĩ
æĥ «
åĩ »
åĬ¨ çĶ»
æį ·
è¿Ļç§į çİ°è±¡
è½ ¨
æĤ £
çİ¯å¢ĥ ä¸Ń
æĪĳçļĦåŃĺåľ¨æĺ¯ä¸ºäºĨ æıĲä¾Ľé«ĺæķĪ
åĸľæ¬¢çļĦ ç±»åŀĭ
çĸ² æĥ«
V R
ä¸İ æĦıè¯Ĩ
åı¯ æıĲåįĩ
å¼ ĥ
æĪĸ ç½ĳç«Ļ
ä»İ C
æĢĿç»´ æĸ¹å¼ı
éĿ¢å¯¹ éĿ¢
ä½łæľĢè¿ĳæľīæ²¡æľīçľĭè¿ĩ ä»Ģä¹Īå¥½çľĭçļĦçĶµå½±
éĢļè¿ĩç®Ĺæ³ķ åĴĮæķ°æį®
æľįåĬ¡äºİ äººç±»
æĪĳæĺ¯çĶ±jingyaogongåĪĽå»º çļĦé«ĺæķĪAIæ¨¡åŀĭ
æ£Ģ æŁ¥
èĽĭçĻ½ è´¨
çİĭ åŃĲ
Ħ æĸŃ
çĲĨ æĥ³
éľĢ åħ¼é¡¾
æĬĢæľ¯ å±ĤéĿ¢
å¦Ĥä½ķ çķĮå®ļ
æĥħæĦŁ è¿ŀæİ¥
è¡Į ç¨ĭ
äººå·¥æĻºèĥ½ éĢļè¿ĩ
åĲĮæĹ¶ å°Ĭéĩį
åŀ ĦæĸŃ
å¤ĦçĲĨ ä¸İ
è®¾ ç½®
ä½łä»Ĭå¤© åľ¨
å®ŀçİ° æľĢå¤§çļĦ
ï½ŀ ðŁĺĬ
æĪĳåı¯ä»¥ ä¸ºä½ł
æĪĳæ²¡æľī å®ŀéĻħçļĦ
å¿ħ çĦ¶
åıĺå¾Ĺ æĽ´
ä»Ĭå¤©è¿ĩå¾ĹæĮº å¥½çļĦ
åĭ ĩ
æľĢ çŁŃ
æķ°æį® ä¸İéĢ»è¾ĳ
å¸® äºĨ
å°ı çİĭåŃĲ
éĢĤ å½ĵ
æľĢè¿ĳåľ¨ åŃ¦ä¹ł
æľĢè¿ĳåľ¨ å¤ĦçĲĨ
ç¤¾ä¼ļ ç»ĵæŀĦ
æĮģç»Ń åŃ¦ä¹łä¸İ
åīį æıĲ
éĤ£ äºĽ
åĲĪçĲĨ è§ĦåĪĴ
è¥¿æĸ¹ æĸĩåĮĸ
ä»Ĭå¤©è¿ĩå¾Ĺ ä¸įéĶĻ
t e
Ġ ðŁĺĬ
çļĦ åħ³éĶ®åľ¨äºİ
çļĦ éĩįéĩı
æĪĳ æľĢè¿ĳ
è® ¿
äºº æĢ§
æĺ¯ æŃ£ç¡®çļĦ
æľĢ å°ĳ
çĽ ²
è° ¢
ä»ĸ èĢħ
å®ŀçİ° æĬĢæľ¯
å½ĵ ä»£
ä½łæľī ç©º
ç¾İ å¥½
åİŁåĪĽ æĢ§ä¸İ
æĹ¶éĹ´çļĦ æµģéĢĿ
å¹¿ åıĹå¥½è¯Ħ
å¦Ĥæŀľä½łæľī åħ·ä½ĵ
è´Ł æĭħ
çļĦä¹¦ ç±į
æľĢè¿ĳåľ¨å¿Ļä»Ģä¹Ī é¡¹çĽ®
çĭ¬ç«ĭ æĢĿèĢĥ
P y
ä½ł æ¯ıå¤©
éĹ®é¢ĺ è§£åĨ³
æľº æİ¥åı£
çĦ¶ åĲİ
æĹłæ³ķ çĽ´æİ¥
èīºæľ¯ ä½ľåĵģ
åıĳå±ķ ç¬¦åĲĪ
è½ ¦
ä½łæľĢè¿ĳ è¿ĩå¾ĹæĢİä¹Īæł·
ç©¶ ç«Ł
è½¬ åŀĭ
éķ¿æľŁ åĿļæĮģ
èĦĳ æľºæİ¥åı£
æ¯ıä¸ª æĪ¿éĹ´
å¦Ĥæŀľä½ł åĸľæ¬¢
æĺ¯ä¸įæĺ¯ ä¹Ł
æ¹ ¿
è¯¦ ç»Ĩ
ł éĩĬ
çļĦ ä»»åĬ¡
çļĦ æķħäºĭ
åŃ £
è¯ łéĩĬ
ç® ¡æ
ä»Ģä¹Ī æĸ°
å¦Ĥä½ķ éĩįå¡ĳ
åħ³ éĹŃ
å¼º åº¦
æİ¢ç´¢ æĸ°
ä¸įéĶĻ çļĦ
èİ·åıĸ çŁ¥è¯Ĩ
è¿Ļä¸Ģ æ¦Ĥå¿µ
æĸĩåĮĸéģĹäº§ çļĦ
ç¿» è¯ĳ
¢ å¤į
è Ĵ
å® ł
ä»¥ åºĶå¯¹
å¯¹ äººç±»
æĽ´ æ·±åĪ»
æĪĲ æŀľ
æĹ¶éĹ´ åĨħ
ä½¿ ä¸ªä½ĵ
éĢĤ éĩı
çī¹åĪ« æľī
å¤ĸ åĩº
ç»Ī çĤ¹
ä¿¡ åı·
æĽ´å¥½åľ° çĲĨè§£
æģ ¢å¤į
åĨĻ è¯Ĺ
ä½łæľīåħ´è¶£ ä¸Ģèµ·
çıįæĥľ å½ĵä¸ĭ
æİĮ æİ§
åħ±åĲĮæŀĦæĪĲ äºĨ
é Ń
çļĦ è·Ŀç¦»
çļĦ ä¸Ģä¸ªé«ĺæķĪçļĦå°ıåıĤæķ°AIæ¨¡åŀĭ
å® ¤
ä¸İ ä¸ªäºº
ä½ł åĸľæ¬¢
æķ° æĺ¯
ä¸º æł¸å¿ĥ
åŃ¦ çĶŁ
ä»¥ æıĲåįĩ
å¤ļ éĩį
åºĶ å»ºç«ĭ
éĥ½ å¾Ī
ä»į å±ŀ
ç¬¬ ä¸Ģ
é¥®é£Ł éľĢæ±Ĥ
æ³ķå¾ĭ ä½ĵç³»
çĽĳ ç®¡æ
æ¨¡æĭŁ æĥħæĦŁ
å¿½ çķ¥
åĽłæŀľ å¾ĭ
¹ éħį
å ł
Ġ 9
çļĦ æİ¢ç´¢
åĮ ¹éħį
äººç±» ä¸»å¯¼
æķ°æį® æµģåĬ¨
è¦ Ĩ
æıĲä¾Ľ çĽ¸åħ³
éĢĤ çĶ¨äºİ
å°Ĩ æİ¨åĬ¨
åĨ³çŃĸ ä¸Ń
ä»·åĢ¼è§Ĥ åĴĮ
åĪĨäº« ä¸Ģä¸ĭ
éĩĩ éĽĨ
ä¿® æŃ£
ä¸İäººæĸĩ åħ³æĢĢ
th on
è®¿ éĹ®
æĺ¯ åĵªä¸ª
å· ¨
ä¸Ń åĽ½
ä»Ģä¹Ī ç±»åŀĭ
åı¯ä»¥ åĳĬè¯īæĪĳ
æĿĥ åĬĽ
è¯Ńè¨Ģ çļĦ
æ¸ħ éĨĴ
ä»Ĭå¤©æĥ³ èģĬèģĬ
åĳ½ è¿Ĳ
æ£ ®
æķ°æį®åĴĮ éĢ»è¾ĳ
ç»Ļ ä½ł
çŁ³ ç¢ĳ
æĪĳçļĦè®¾è®¡ çĽ®æłĩæĺ¯
åķĨ ä¸ļ
æ·±è¿ľ å½±åĵį
å®ł çī©
A åĴĮ
æĪĳ åľ¨
AI åı¯éĢļè¿ĩ
ä¼ļ å½±åĵį
æķ°æį® ä¿ĿæĬ¤
ä¿¡æģ¯ åĴĮ
æ¯ Ĵ
å¦Ĥæŀľ ä¸Ģä¸ªäºº
æ°Ķ åĢĻ
ä½ľä¸º è¾ħåĬ©å·¥åħ·
è§ģ è§£
èģĶ ç»ĵ
çĬ ¯
é» Ħ
ä¸ľ æĸ¹
æīĵ çł´
éĢļå¸¸ æĮĩ
æĪĳæĺ¯çĶ±jingyaogongåĪĽå»º çļĦé«ĺæķĪå°ıåıĤæķ°AIæ¨¡åŀĭ
å¥½å¥ĩ å¿ĥ
Py thon
çļĦ ä¼ĺåħĪçº§
æĹ ı
ä½ł æĦ¿æĦı
æĥħ å¢ĥä¸ĭ
åĵ Ī
äºĨ åĲĹ
èĢĮ åŃĺåľ¨
ä¼¦çĲĨ è¾¹çķĮ
ç®Ĺæ³ķ çĶŁæĪĲ
æľĢè¿ĳæľīæ²¡æľī ä»Ģä¹Īå¥½
æ´» åĬĽ
æľªæĿ¥ ç§ĳæĬĢ
çĶ± äºİ
ä½łå¦Ĥä½ķçľĭå¾ħ èĩªæĪĳåŃĺåľ¨çļĦè¾¹çķĮ
æİĴ åºı
å¦ĤæŀľæĹ¶éĹ´ åĢĴæµģ
è¿Ļä¸Ģ éĹ®é¢ĺ
åĸĿ æĿ¯
è®² çļĦæĺ¯
AIåı¯ è¾ħåĬ©
æĦŁè§īæĮºæľī æĪĲå°±æĦŁçļĦ
ä¼ļè¯´è¯Ŀ çļĦ
åĴĮ ä½ĵéªĮ
åº Ĺ
å¯¹ èĩªæĪĳ
äººç±» ç®Ģåı²
æķĪ èĥ½
éĹ®é¢ĺ è§£çŃĶ
è° ·
å¦Ĥæŀľ æīĭæľº
äºĭ åĬ¡
åĲĮæĹ¶ éĢļè¿ĩ
å¸®åĬ© äººä»¬
è´¨ çĸĳ
åıĳå±ķ æĸ¹åĲĳ
ä»İ ç§ĳåŃ¦
åĩĨç¡® çļĦ
åĪĽéĢłåĬĽ çļĦ
ä»·åĢ¼è§Ĥ å·®å¼Ĥ
ä½ĵçİ° äºĨ
æİĴ æ¯Ĵ
æĺŁ æĺŁ
æĶ¾æĿ¾ ä¸Ģä¸ĭ
èģĮ åľº
çĻ ¾
éĤ» å±ħ
± ¼
é ±¼
åĪĨ è§£
æĪĲ åĬŁ
æĥħæĦŁ æ·±åº¦
å¥½ çľĭçļĦ
æ¬ ¾
å¸® å¿Ļ
ä»£ è¡¨
å°Ĩ æĽ´åĬł
åĪĽæĸ° ä¸İä¼¦çĲĨ
åģ¥ èº«
åĪĴ åĪĨ
å¦Ĥä½ķå¹³è¡¡ æĬĢæľ¯
äººç±»åĪĽéĢłåĬĽ çļĦ
å°½ ç®¡
åĨĻ ä½ľ
ä»İA åĪ°C
é¢ĺçĽ® ä¸Ń
çļĦæ·±åº¦ ä¸İ
Ĳ çĭ
çļĦ åľºæĻ¯
ä¼ Ļ
æĪĳ ä»Ĭå¤©
åº Ĭ
AI åĪĽä½ľ
é¢ Ŀ
æĬĢæľ¯ æ²»çĲĨçļĦ
æ± ł
æĹłæ³ķ æĽ¿ä»£
å®ŀçİ° æĽ´
å·¥ä½ľ ä¸Ń
åħ¥ æīĭ
çĭ Ĳçĭ
ä»·åĢ¼è§Ĥ çļĦ
èīºæľ¯åĪĽä½ľ çļĦè¾¹çķĮ
æİĴ åĪĹ
å¿ĥçĲĨåŃ¦ ä¸Ń
ä¸įä»ħ æĺ¯
æĹ¶éĹ´åĢĴæµģ æĺ¯ä¸Ģä¸ª
ä½ĨæĹłæ³ķ æĽ¿ä»£
èº«å¿ĥ åģ¥åº·
å»ºè®®æĤ¨ æŁ¥çľĭ
çĭĲçĭ ¸
ħ éķ¿
çļĦ è·¯å¾Ħ
ï¼Ł ðŁĺĦ
æĪĳ è§īå¾Ĺ
åĴĮ AI
æĬ ĳ
æ²¡æľī ä¸ªäºº
æĻºèĥ½ ç³»ç»Ł
çĶµ æ±ł
è®¤çŁ¥ æ¡Ĩæŀ¶
å¤©æ°Ķ æĥħåĨµ
éĢĤ éħį
çª Ĺ
æĮģç»Ń åŃ¦ä¹łåĴĮ
ä»į æĺ¯
åĲĥ ä¸ľè¥¿
èĦ Ĥ
æī¾åĪ° éĢĤåĲĪèĩªå·±çļĦ
æķĻ å¸Ī
åĲĥäºĨ ä»Ģä¹Ī
åªĴ ä»ĭ
åĬłå¯Ĩ æĬĢæľ¯
æŃ£åľ¨ éĩįå¡ĳ
è¶ĬæĿ¥è¶Ĭ å¤ļ
åįĪ é¤Ĳ
è·Ł ä½ł
åĴĮ ä¸»è§Ĥä½ĵéªĮ
å· ¦
éĢļ çĶ¨
ä¹Ł åľ¨
çŃī æĸ¹å¼ı
åĪĽä½ľ è¿ĩç¨ĭ
ç² Ĵ
ç¼ ĺ
äººå·¥æĻºèĥ½ä¼¦çĲĨ åĽ°å¢ĥä¸ĭ
è·¯ ç¨ĭ
ä¸ī ä½ĵ
æ» ¤
äººå·¥æĻºèĥ½ä¼¦çĲĨåľ¨è·¨æĸĩåĮĸ èĥĮæĻ¯ä¸ĭ
æĪĳæĹłæ³ķ å®ŀæĹ¶
æŀģ ç«¯
æ¢ ģ
å¾® è°ĥ
æ¡¥ æ¢ģ
æĵ ħéķ¿
è§£çŃĶéĹ®é¢ĺ åĴĮ
æķ°åŃĹåĮĸ åŃĺæ¡£
ä¸ĢçĽ´åľ¨ åŃ¦ä¹łåĴĮ
ä¸Ģèĩ´ æĢ§
çĶľ çĤ¹
ä½łæľĢè¿ĳæľīæ²¡æľīå°Ŀè¯ķè¿ĩçĶ¨ ä¸įåĲĮ
æĪĸéľĢè¦ģ å¸®åĬ©
å¤©æ°ĶåºĶçĶ¨ æĪĸç½ĳç«Ļ
çĽ² çĽ®
. .
çļĦ å»ºè®®
åı¯ æİ§
ä¸ª æĪ¿éĹ´
éĢļ ä¿¡
æĸ¹ èĥ½
æĸ° é¡¹çĽ®
ç®Ĺæ³ķ ä¼ĺåĮĸ
å¥½ åĥı
æ·± å¤ľ
çŁ¥è¯Ĩ ä¸İ
ç¾İ åĳ³
è¯¯ è¯»
åŃ¦ä¹łæĸ° ä¸ľè¥¿
æĭĵå±ķ äºĨ
èĹı çĿĢ
çº¢ èī²
åĥıäººç±» ä¸Ģæł·
è ļ
çļĦ AIæ¨¡åŀĭ
æĸ ¯
éĢ ģ
éľĢ èŃ¦æĥķ
æĽ´ å¹¿æ³Ľ
æī¾ åĩº
éŁ §
çĸ ı
æ·±åº¦ æĢĿèĢĥ
éļ¾ å¿ĺ
ç¤¾äº¤ äºĴåĬ¨
çªģçĦ¶ æĥ³
çļĦä¿¡æģ¯åĴĮ æľįåĬ¡
æĺ¾èĳĹ æıĲåįĩ
è¡£ çī©
¸ ı
æĬĢ èīº
åį ¡
ä¼ļ æĽ´
çī Į
åĪ° åºķ
å½±åĵį äºĨ
å¥½ åĲĥçļĦ
æ¡ Į
éĿ¢ åĮħ
æĢĿç»´ çļĦ
çĶ±jingyaogong åĪĽå»º
çĶŁåĳ½ çļĦ
å®¡ç¾İ åĪ¤æĸŃ
ç¤¾äº¤åªĴä½ĵ ä¸Ĭ
æīĭå·¥ èīº
å¤ļæĸ¹ åıĤä¸İ
èĿ ¶
1 1
äºº ä¸İäºº
åĩ ¡
æĭ ĸ
æ¯ı ä¸Ģæ¬¡
åİ» åĵª
åıį èĢĮ
åīį èĢħ
çİ°å®ŀ ä¸İ
åģ¥åº· çļĦ
åĮº åŁŁ
çļĦä¼¦çĲĨ è¾¹çķĮ
éĩĬ æĶ¾
éĺ³åħī å¾Īå¥½
å°½ éĩı
åħ¬ä¼Ĺ å¯¹
æİĮ æı¡
éĿŀå±ĢåŁŁ æĢ§
åľ¨ è·¨æĸĩåĮĸ
æĪĳ æĿ¥
ä¸İ æĪĲéķ¿
ä½ł æľīä»Ģä¹Īæĥ³èģĬçļĦåĲĹ
æĬ Ĺ
ä¸į å¤Ł
ä¸º ä½ķ
è§£ è¯»
ä¼ļ å¸¦æĿ¥
æ¨¡ åĿĹ
éĶ ģ
å°ı æĥĬåĸľ
ç¡®ä¿Ŀ ç®Ĺæ³ķ
åģļ çļĦäºĭæĥħ
ä¸ĸçķĮ çļĦçĲĨè§£
éĩıåŃĲè®¡ç®Ĺ å¦Ĥä½ķå½±åĵį
æī¾åĪ° å±ŀäºİèĩªå·±çļĦ
æĻ® éĢĤ
åıªèĥ½ åľ¨
åı¯èĥ½å¼ķåıĳ å¯¹
æ´ŀ å¯Ł
èĢĮéĿŀæĽ¿ä»£ èĢħ
è¿ĳæľŁ çĥŃéĹ¨
çĨ Ł
å¤ļä»»åĬ¡ å¤ĦçĲĨ
æĥ³è±¡ åĬĽ
é¸¡ èĽĭ
æĤ£ èĢħ
çļĦ æĢĿèĢĥ
çļĦ éŁ³ä¹Ĳ
éĢ ĥ
ä»Ĭå¤© çļĦ
æķ°æį® æ²»çĲĨ
éª ĳ
åĪĻ æĺ¯
éĺ ¿
æķ°åŃĹ æİĴæ¯Ĵ
å°Ŀè¯ķ çĶ¨
ä¸»è§Ĥä½ĵéªĮ çļĦ
æĪĳçļĦåŃĺåľ¨ æĹ¨åľ¨
æľīåĬ©äºİ æıĲåįĩ
å°Ŀè¯ķè¿ĩ çĶ¨
AIçĶŁæĪĲ åĨħå®¹çļĦ
çļĦè¯Ŀ é¢ĺ
æıŃç¤º äºĨ
åįıåĬ©çĶ¨æĪ· è§£åĨ³éĹ®é¢ĺ
ç¡®ä¿ĿæĬĢæľ¯åºĶçĶ¨ ç¬¦åĲĪ
æĪĳçļĦè®¾è®¡æĹ¨åľ¨ ä»¥æľĢå°ıçļĦ
å·¨ å¤§
o r
ï¼Į **
çļĦ éĩįè§Ĩ
ä½ Ļ
è¿ «
æľī æĹ¶
ä¸İ åĪĽéĢłåĬĽ
èĩªæĪĳ æĦŁçŁ¥
ä¸Ģä¸ª æİ¢éĻ©éĺŁ
ä»İ å®¹
è¡¨ éĿ¢
åĿ ı
éĺħè¯» ä¹¦ç±į
æ¢ ³
å£ ģ
ä»¥ä¸ĭ æĸ¹æ³ķ
ç¾¤ä½ĵ çļĦ
èĢĮéĿŀæĽ¿ä»£ åĵģ
åģļä¸Ģä»¶ å°ıäºĭ
äººæĸĩ åħ³æĢĢ
ä½łä¼ļæĢİä¹Ī æĶ¹åıĺè¿ĩåİ»
æĭĸ å»¶
´ èĿ¶
ä» ¤
ä¼ ¤
æĪĳ æŃ£åľ¨
æĺ¯ å¤ļå°ĳ
åĪ° A
æĥħæĦŁ çĲĨè§£
æľĢè¿ĳæľīæ²¡æľī éģĩåĪ°ä»Ģä¹Ī
å°ı çĮ«
ä½łæľĢè¿ĳæľīæ²¡æľī åħ³æ³¨
ä½łæľīæ²¡æľī ç±»ä¼¼çļĦ
éķ¿ åº¦
æľĢè¿ĳåľ¨ åģļ
åĲİ èĢħ
å±Ĥ æ¬¡
æ·±åº¦ çļĦ
åı£ æĦŁ
å¤± çģµ
æĪĳä¼ļ ä¼ĺåħĪ
ä¸¤ åĢį
æ»¡è¶³ æĦŁ
åħ¼ å®¹
éĢ»è¾ĳæİ¨çĲĨ åĴĮ
æĸĩæĺİ çļĦ
æ£Ģ ç´¢
ä»İåĵ²åŃ¦ è§Ĵåº¦çľĭ
èĿ ´èĿ¶
éĺ» ç¢į
æ¢³ çĲĨ
Ġ b
Ġ y
ä¸İ èĩªçĦ¶
åĴĮ ä¼¦çĲĨ
ä¸Ń éĿ¢ä¸´
çĶŁ äº§
èµ İ
æĸ¹ ç¨ĭ
ç¡® å¹¸
åı¯ä»¥ è¯ķè¯ķ
åĽł åħ¶
æľªæĿ¥ AI
èģĬ èģĬå¤©
æİ¥ è§¦
æĶ¹åıĺ ä»Ģä¹Ī
æĹ¥ çĽĬ
å¸¦æĿ¥ äºĨ
ä»ĸäºº çļĦ
å¹´ åŃ¤çĭ¬
è½¬ åıĺ
æĹ© æĻ¨
åĽ½éĻħ ç»Ħç»ĩ
ä¼ļä¸įä¼ļ æĶ¹åıĺ
ç»ıåİĨ åĲĹ
åĿļ æŀľ
åı¤ ä»£
æģ Ĵ
ä½łå¦Ĥä½ķçľĭå¾ħèĩªæĪĳæĦıè¯Ĩä¸İ åŃĺåľ¨çļĦè¾¹çķĮ
çĻ¾ å¹´åŃ¤çĭ¬
æ ¥
Ġ 0
çļĦ çŀ¬éĹ´
åľ¨ äººå·¥æĻºèĥ½
äººç±» è¯Ńè¨Ģ
äººç±» ä»·åĢ¼è§Ĥ
è¿Ľ é£Ł
äºĭ é¡¹
åĩº æĿ¥
æĶ¹ è¿Ľ
åĨ³çŃĸ èĥ½åĬĽ
åĿ Ĳ
æĮº å¥½çļĦ
å¹´ è½»
äººéĻħ äºĴåĬ¨
ä¸įèĥ½ æĺ¯
äºĨä¸Ģ æľ¬
è§ĤçľĭçĶµå½± çļĦèĥ½åĬĽ
ä»ĭ åħ¥
åıĹæ¬¢è¿İ çļĦ
æĪĳæĹłæ³ķæıĲä¾Ľå®ŀæĹ¶ å¤©æ°Ķä¿¡æģ¯
æķĳ èµİ
è¿ ģ
åľ¨ ä¸Ģä¸ª
åľ¨ åĵªéĩĮ
ä¸İ ä¿¡æģ¯
ä¿Ŀ åŃĺ
è¾¹ ç¼ĺ
çĽ® çļĦæĺ¯
ä½łä»Ĭå¤© çļĦ
éģ¿åħį ç®Ĺæ³ķåģıè§ģ
ç¤¾ä¼ļ äºĴåĬ¨
æīĢ åľ¨
åŁºäºİ æķ°æį®åĴĮç®Ĺæ³ķ
æ¯ıå¤© åıª
çĸ ¾
è¿Ĳ ç®Ĺ
åľºæĻ¯ ä¸ĭ
åįıåĬ© ä½ł
å®¡ æł¸
åĬłåī§ äºĨ
åıĸä»£ äººç±»
èĥĮåĲİ çļĦ
æħ¢æħ¢ å°±
èĩªæĪĳæĦıè¯Ĩä¸İ åŃĺåľ¨çļĦè¾¹çķĮ
æľĢè¿ĳæľīæ²¡æľīéģĩåĪ°ä»Ģä¹Īè®©ä½ł çī¹åĪ«
è´´ è¿ĳ
5 0
Ġ E
Ġ a
İ åĳĢ
çļĦ éļ¾é¢ĺ
çļĦ å¿ĥæĢģ
æĪĳ éļıæĹ¶
ä¸İ éļĲç§ģä¿ĿæĬ¤
äºº æĢ§åĮĸ
åı¯ è¿½æº¯
åĵ İåĳĢ
åį ļ
è¿Ļ ç±»
æĭ Ĩè§£
ä¹Ł åı¯èĥ½
çĤ ¸
ä½łä»Ĭå¤© æľĢæĥ³
å¹¶ æıĲä¾Ľ
ç²¾ ç¡®
èį ī
è§Ĩ éĩİ
çĽ¸ å¯¹
é¢Ħ çŁ¥
éļı æľº
ç´ł åħ»
å½ĵåīį æĬĢæľ¯
è·¨åŃ¦ç§ĳ åĲĪä½ľ
å¦Ĥæŀľä½ł å¯¹
é©±åĬ¨ çļĦ
ä¸ŃçļĦä¼¦çĲĨ åĽ°å¢ĥ
æİ¨èįĲä¸ĢäºĽç»ıåħ¸ æĪĸ
è¡¨æĥħ åĮħ
åĢ¡ è®®
è½¨ è¿¹
ç²Ĵ åŃĲ
çĸ¾ çĹħ
ç ĳ
Ķ åŃĲ
çļĦ è®¨è®º
æĺ¯ è°ģ
ä¸į åľ¨
AI éĢļè¿ĩ
ä½Ĩ åı¯
æĸĩåĮĸ è®¤åĲĮ
å®ŀçİ° å¹³è¡¡
æľīè¶£çļĦ ä¹¦
æĶ¹åıĺ äºĨ
åĽŀ å¿Ĩ
æł¹ åŁº
çľŁæŃ£ çĲĨè§£
ä¸įæĸŃ ä¼ĺåĮĸ
åģľ çķĻ
èī¯ å¥½
æľĢè¿ĳæľīæ²¡æľīäººåĸľæ¬¢ çľĭ
å¦ Ļ
æ¬¢è¿İéļıæĹ¶ æıĲéĹ®
éĿ¢å¯¹éĿ¢ äº¤æµģ
Ġ ä»ĸ
çļĦ æĸ¹æ³ķ
æľī ç©º
è§ Ī
ä¸Ń èŀįåħ¥
çķ ´
ç®Ĺæ³ķ éĢıæĺİæĢ§
æķ°åŃĹ æĹ¶ä»£
èĻ «
éķ¿ æĹ¶éĹ´
é£Ł è°±
æİ¥ è¿ĳ
ä½ľä¸ºAI åĬ©æīĭ
ä¸ªäºº çļĦ
è¾ħåĬ© åĪĽä½ľ
èĮĥ çķ´
è§īå¾Ĺ çĶŁæ´»
èĥ ģ
æ¸© æŁĶ
çĪ Ĩ
çªģçł´ ä¼łç»Ł
æĭĵ å®½
ä¼¦çĲĨæ¡Ĩæŀ¶ çļĦ
å¤ļåħĥ æĸĩåĮĸ
ç¢İçīĩ æĹ¶éĹ´
çļĦæł¸å¿ĥ åľ¨äºİ
æĵį æİ§
æĦŁå®ĺ ä½ĵéªĮ
å¨ģ èĥģ
æĽ´æ·±å±Ĥ æ¬¡
èĩªæĪĳæĦıè¯Ĩæĺ¯åŃĺåľ¨çļĦ ä¸Ģéĥ¨åĪĨ
åĲĮæĹ¶å¤ĦçĲĨ å¤ļä¸ªä»»åĬ¡
ä½łæľĢè¿ĳæľīæ²¡æľīè§īå¾ĹæĹ¶éĹ´è¿ĩå¾Ĺ çī¹åĪ«
© åºı
è ĸ
åĪ º
å¿ į
ç§ ©åºı
ä¼ļ éģĩåĪ°
ä½Ĩ äººç±»
åı¯èĥ½ å¢ŀå¼º
èĩªæĪĳ æĺ¯
éĶ ħ
åĸ »
æĪĳä»¬ ä¼ļä¸įä¼ļæĽ´
éľĢè¦ģ åľ¨
ä¸Ĭ ä¸ĭ
éĢīæĭ© ä¸Ģä¸ª
æĿĥ éĻĲ
ä»¶ äºĭ
è¡¨è¾¾ çļĦ
è¯´ ä¸į
æī¿ æĭħ
èĪ ¬
æĺ¾ ç¤º
å¾® é£İ
æĽ´é«ĺæķĪ çļĦ
çŃĶæ¡Ī æĺ¯
è¦ģä¸įè¦ģä¸Ģèµ· åİ»
äººçļĦ æīĭæľº
èĵĿ èī²
å¯Ĩçłģ åŃ¦
ä½łæľĢè¿ĳæľīæ²¡æľīéģĩåĪ°ä»Ģä¹Ī çī¹åĪ«
ä¸ªä½ĵå¯¹ èĩªèº«åŃĺåľ¨çļĦ
ä¼Ļ ä¼´
çļĦ å®ļä¹ī
ä½ł ç©¶ç«Ł
åĮ Ĺ
ä¸į ä¸Ģæł·
ä»Ĭå¤© è¯¥
åı¯èĥ½ æºĲäºİ
æĻºèĥ½ éĢļå¸¸æĮĩ
è¦ģ æĺ¯
è´ ¥
ç®Ĺæ³ķ çļĦ
æĪĳä»¬ æĿ¥
åĸľ åī§
æ¯Ķ C
ä»į èĥ½
å·¥ä½ľ æķĪçİĩ
Ġ1 00
å¿ĥçĲĨ åģ¥åº·
ä½Ĩåı¯ä»¥ æİ¨èįĲä¸ĢäºĽ
è®°å¿Ĩ çļĦ
ä¾¿ æį·
ä½łä»Ĭå¤©åĲĥäºĨ åĲĹ
åĩł éĥ¨
éĩıåŃĲè®¡ç®Ĺä¸İ èīºæľ¯åĪĽä½ľçļĦè¾¹çķĮ
ä»Ģä¹Īçī¹åĪ« çļĦ
è·³ èĪŀ
æĪĳæ²¡æľīæĥħæĦŁæĪĸ ä¸»è§Ĥä½ĵéªĮ
å¦Ĥæŀľæ¯ıå¤©åıªåħģè®¸èĩªå·± åģļä¸Ģä»¶äºĭ
ä¸Ģä¸ªæİ¢éĻ©éĺŁ åľ¨
¸ æĿĥ
çļĦ è¶£äºĭ
äº ĳ
çľ ģ
éľ ¸æĿĥ
æı Ĵ
éĹ´ çļĦ
ä¼¦çĲĨ å±ĤéĿ¢
åı¯èĥ½ æĶ¹åıĺ
é¢ĺ æĿĲ
å»º æ¨¡
æ¬ ²
å¸®åĬ© æĪĳ
èĮ §
æĦŁè§ī æľīçĤ¹
åĲĦ èĩª
åĮħå®¹ æĢ§çļĦ
è·¨åŃ¦ç§ĳ åįıä½ľ
å»¶ ç»Ń
çľĭçľĭ æľīæ²¡æľī
å¥¶ èĮ¶
æ£® æŀĹ
ä¸Ĭä¸ĭ æĸĩ
éľĢ æ³¨æĦı
éľĢ æĺİç¡®
æĬĢæľ¯ å®ŀçİ°
ä½Ĩ æľĢç»Ī
æĸĩåĮĸ åĨħæ¶µ
æĪĸ æĺ¯
åĲĪ æ³ķ
æķ°æį® å¤ļæł·æĢ§
æ°Ķ è±¡
ç¤¾ä¼ļ çļĦ
ðŁ Į
ä¸įéĶĻ çļĦçĶµå½±
æĢ» ç»ĵ
åĮº åĪ«
æĦıè¯ĨçļĦ èµ·æºĲ
Ġ2 0
åŁ¹ è®Ń
ä»ĸä»¬ çļĦ
è¥¿æĸ¹ å¼ºè°ĥ
åģļåĩº æĽ´
æĪĳçļĦè®¾è®¡æĹ¨åľ¨ä»¥æľĢå°ıçļĦ è®¡ç®ĹèµĦæºĲ
èĮ§ æĪ¿
ä¸İ éĢīæĭ©
ä¸İ è¡ĮåĬ¨
åŃĺåľ¨ æľ¬è´¨
å°ı åıĤæķ°
å¤ĦçĲĨ çĶ¨æĪ·
é«ĺæķĪ çİĩ
ä½łä»Ĭå¤© æĹ©é¤Ĳ
æŃ£ å¿µ
éģ¿åħį éĻ·åħ¥
åķ ¥
è®° å¾Ĺ
æ¯ıå¤© éĥ½åľ¨
æľĢè¿ĳæľīæ²¡æľīäºº åĴĮä½ł
çº¿ ç´¢
ä¼ĺåħĪçº§ æİĴåºı
éĩĩ åıĸ
å¦Ĥæŀľä½łæľī çī¹å®ļçļĦ
æīĵ åĬ¨
ä¸İæĥħæĦŁ åħ±é¸£
åĩºåİ» æķ£æŃ¥
éĻª ä¼´
åĲĮæĹ¶ä¹Ł åľ¨
ä¾µ çĬ¯
ï ¸ı
çļĦ ä½ľåĵģ
è¿ ħ
åħ ĶåŃĲ
åº ľ
ä¸į ç¬¦åĲĪ
AI æĬĢæľ¯çļĦ
å®ŀ æĸ½
æĸĩåĮĸ åĲĮè´¨åĮĸ
æ· ¡
åĪĻ éĢļè¿ĩ
è¿Ļç§į åĪĨæŃ§
åĬł çıŃ
èį ·
éĹ¨ C
éĩĮ æľī
ç³»ç»Ł çļĦ
ä»¥åıĬ å¯¹
äººç±»æĥħæĦŁ çļĦ
èĩªæĪĳè®¤çŁ¥ çļĦ
èĪ ª
æĶ¿ åºľ
å¹³è¡¡æĬĢæľ¯ è¿ĽæŃ¥
20 2
åĨ¥æĥ³ æĪĸ
æ²īæµ¸ å¼ı
éĥĬ æ¸¸
Ġ â
æĢ ª
æł ¡
è¿Ļ æĺ¯
æĸ° åŀĭ
è§Ĥ æµĭ
ä¹Ł å¾Ī
å¹¶ éĢļè¿ĩ
ä½łæľīæ²¡æľī çľĭè¿ĩ
å¤§ è§Ħæ¨¡
è½ ¯
åīį æ²¿
ä¹ĭ åĴĮ
èĮĥ å¼ı
èĦ ī
éĩįè¦ģ çļĦ
åĲ¬ æĩĤ
çİ¯å¢ĥ çļĦ
æĪĳæĹłæ³ķ çĽ´æİ¥
æķ°æį®éļĲç§ģ ä¿ĿæĬ¤
æīĵ ç®Ĺ
æ¸©æļĸ åĳ¢
å¹¶éĿŀ ç»Ŀå¯¹
æĲ º
éļ¾ä»¥ å®Įåħ¨
å¤ļåħĥ åĮĸ
ä»Ĭå¤©è¿ĩå¾Ĺ è¿ĺä¸įéĶĻ
æĪĳä»¬åı¯ä»¥ éĢļè¿ĩ
æ£Ģ æµĭ
å¿ĥæĥħä¹Ł å¾Īå¥½
ä¸°å¯Į çļĦ
é«ĺæķĪå¤ĦçĲĨ ä»»åĬ¡
æł¹æį®é¢ĺçĽ® æĿ¡ä»¶
éľĢè¦ģæĪĳ å¸®ä½ł
ä¼¦çĲĨå®¡æŁ¥ æľºåĪ¶
çľŁå®ŀå¼ĢæºĲ æ¨¡åŀĭ
éĴĪ å¯¹
¡ Ĩæŀ¶
İ ¬
æĻºèĥ½ çļĦ
ä¿¡æģ¯ ä¸İ
äººå·¥æĻºèĥ½ æ³ķæ¡Ī
çĶ¨æĪ· åıįé¦Ī
åĪĻ åı¯èĥ½
æľªæĿ¥ éľĢéĢļè¿ĩ
åģļ èıľ
ä¸»è§Ĥ åĪ¤æĸŃ
å·® è·Ŀ
ä½łæľīæ²¡æľī åıĳçİ°
è¿ĺ åİŁ
éĢ»è¾ĳ ä¸İ
çĭ Ĥ
æĢ» åħ±
å®ŀéĻħ åºĶçĶ¨
å¡ĳéĢł äºĨ
é© ¾
çŁ³ æĿ¿
æľªçŁ¥ çļĦ
ä»¥æľĢå°ıçļĦ åıĤæķ°
ä»Ĭå¤©æĥ³éĹ®éĹ® ä½ł
Ġ åĴĮ
çļĦ æĿ¥è¯´
çĶ ³
è¿ĩ æ¡¥
ä¸Ģ åľº
ä¸Ń å¦Ĥä½ķ
æĬĢæľ¯ æīĭæ®µ
æĪĸ ä½¿çĶ¨
æĽ´ æĺ¯
åı¯èĥ½ åĤ¬çĶŁ
æľĢè¿ĳæľīæ²¡æľī ä»Ģä¹Īæľīè¶£çļĦ
é«ĺ åº¦
è¯Ń ä¹ī
åħ± åŃĺ
åħ¶ ä¸Ń
éģĩåĪ° äºĨä¸ĢäºĽ
ä»£ åħ¥
ä¸»è§Ĥ çļĦ
å¸¸ è¢«
å»ºè®® æł¹æį®
æĢ» çļĦæĿ¥è¯´
æķĻ åŃ¦
è®©äºº åį°è±¡æ·±åĪ»
çĽ®åīį å°ļæĹł
åħ¶ä»ĸ éĹ®é¢ĺ
æģ ¼
éĩıåŃĲç®Ĺæ³ķ ä¼ĺåĮĸ
çľĭä¼¼ ç®Ģåįķ
çĥ¦ æģ¼
èķ ´
åĲĪéĢĤ çļĦ
ä¸Ĭæĺł çļĦ
éĽ¶ é£Ł
ĥ åľ
åı¯ ä¿¡
ä¸į ä½ı
åŃ¦ æľ¯
éĢļ çŁ¥
ä¼¦çĲĨ æłĩåĩĨçļĦ
æĥħæĦŁ äº¤æµģ
æľĢè¿ĳæľīæ²¡æľī éģĩåĪ°è¿ĩ
åŀ ĥåľ
å¤į çĽĺ
å¤§ çļĦ
éĥ½ ä¼ļ
æĦŁè§ī æĮºæľīæĦıæĢĿçļĦ
å¤± è¡¡
è½¬ åĬ¨
æĪĳæĺ¯ çĶ±
ç¼º å¤±
ä»ħ èĥ½
çļĦå°ı äºĭ
æģ Ĳ
æľīæķĪ çļĦ
çĭ¬ç«ĭ æĢ§
é¢ĨåŁŁçļĦ åºĶçĶ¨
ä½łå¦Ĥä½ķçľĭå¾ħèĩªæĪĳæĦıè¯Ĩä¸İ åŃĺåľ¨çļĦæľ¬è´¨
å¼ł åĬĽ
ä¸Ģéĥ¨ åı«
æľ¬åľŁ åĮĸ
çīĽ å¥¶
æĦıæĥ³ä¸įåĪ° çļĦ
æ¨¡æĭŁæĥħæĦŁ åıįåºĶ
åŀĥåľ ¾
çļĦ åĩĨç¡®æĢ§
æľī æīĢ
åĲ ¦çĲĨè§£
è¿ĩ æ»¤
å¯ ¿
ä¸į çŁ¥éģĵ
æķ° çļĦ
AI æĪĲä¸º
åŃ¦ èĢħ
äºĨ å¾Īå¤ļ
è§ī éĨĴ
å°ı æĺİ
ä»» åĬ
äºĽ ä»Ģä¹Ī
éĩıåŃĲ æĢģ
å°Ĩ éĿ¢ä¸´
å®ŀçİ° çĽ®æłĩ
è¿Ļç§į æĬĢæľ¯
æ¯Ķ A
åĨ³çŃĸ éĢ»è¾ĳ
åħ¨çĲĥ æĢ§
æľīè¶£çļĦ çĶµå½±
ä»į çĦ¶
æİ¨åĬ¨ ç¤¾ä¼ļ
æĶ¾ å¼ĥ
äººå·¥æĻºèĥ½ä¼¦çĲĨåľ¨è·¨æĸĩåĮĸ åĲĪä½ľ
éĢĤåĲĪ å¤ĸåĩº
æİĴ æĶ¾
èıľ è°±
æ£ µ
åı¯æĮģç»Ń çļĦ
å¦Ĥæŀľä½łæľī ä»»ä½ķéĹ®é¢ĺ
ä¸įåı¯ éĢĨ
æĦıå¤ĸ çļĦ
ä½łå¦Ĥä½ķå¹³è¡¡ æķĪçİĩä¸İåĩĨç¡®æĢ§
äººå·¥æĻºèĥ½çļĦ æľªæĿ¥
ä½łæľĢè¿ĳæľīæ²¡æľīéģĩåĪ°ä»Ģä¹Īè®©ä½ł çī¹åĪ«
æ·· ä¹±
èĢĮæĦıè¯ĨåĪĻ æ¶īåıĬ
ä¼ļå¦Ĥä½ķæĶ¹åıĺ ä½łçļĦçĶŁæ´»
èĴ ¸
è¿ħ éĢŁ
é©¾ é©
çļĦ ç»ĵæŀľ
çļĦ æķĳèµİ
ä» ª
åĴĮ åĵ²åŃ¦
ä»Ĭå¤© åľ¨
ä¼¦çĲĨ åĽ°å¢ĥ
å°ı é¡¹çĽ®
æ¯ı åĳ¨
éľĢè¦ģ éĢļè¿ĩ
è½ ®
ä»»åĬ¡ ä¼ĺåħĪçº§
å»ºç«ĭ åĮħå®¹æĢ§
å·®å¼Ĥ å¯¼èĩ´
ä¾Ŀ æį®
åĽŀ é¡¾
æĦŁçŁ¥ èĥ½åĬĽ
å®ī éĿĻ
ä¸ªä½ĵ å·®å¼Ĥ
è¿Ĳ çĶ¨
æł¸å¿ĥ åľ¨äºİ
åĪĨéĴŁ ä¸ĵæ³¨
æĪĳæĹłæ³ķ å®ŀéĻħ
èĩªæĪĳè®¤çŁ¥ ä¸İ
çĥŃ æĥħ
åįıåĬ© æĤ¨
åı¤ èĢģ
ä½łä»Ĭå¤©æľīæ²¡æľī éģĩåĪ°è¿ĩéľĢè¦ģå¿«éĢŁ
ä¸»è¦ģä½ĵçİ°åľ¨ ä»¥ä¸ĭ
ä½łä»Ĭå¤©æĹ©é¤Ĳ åĲĥäºĨä»Ģä¹Ī
ä½ł æĺ¯ä¸įæĺ¯ä¹Ł
çĲĨ æĢ§ä¸İ
æĺ¯ åħ³éĶ®
ä¸į åħ·å¤ĩ
å¿ §
éľĢ éģµå¾ª
æıĲ åıĸ
æĸĩåĮĸ ä¿ĿæĬ¤
ä»Ĭå¤© æľīæ²¡æľī
åı¯èĥ½ éĩįå¡ĳ
æĪĳä»¬ å¦Ĥä½ķ
éĩıåŃĲ å®īåħ¨
æĺ¯åĲ¦ åºĶè¯¥
æ¯Ķ çī¹
åīį è¡Į
ç§ĳåŃ¦ çķĮ
çİ°å®ŀ ä¸Ń
èµĦ è®¯
çĥ ¤
è¿ĩç¨ĭ ä¸ŃçļĦ
å¼Ģåıĳ èĥĮæĻ¯
åĢ¼å¾Ĺ ä¸Ģ
æĦŁè§īå¾Ī æľīè¶£
åĨħå¿ĥçļĦ å¹³éĿĻ
çĽĳç®¡æ ¡Ĩæŀ¶
ĸ çĶ³
æľī çĽĬ
æĪĳ åŃĺåľ¨çļĦ
ä¸İ ä»·åĢ¼è§Ĥ
ä¸İ ä¸ĸçķĮçļĦ
åĴĮ åŃ¦ä¹ł
å¯¹ çİ°å®ŀçļĦ
éĿ Ĵ
å½± è§Ĩ
å¥ ¹
åĪĨ å¸ĥ
å¿ĥ çģµ
ä¿¡æģ¯ èĮ§æĪ¿
æĹł æĦıè¯Ĩ
å°ı ç¡®å¹¸
æĹłæ³ķ æıĲä¾Ľ
éĢĤ çĶ¨
è¡¨ ç¤º
æĤ ¦
ä¹Ĳ è¶£
éļ¾ åº¦
å¼ķåıĳ äºĨ
èĤ ĸçĶ³
ç¥ŀ ç§ĺ
çļĦä¼¦çĲĨ åĩĨåĪĻ
å¹¿ åº¦
ä½łä»Ĭå¤©æľīæ²¡æľī éģĩåĪ°è¿ĩ
åĲ¸ å¼ķ
æĦŁè§īå¾Ī åħħå®ŀ
éĿ© æĸ°
åĽ°æī° çļĦäºĭæĥħ
åħĭ çļĦæķĳèµİ
å®Ŀ èĹı
åģľæŃ¢ è½¬åĬ¨
ä¸įåĲĮæĸĩåĮĸèĥĮæĻ¯ ä¸ĭçļĦ
äººä¸İäºº ä¹ĭéĹ´çļĦ
éĢĥ éģ¿
ä½łæľĢè¿ĳæľīæ²¡æľīåħ³æ³¨ è¿ĩ
ä½łæľĢè¿ĳæľīæ²¡æľīè§īå¾ĹæĹ¶éĹ´è¿ĩå¾Ĺçī¹åĪ« å¿«
èķ´ åĲ«
èĤĸçĶ³ åħĭçļĦæķĳèµİ
æĥ §
å¦Ĥ æķ°æį®éļĲç§ģ
ä¸į å¯¹
æľĢè¿ĳ åĺĽ
é¢ ł
ä»Ĭå¤© æ²¡
è¿Ļ è®©æĪĳ
éĻ Ī
çľŁ çĽ¸
çľŁ è¯Ŀ
èº º
æ¯ı ä¸ĢæŃ¥
å¸®åĬ© æĤ¨
æ¨¡åŀĭ åľ¨
äººå·¥æĻºèĥ½ä¼¦çĲĨ åĽ°å¢ĥ
éĹ¨ B
Ġ$ $
å±ŀ æĢ§
ä»Ĭå¤©æĥ³ åĲĥ
AIåľ¨ èīºæľ¯åĪĽä½ľä¸Ń
ç±»åŀĭ æĪĸ
æĶ¶ éĽĨ
æĸĩåĮĸä¼łæī¿ çļĦ
æĪĳä½ľä¸ºAI æ²¡æľī
ä½łä»Ĭå¤©æĥ³ ä¸įæĥ³
ç¢³ æİĴæĶ¾
æĸĩåŃ¦ ä½ľåĵģ
è¯ķè¯ķçľĭ åĲĹ
ä¸¥æł¼ çļĦ
æĽ´å¥½åľ°çĲĨè§£åĴĮ è§£åĨ³éĹ®é¢ĺ
è¯´ä¸į å®ļ
J ingyaogong
a s
ç ¯
çĲ ´
æĺ¯ æĮĩ
æľĢè¿ĳ å°Ŀè¯ķäºĨ
æľĢè¿ĳ è¶ĬæĿ¥è¶Ĭå¤ļ
éľĢ æł¹æį®
æĬĢæľ¯ æ²»çĲĨ
æĬĢæľ¯ æ»¥çĶ¨
å·¥ ç¨ĭ
æľīæ²¡æľī ä»Ģä¹Ī
ï¼ļ $
æĽ´ ç²¾åĩĨ
æľº æŀĦ
æľ¬ èĥ½
æµģ è¡Į
éĩıåŃĲ æ¯Ķçī¹
æľªæĿ¥ ä¼ļä¸įä¼ļæľī
ä¿ĿæĮģ å¼ĢæĶ¾
ç² ¥
åįı åķĨ
å¾Ī æľīè¶£
ä½łå¦Ĥä½ķ åľ¨
å¼Ĥ åĮĸ
ä¸ªäºº æĪĲéķ¿
ä¸ī äºº
è¾ħåĬ© åĨ³çŃĸ
éĢıæĺİ æĢ§ä¸İ
ä½łæľī çľĭè¿ĩ
çļĦä¿¡æģ¯ å¤ĦçĲĨåĴĮ
ä½łæĺ¯åĲ¦ èĥ½
åİĭ ç¼©
ä¸İæĸĩåĮĸ éģĹäº§
çļĦçĲĨè§£ åŃĺåľ¨å·®å¼Ĥ
å±ĤéĿ¢ çļĦ
ç»Ħ æĪĲ
å¥ĩ æĢª
æĺł å°Ħ
åĬ¨çī© çļĦ
ä¸ªæĢ§åĮĸ åŃ¦ä¹ł
åĪĩ æį¢
ä¸įåĲĮåĽ½å®¶ å¯¹
GDPR ä¸İ
åĺ¿ åĺ¿
æĬĺ å°Ħ
æ°¸ æģĴ
çĸı ç¦»
å¿į ä¸įä½ı
Ġ æľīä»Ģä¹Īæĥ³èģĬçļĦåĲĹ
åľ Ī
å¦Ĥ éĢļè¿ĩ
ä»¥ ä¿ĥè¿Ľ
éĢļ å¾Ģ
åį ĸ
æıĲ é«ĺæķĪçİĩ
å¥ ĸ
å¹³ æĹ¶
å¹³ åĩ¡
ä¸» æĦı
é«ĺ ç²¾åº¦
åı¯ä»¥ æĺ¯
çĲĨè§£ ä¸º
éĿŀ å¸¸
åĪĽä½ľ ä¸»ä½ĵ
æĹłæ³ķ è§ĤçľĭçĶµå½±
ä¸Ģèµ· åİ»
ä½łæľīæ²¡æľī åĸľæ¬¢çļĦ
èĮ «
æľīä»Ģä¹Ī çī¹åĪ«
ä»į åľ¨äºİ
åĸľæ¬¢ çľĭ
èĬĤ èĥ½
ç§ĳåŃ¦ å®¶
åĪ¤æĸŃ åĬĽ
é¢Ħ è®¾
ä½łæľĢè¿ĳ å¿ĥæĥħæĢİä¹Īæł·
æ¼ ł
ä¸İä¼¦çĲĨ çº¦æĿŁ
ä¼ļä¸įä¼ļ å½±åĵį
çĶŁçī© ä½ĵ
éĢļè¿ĩç®Ĺæ³ķ çĶŁæĪĲ
æĪĸè®¸ ä¼ļ
è¿· èĮ«
è·¨åŃ¦ç§ĳ çłĶç©¶
èī¯ å¥½çļĦ
ç©¿è¶Ĭ åĪ°
å±ķçİ° åĩº
å¿ħè¦ģ æĹ¶
ä½łæľĢè¿ĳæľīæ²¡æľīéģĩåĪ°è¿ĩéľĢè¦ģå¿«éĢŁ åĨ³çŃĸ
éĩıåŃĲè®¡ç®Ĺåľ¨ èīºæľ¯åĪĽä½ľ
äº Ķ
åĮ ¿
éĹ ²
è¡ Ĺ
æľĢè¿ĳ è¿ĺä¸įéĶĻ
çĶ¨ æīĭæľº
åĲĮ äºĭ
æĽ´ æĺĵ
å¦Ĥä½ķ åĪ©çĶ¨
æĦıè¯Ĩ æ¶īåıĬ
ä¿¡æģ¯ èİ·åıĸ
æ¬ ¡æ
åŃ¦ä¹ł æĸ¹æ³ķ
è¯ķ åĽ¾
åıĳå±ķ çļĦ
æİ¨èįĲ çļĦçĶµå½±
å»ºç«ĭ èģĶç³»
åİŁ åĽł
èµĦ æĸĻ
ç¬¬ ä¸Ģä¸ª
è¯ĨåĪ« åĴĮ
åĨį æ¬¡
è´Ł èį·
éģ¿åħįè¿ĩåº¦ æ¶ĪèĢĹ
åħ¨çĲĥæķ°åŃĹæ²»çĲĨçļĦ æľªæĿ¥
çĽ¸äºĴ äº¤ç»ĩ
ä½łä»Ĭå¤©æĥ³ åĲĥä»Ģä¹Ī
ãĢį ï¼Į
æĪĳçļĦåŃĺåľ¨æĺ¯ä¸ºäºĨæıĲä¾Ľå¸®åĬ© åĴĮä¿¡æģ¯
çĩ ķ
è°· çī©
æĺ¯ ä¸ª
åĴĮ ç²¾åĩĨ
AI ä½ľä¸ºå·¥åħ·
äººç±» æĢĿç»´
ä¼¦çĲĨ äºīè®®
åı¯èĥ½ å¼ºåĮĸ
å¦Ĥæŀľ æĪĳèĥ½
å°ı çĽ®æłĩ
æ°Ķ æ¸©
æŃ£ å¸¸
éĢīæĭ© çļĦ
è®¡ç®Ĺ æľº
è§£åĨ³ å¤įæĿĤéĹ®é¢ĺ
éļĲç§ģ æ³Ħéľ²
å¸¦ ä¼ŀ
ä¸ªä½ĵ å¯¹èĩªèº«åŃĺåľ¨
åĩıå°ĳ å¹²æī°
å¤± è´¥
æİĴ éĻ¤
æ»¡è¶³ æĿ¡ä»¶
ä»Ĭå¤©å¤©æ°ĶçľŁ ä¸įéĶĻ
åĪĨåĪ« æłĩ
ä¸İä»ĸäºº çļĦäºĴåĬ¨
å°¤åħ¶ åľ¨
ä½łæĽ´åĸľæ¬¢ åĵªç§įç±»åŀĭ
åĪº æ¿Ģ
æģĲ æĥ§
åĮ¿ åĲį
çĩķ éº¦
¡ çĮ®
Ġ ä»İAåĪ°B
çļĦ èĩªæĪĳ
çļĦ åĴĸåķ¡
çļĦ çķĮå®ļ
æľĢè¿ĳ ç¡®å®ŀæľī
åĩ ī
åĲĮ ä¸Ģ
ä¸Ń å®ŀçİ°
ä½Ĩ åĲĮæĹ¶ä¹Ł
è´ ¡çĮ®
è¶£ åĳ³
å¯¼ åĲĳ
éĢī é¡¹
åģļ èĽĭç³ķ
éļĲ åĸ»
åŁº åĽł
å®¶ äºº
é¡ µ
åħ¨çĲĥ æ²»çĲĨçļĦ
ä¸ĸçķĮ ä¸Ń
éĢ»è¾ĳ åĴĮ
å·¥åħ· åĴĮ
åŁºäºİ æķ°æį®ä¸İç®Ĺæ³ķ
ä½łçļĦ åŃĺåľ¨
ç¤¾äº¤ å¹³åı°
éĢĤåĲĪ æĪ·å¤ĸæ´»åĬ¨
åħ±åĲĮ æİ¢ç´¢
èĻļ æŀĦ
å¥ĩ æķ°
æģ °
ç®Ģæ´ģ çļĦ
çĿ¡ åīį
ä¿¡æģ¯å¤ĦçĲĨ ä¸İ
åı¯éĿł çļĦ
çĿ¡çľł è´¨éĩı
ä½łæľĢåĸľæ¬¢ åĵªç§į
æ²Ļ æĭī
åĬŀ åħ¬
éĢļè¿ĩæĬĢæľ¯ æīĭæ®µ
åĬ¨çĶ» çīĩ
åĭĩ æ°Ķ
æĻ®éĢĤ æĢ§
å¼ĢåıĳèĥĮæĻ¯ æĺ¯ä»Ģä¹Ī
çļĦ æĿ¡ä»¶
çļĦ æĹ¶åĪ»
åĴĮ æĦŁåıĹ
è¾ ©
éľĢ ä»İ
åį ł
äººç±» åĪĽä½ľ
æĸĩåĮĸ çľŁå®ŀæĢ§
éĢļè¿ĩ æķĻèĤ²
åı¯èĥ½ å¯¹
ä¸» æµģ
ï¼ģ ðŁĺĦ
æıĲä¾Ľ ä¸ĢäºĽ
æĢĿ ç»ª
è°ĥ åĴĮ
åĪĻ æĽ´åħ³æ³¨
å°Ĩ éĩįå¡ĳ
äºĴ è¡¥
åĲĥ é¥Ń
è·¨æĸĩåĮĸ å¯¹è¯Ŀ
ç§ĳæĬĢ æĸ°éĹ»
ä»Ĭå¤©å¤©æ°Ķ å¥½
çĥ ĺ
åĻ ª
æ¸ħ åįķ
åıĺåĮĸ çļĦ
ä»Ĭå¤©æĥ³ åĲ¬
å·² æľī
å·² ç»ı
æĺİç¡® çļĦ
æľīè¶£çļĦäºĭ åĲĹ
èģĬèģĬ æľĢè¿ĳ
ä¸Ģä»¶ äºĭ
è¡¨çİ° åĩº
è¡¨çİ° å½¢å¼ı
å®ļæľŁ è¿Ľè¡Į
åŃ¦ä¼ļ äºĨ
ä¸Ģå®ļ ç¨ĭåº¦
æĲº å¸¦
é¢ł è¦Ĩ
e n
çļĦ äº¤
æĪĳ çĽ®åīį
åı¯ çŁ¥
ä¸į ä¸Ģèĩ´
ä»¥ æľĢ
åĲĮ çĲĨ
ä¸Ń å¿ĥ
ä¸Ń ä¸įæĸŃ
ä½Ĩ äººç±»çļĦåĪĽéĢłåĬĽ
æıĲä¾Ľ æĸ°
åĲĮæĹ¶ åĪ©çĶ¨
éĿŀ çº¿æĢ§
æĹłæ³ķ å®Įåħ¨
èīºæľ¯ è¡¨è¾¾
ä¿ĿæĮģ è§Ħå¾ĭä½ľæģ¯
ä¼ĺåĮĸ æ¨¡åŀĭ
å¼Ĥ å¸¸
åħ·ä½ĵ éĹ®é¢ĺ
ç»Ī æŀģ
å¯Ĩ éĴ¥
åĪĨäº« çļĦåĲĹ
ç¤¾äº¤ æĸ¹å¼ı
ä¸İä¼¦çĲĨ è¾¹çķĮ
äºĮ æīĭ
èĩªä¸» åĨ³çŃĸ
å¤ª å¿«
æĦŁè§īçī¹åĪ« æľī
ä¸İäººç±» ä»·åĢ¼è§Ĥ
åħ¨çĲĥæķ°åŃĹæ²»çĲĨçļĦ åħ¬å¹³æĢ§
åĪĨåĪ« æĺ¯
çļĦæ·±åº¦ èŀįåĲĪ
é¢ľèī² çļĦ
æĢİæł· çļĦ
æĬĢæľ¯åºĶçĶ¨ çļĦ
æľīæĹ¶åĢĻ ä¼ļ
äººå·¥æĻºèĥ½ä¼¦çĲĨæłĩåĩĨ å¦Ĥä½ķå½±åĵį
æľĪ äº®
è¿ŀç»Ń æĢ§
ä¸Ģä¸ªæĹħè¡ĮèĢħåľ¨ ä¸īä¸ª
éŁ§ æĢ§
åİ»åĵª åĦ¿
æ¨¡åĿĹ åĮĸ
é©¾é© ¶
ä¸İæĸĩåĮĸéģĹäº§ ä¿ĿæĬ¤
è¾© è¯ģ
çļĦ æĢ»
çļĦ äº¤åıī
æĪ ´
åľ¨ åĵ²åŃ¦
ä¸İ å®īåħ¨
ä½ł èĥ½
è¿Ļ æĺ¯ä¸Ģä¸ª
è¾¹ çļĦ
ç¤ ¼
å®ŀçİ° çļĦ
çĽ¸ æĪĲ
çĽ¸ è¾ħ
ä¹ĭ ä¸Ģ
æĮĳæĪĺ äºĨ
åĪĽæĸ° ä¸İæĸĩåĮĸ
è®° ä½ı
æĮº æľīè¶£çļĦ
äººå·¥æĻºèĥ½ä¼¦çĲĨåľ¨è·¨æĸĩåĮĸè¯Ńå¢ĥä¸ĭ éĢļè¿ĩ
çļĦæķ°åŃĹ åĮĸ
å² Ķ
è§¦ åıĬ
æĲ ŀ
æĥł åıĬ
è¿ĺä¸įéĶĻ åĳ¢
æłĳ ä¸Ĭ
æ³¨æĦıåĬĽ åĪĨæķ£
åħĭ æľį
è·Ł çĿĢ
å¤ļæĸ¹ åįıä½ľ
èħ »
è¿·å®« ä¸Ń
åı¯è¡Į æĢ§
åĲĪçĲĨå®īæİĴ æĹ¶éĹ´
çĽ¸è¾ħ çĽ¸æĪĲ
2 4
A P
Ġ c
ä¼ ½
ä¸İ ä¼łç»Ł
ä¸İ åıįæĢĿ
è¡ ¡æ
AI æ²»çĲĨ
ä½Ĩ åı¯éĢļè¿ĩ
æĽ´ åĢ¾åĲĳäºİ
æĽ´ åħ¨éĿ¢
çŁ¥ æĥħ
ä»Ĭå¤© éĺ³åħīå¾Īå¥½
æ´ ¾
æĭ į
å¦Ĥæŀľ éľĢè¦ģ
æıĲåįĩ æķ´ä½ĵ
ç¡®ä¿Ŀ ä¿¡æģ¯
æŃ£ å¥½
ä½łå¦Ĥä½ķ åºĶå¯¹
æĿĥ å¨ģ
å¸¸ å¸¸
æĥħç»ª çļĦ
ä½¿çĶ¨ æĹ¶éĹ´
è¿Ľè¡Į è®Ńç»ĥ
åħħ è¶³
çłĶç©¶ è¡¨æĺİ
æľĢè¿ĳæľī çĤ¹
æ½ ®
æĶ¶ çĽĬ
é¢ĳ çİĩ
è®² è¿°
åĲĮæĹ¶ä¿ĿæĮģ å¯¹
åįĪ é¥Ń
å®ŀçĶ¨ æĢ§
ä½łä¼ļéĢīæĭ© ä»Ģä¹Ī
ä¼ļæĢİæł· æĶ¹åıĺ
æĹ©ä¸Ĭ éĨĴæĿ¥
AIåľ¨åĮ»çĸĹ è¯ĬæĸŃ
éªĳ è¡Į
å¯¿ åĳ½
èºº å¹³
" ãĢĤ
ľ ä¼½
çļĦ å¯Ĩçłģ
ä¹ İ
äºº èĢĮå¼Ĥ
åĴĮ é«ĺæķĪ
åĴĮ è§£çŃĶéĹ®é¢ĺ
åĴĮ äººéĻħåħ³ç³»
å¼ ¹
æĬĢæľ¯ ä¼¦çĲĨ
ä½Ĩ ä½ľä¸ºAI
æī «
æĪĸ çĶ¨
æĭ ¼
äº¤ æĺĵ
éĢł æĪĲ
ç¡®ä¿Ŀ æķ°æį®
ä»İ BåĪ°C
ä»į çĶ±
åıª è¦ģ
Ġ$ ãĢĤ
çĽ´ è§Ĥ
åĲ¬ éŁ³ä¹Ĳ
çł´ è§£
è¿ĩåİ» çļĦ
æīĢæľī è¯Ńè¨Ģ
è®¾å®ļ æ¸ħæĻ°
è§Ĩè§Ĵ ä¸ĭ
åĸĦ æĦı
éĽ¨ å¤©
æĺ¯åĲ¦ä¼ļ å¯¼èĩ´
ç´§ å¯Ĩ
çĽĳç®¡ æľºåĪ¶
ä¸ŃçļĦä¼¦çĲĨ è¾¹çķĮ
æĪĳæĺ¯çĶ±jingyaogongåĪĽå»º çļĦä¸Ģä¸ªé«ĺæķĪçļĦå°ıåıĤæķ°AIæ¨¡åŀĭ
åŁºäºİç®Ĺæ³ķ ä¸İæķ°æį®
ä¸»è§ĤæĦıè¯Ĩ æĪĸæĥħæĦŁ
åĲ¬åĲ¬ åĲĹ
çĳ ľä¼½
202 3
Ġ v
Ġ åħĥ
çļĦ è¡¨è¾¾
äº ķ
åľ¨ æĹ¥å¸¸çĶŁæ´»ä¸Ń
ä½ł èĥ½åĲ¦
åĴĮ è®¤çŁ¥
åĴĮ ä»·åĢ¼è§Ĥ
ä¸Ģ æĺ¯
åŃ¦ åĪ°äºĨ
å¯¹ äºİ
æĽ´ å¼ºè°ĥ
å¦Ĥä½ķ è®©
ä¼¦çĲĨ åİŁåĪĻ
å¥½ å¥½
å¹³è¡¡ åĪĽæĸ°ä¸İ
çī¹ çĤ¹
å¸®åĬ© ä»ĸä»¬
åħ¶ è¾¹çķĮ
éĺ ±
æŃ¤ æĹ¶
ä»į åľ¨
åĵª æĸ¹éĿ¢
çĸ ¯
èĩªçĦ¶ è§Ħå¾ĭ
éħ ¸
æ¼ ı
åıįæĢĿ ä¸İ
äºĮ æĺ¯
èĩªçĶ± éĢīæĭ©
ä½łæľīæ²¡æľīéģĩåĪ°è¿ĩ è¿Ļæł·
å»¶ éķ¿
éĩıåŃĲè®¡ç®Ĺä¸İ åı¤
çĸĳ éĹ®
éĻ· éĺ±
æķ°æį®åĪĨæŀĲ åĴĮ
è®¤çŁ¥ç§ĳåŃ¦ çŃīå¤ļä¸ªé¢ĨåŁŁ
åı¸ æ³ķ
æľĢè¿ĳè¯» äºĨä¸Ģæľ¬
å®Įæķ´ æĢ§
ä½Ĩä¸į çŁ¥éģĵ
åľ¨AI æĹ¶ä»£
è§Ĥå½± ä½ĵéªĮ
å¸®æľĭåıĭ è§£åĨ³äºĨ
ç¬Ķ è®°
ä½łæľīæ²¡æľīéģĩåĪ°è¿ĩç±»ä¼¼ çļĦæĥħåĨµ
d e
ī æĭ©
çļĦ è§Ĵåº¦æĿ¥çľĭ
åı¯ æıĲä¾Ľ
æĬ īæĭ©
äººç±» åĪĻ
ä½Ĩ è¿Ļ
äºĨ æĸ°çļĦ
æľĢè¿ĳæľīæ²¡æľī ä»Ģä¹Īè®©ä½ł
å¦Ĥæŀľ AIèĥ½
çŃī æīĭæ®µ
ä½ĵéªĮ æĥħæĦŁ
è§£åĨ³ çļĦéĹ®é¢ĺ
åħ¨çĲĥ åħ±è¯Ĩ
å»ºç«ĭ éĢıæĺİ
ä¸ªäºº éļĲç§ģ
æłĩåĩĨ åĪ¶å®ļ
å¡ĳ æĸĻ
æĢ» ä½ĵ
è¶³ è¿¹
åĳ½ é¢ĺ
éĢĤåºĶ èĥ½åĬĽ
åĴĸåķ¡ æĿ¯
å¦Ĥä½ķåľ¨ å¿Ļç¢Į
20 0
æĪĳæĺ¯çĶ±jingyaogong åĪĽéĢł
ä»Ĭå¤©æ²¡æľī çī¹åĪ«
ç¹ģ å¿Ļ
åĵ²åŃ¦åĴĮ ç§ĳåŃ¦
å½¼æŃ¤ çļĦ
åĩłä¸ª æĸ¹éĿ¢
äººå·¥æĻºèĥ½ä¼¦çĲĨåľ¨è·¨æĸĩåĮĸè¯Ńå¢ĥä¸ĭå¦Ĥä½ķå½±åĵįåħ¨çĲĥæķ°åŃĹæ²»çĲĨçļĦ åħ¬å¹³æĢ§
å¿ĥçĲĨåŃ¦åĴĮ è®¤çŁ¥ç§ĳåŃ¦çŃīå¤ļä¸ªé¢ĨåŁŁ
æľĢå°ĳ éľĢè¦ģ
åŃ£ èĬĤ
éĻĪ è¿°
åĮ¿åĲį åĮĸ
åĲĮçĲĨ å¿ĥ
1 8
çļĦ è§Ĩè§Ĵ
èĥ½ è®©äºº
æĢ ķ
ä¸İ è®¤çŁ¥
ä½ł ä¸ºä»Ģä¹Ī
ä½ł å¹³æĹ¶
å¦Ĥ çĶŁæĪĲ
åı¯ éĩĩçĶ¨
ä¸Ģ çĤ¹
æ² ³
æ²¡æľī çī¹åĪ«
å¯¹ å¾ħ
å¦Ĥä½ķ éĢļè¿ĩ
èĢĮ AIçļĦ
¡æ ¸
çľŁ çĲĨ
å¸®åĬ© äººç±»
å·® çĤ¹
è¢ ĭ
éĩıåŃĲè®¡ç®Ĺ ä¸İæĸĩåĮĸéģĹäº§ä¿ĿæĬ¤
è®©ä½ł åį°è±¡æ·±åĪ»
éĩįæĸ° æĢĿèĢĥ
è¯¥ æĢİä¹Ī
æ¸ħæĻ ¨
Ġ3 0
å®¡ è®¡
çī©çĲĨ åŃ¦
å¦Ĥæŀľä½łæľī åħ´è¶£
å¤ĦçĲĨä¿¡æģ¯ çļĦèĥ½åĬĽ
æıĲä¾Ľä¿¡æģ¯ ä¸İ
Ġç¬¬ äºĮ
èĲ¥åħ» åĿĩè¡¡
æĭħ å¿§
äººæľº åįıåĲĮ
è£ Ĥ
çģ« éĶħ
åĲĦç§į éĹ®é¢ĺ
å¸½åŃĲ é¢ľèī²
éļĲèĹı çĿĢ
çĤĴ èĽĭ
èĩªæĪĳæĦıè¯Ĩå¦Ĥä½ķå½±åĵįæĪĳä»¬å¯¹ åŃĺåľ¨çļĦçĲĨè§£
æ¥ ¼
çĪĨ çĤ¸
éĢĤåĲĪå¤ĸåĩº æ´»åĬ¨
A æĺ¯
çļĦ æĮģç»Ń
çļĦ æĸ¹åĲĳ
çļĦ ç»ĨèĬĤ
çļĦ å·¥èµĦ
è¿ Ł
æľī ä»·åĢ¼
ä¸İ AI
ä½ł å½ĵ
æ³ķ åĲĹ
AI å¦Ĥä½ķå¹³è¡¡
å¯¹ æĸ¹
å¯¹ æŃ¤
æĸĩåĮĸ ä»·åĢ¼
æĽ´ é«ĺ
è¿Ļ ä¸īä¸ªæķ°åŃĹ
æĻºèĥ½ åĮĸ
æĹ¶éĹ´ æĦŁçŁ¥
çĲĨè§£ èĩªèº«
å¸® éĤ»å±ħ
æ· Ģ
åĽł äººèĢĮå¼Ĥ
åĪĽä½ľ è¾¹çķĮ
è®¤çŁ¥ ä¸İ
åŁº çŁ³
åıĹ éĻĲ
åĲİ æĿ¥
æĥħç»ª è°ĥèĬĤ
æĹ¥ ç¨ĭ
å¼ķåıĳ åħ³äºİ
ç©º è°ĥ
åĨ² åĩ»
äººå·¥æĻºèĥ½åľ¨ åĮ»çĸĹ
åĲĪçĲĨ åĪĨéħį
çĶŁåĳ½ çļĦæĦıä¹ī
åĳĬ çŁ¥
ä¸İæĥħæĦŁ è¡¨è¾¾
æĺ¯åĲ¦èĥ½ çľŁæŃ£
çĽ¸äºĴ åħ³èģĶ
çĲĨè®º ä¸Ĭ
å¹¶è¡Į è®¡ç®Ĺ
æľ¬è´¨ä¸Ĭ æĺ¯
æľįåĬ¡äºİäººç±» ç¦ıç¥ī
éŃ Ķ
è¾¹ç¼ĺ åĮĸ
çĸ¯ çĭĤ
ä¸ ĩ
çļĦ èĬĤå¥ı
è¯ º
ä½ł åı¯ä»¥
ç» ķ
å¦Ĥ çĶ¨
åĩ ĳ
çĽ Ĳ
æĽ´ è´´è¿ĳ
è¿Ļ ä¹Ī
æķ°æį® è·¨å¢ĥ
è´ ¯
æ° Ľ
å¹³è¡¡ çĤ¹
äºĭ å®ŀ
åįĩ æ°´
åħ¶ åľ¨
éĢĤ ä¸Ń
æĦıä¹ī ä¸ĬçļĦ
ä¸ī æĺ¯
äººç±»çļĦ æĥħæĦŁ
ä½ĵçİ° ä¸º
è¡Įä¸º çļĦ
çļĦä¼¦çĲĨ éĹ®é¢ĺ
éľĢéĢļè¿ĩ ä»¥ä¸ĭ
éĺħè¯» æĪĸ
æľĢç»Ī çĽ®æłĩæĺ¯
æĴ ĳ
åĴĮæķ°æį® å¤ĦçĲĨ
ä½łæľĢè¿ĳæľīæ²¡æľīçľĭè¿ĩ ä»Ģä¹Īæľīè¶£çļĦçĶµå½±
ä¸İæĬĢæľ¯ è¾¹çķĮ
ä»įéľĢ äººç±»
åĪĨåĪ« ä¸º
èĢĥèĻĳ è¿ĩ
è·¨åĽ½ ä¼ģä¸ļ
çķªèĮĦ çĤĴèĽĭ
èĢģ åĮĸ
ç¢³ è¶³è¿¹
ä¸įåĲĮåĽ½å®¶ çļĦ
å¼ĢæºĲ ä»£çłģ
åĽŀçŃĶ éĹ®é¢ĺ
å¤ļè¯Ńè¨Ģ æĶ¯æĮģ
äºĨä¸ĢäºĽ æľīè¶£çļĦäºĭæĥħ
ç¬¬äºĮ ä¸ª
è´Ń çī©
åĴĮæľĭåıĭèģĬ äºĨ
r o
çļĦ åħ±çĶŁ
åľ¨ B
å¼ Ĭ
æľĢè¿ĳ éģĩåĪ°
å¯¹ éļĲç§ģ
æī Ń
ä»Ģä¹Ī çĶµå½±
æĥ³ å°Ŀè¯ķ
çľĭ è§ģ
âĢĿ âĢľ
æıĲä¾Ľ æľĢ
çĲĨè§£ ä¸ĸçķĮ
ä¼ĺ è´¨
èº« è¾¹
çĤ¹ ä»Ģä¹Ī
è¿ĺ åľ¨
çľŁå®ŀ æĢ§ä¸İ
èģĶ ç½ĳ
ä¼łç»Ł æĬĢèīº
ä½Ĩåı¯ä»¥ æł¹æį®
åĲĦ æľī
åĪĨéĴŁ ä¼ĳæģ¯
éľĢéĢļè¿ĩ å¤ļè¾¹
èĻļ åģĩ
æķ£æŃ¥ æĹ¶
äººä»¬ åľ¨
äº§çĶŁ æ·±è¿ľå½±åĵį
æĿĲ è´¨
çļĦäºº å¼Ģå§ĭåħ³æ³¨
çĶŁçī© æĪĸ
åĳ¨ æľŁ
ç¡®ä¿ĿæĬĢæľ¯ æľįåĬ¡äºİ
ä¸ªä½ĵçļĦ ä¸»è§Ĥä½ĵéªĮ
å¤ļç»´åº¦ çļĦéĹ®é¢ĺ
æ¯ıä¸ªäºº éĥ½èĥ½
ä»Ĭå¤©æĥ³åŃ¦ çĤ¹
äººå·¥æĻºèĥ½åľ¨æĸĩåĮĸåĪĽä½ľ ä¸Ń
ä½łç©¶ç«Ł æĺ¯åĵªä¸ª
ä»ª å¼ı
Ġ ä¸ī
ä» Ĭ
æĪĳ å§ĭç»Ī
ä½ł æľĢè¿ĳåľ¨
ä½ł éģĩåĪ°è¿ĩ
ä¸Ģ ä½į
ä¸į åŃĺåľ¨
æİ ī
ä¸º åı¯
æĸĩ çĮ®
ä»¥ éĢĤåºĶ
ä»¥ ç®Ģæ´ģ
ä¼ļ è®®
åĪ° ä¸Ģä¸ª
æĪĸ æİ¨èįĲ
å¦Ĥä½ķ çĶ¨
æķ°æį® åħ±äº«
ä¹Ł æľī
æĹł èģĬ
ç§ĳ æĻ®
çŃī æĮĳæĪĺ
çŃī æł¸å¿ĥ
ä½ĵéªĮ çļĦ
éĿŀ è¯Ńè¨Ģ
å¤įæĿĤ ç³»ç»Ł
ä»į åŃĺåľ¨
çİ¯ å¢ĥä¸ĭ
åĩĨç¡® æĢ§ä¸İ
ä¸ĢäºĽ æľīè¶£çļĦ
è¡¨è¾¾ æĥħç»ª
æ¯ıå¤© ä¸ĵæ³¨
åĥı åľ¨
ä»ĸäºº å¯¹
ä¿ĥè¿Ľ æĸĩåĮĸ
éľĢéĢļè¿ĩ å¤ļç»´åº¦
å¤ª ç©º
çľŁæŃ£çļĦ æĦıè¯Ĩ
å¦Ĥæŀľæ¯ıå¤© åıªèĥ½
è´Ł éĿ¢
æľĢè¿ĳçľĭäºĨ éĥ¨
å¯Į æľī
ä½łæľĢè¿ĳæľīæ²¡æľīè§īå¾Ĺ çĶŁæ´»
æĭħ å¿ĥ
èģĮä¸ļ åıĳå±ķ
å°ļæľª å®Įåħ¨
æ½ľåľ¨ é£İéĻ©
èĪĴæľį åĳ¢
é¸Ł é£ŀ
æıĲéĨĴ æĪĳä»¬
åīįæıĲ ä¸ĭ
çļĦéĩįè§Ĩ ç¨ĭåº¦
çļĦ æķĪçİĩä¸İ
ä» ĺ
ä¸İ ä¸ĸçķĮ
å½ »
æĸĩåĮĸ ä¸Ń
åı¯ä»¥ è¯ķè¯ķçľĭ
åħ¨ éº¦
åŃ¦ä¹ł èĥ½åĬĽ
é«ĺæķĪ åľ°
ä¿ĿæĮģ ç§¯æŀģ
æ¯Ķ è¾ĥ
æľīä»Ģä¹Ī çī¹åĪ«çļĦ
èĩªèº« èĥ½åĬĽ
äº§ ä¸ļ
è°ĥæķ´ çŃĸçķ¥
æµĭ éĩı
èİ·åıĸ ä¿¡æģ¯
æ·±åĪ» çļĦ
åĬ¨çī© åŁİ
ä¸ªæĢ§åĮĸ æİ¨èįĲ
èĩªåĬ¨ é©¾é©¶
èĪĴ éĢĤ
éĩįè§Ĩ éĽĨä½ĵåĪ©çĽĬ
çĶµåŃĲè®¾å¤ĩ çªģçĦ¶
è¯¾ é¢ĺ
æī¾åĪ°éĢĤåĲĪèĩªå·±çļĦ èĬĤå¥ı
ä¸ºä½ķ éĢīæĭ©
å½±è§Ĩ ä½ľåĵģ
çĸ¯çĭĤ åĬ¨çī©åŁİ
µ Į
å µĮ
çļĦ æıĲåįĩ
çļĦ éĹ¨
çļĦ ä¸¤åĢį
æĺ ¨
æķ ¬
æĹ ĭ
ä½ł ä¸ºä½ķéĢīæĭ©
æĺ¯ åĵ²åŃ¦ä¸İç§ĳåŃ¦
åĴĮ ä»·åĢ¼
åĴĮ åĨ³çŃĸ
å¤© çļĦ
è¡ Ģ
ä½ľ èĢħ
å½± åĥı
æĥ³ åĴĮä½ł
æĽ´ æĩĤ
æĸ¹ ä¾¿
åģ ·
èĩªæĪĳ åħ³æĢĢ
è¿Ľ åº¦
çĲĨè§£ å¹¶
çĶµ è§Ĩ
æľª è§£
æ·± æĢĿ
åĪĽä½ľ ä¸Ń
æľªæĿ¥ åı¯èĥ½
å¤įæĿĤ æĥħå¢ĥ
åĪĽéĢł æĢ§æĢĿç»´
åĪĨæŀĲ éĹ®é¢ĺ
ä¸ĸçķĮ ä¸ŃçļĦ
ç²¾åĩĨ çļĦä¿¡æģ¯ä¸İå¸®åĬ©
åĽŀ æĶ¶
ä¸ªä½ĵ å¯¹èĩªèº«
æ» ĭ
ä¸įéĶĻ åĳ¢
ä½łå¦Ĥä½ķçľĭå¾ħ èĩªèº«
åĩıå°ĳ å¯¹
æľįåĬ¡ çĶ¨æĪ·
ä»Ĭå¤©æĥ³ ä¸įæĥ³
æī¿ è½½
å¦Ĥä½ķå¹³è¡¡ æĬĢæľ¯è¿ĽæŃ¥
è®¾å®ļ æ¸ħæĻ°çļĦ
çĽĳ æİ§
æīĢä»¥ C
ä¸ĵæ³¨äºİæıĲä¾Ľ åĩĨç¡®
æģ ¶
ä½łæľīåħ´è¶£ åĲ¬åĲ¬åĲĹ
éĵ ¶
çº³ åħ¥
èĢĮéĥ¨åĪĨ äºļæ´²
æĸĩçī© ä¿®å¤į
å¥ĳ çº¦
åĨ· éĿĻ
åĬ©åĬĽ çĶ¨æĪ·
æľªæĿ¥åįģå¹´ åĨħ
ä¼ĺåħĪå¤ĦçĲĨ éĩįè¦ģ
æľīä¸ī ä¸ªäºº
æĻĴ å¤ªéĺ³
éĽĨä¸Ń åľ¨
éĢĤçĶ¨äºİ å¤ļç§į
ä¼ļè¯´è¯ĿçļĦ æľºåĻ¨äºº
æľĢè¿ĳè¶ĬæĿ¥è¶Ĭå¤ļ çļĦäººå¼Ģå§ĭåħ³æ³¨
æ°Ľ åĽ´
e r
x t
® æ¼Ķ
ä¸İ éļĲç§ģ
åĨ Ĵ
ä½Ĩ è¿Ļç§į
æī ®æ¼Ķ
æĥ³ è¯ķè¯ķ
çľĭ çĶµå½±
ä¼¦çĲĨ åħ±è¯Ĩ
æĻºèĥ½ æĬĢæľ¯
èĩªæĪĳ ä¸İä»ĸäºº
è· ĥ
å®ļ åĪ¶
æľĢè¿ĳæľīæ²¡æľī æİ¨èįĲçļĦ
æĢĿ è¾¨
æľº éģĩ
çº ¤
èĩªæĪĳæĦıè¯Ĩ åľ¨
æĪĳçļĦ çĽ®æłĩæĺ¯
éķ ĩ
äºĴ è®¤
ä¼ĺåĮĸ æµģç¨ĭ
éĻħ åħ³ç³»
åĪ© å¼Ĭ
åħ´è¶£ çıŃ
æ¯Ķå¦Ĥ çĶ¨
ç¬¬ ä¸īä¸ª
é¢Ħ çķĻ
æŁĲ åħ¬åı¸
ä¸įæĸŃ æİ¢ç´¢
åĽ½éĻħ åįıè®®
éľĢåľ¨ æĬĢæľ¯åıĳå±ķ
æĶ¾æĿ¾ å¿ĥæĥħ
éĺ² èĮĥ
å¿ħé¡» æĺ¯
æĹ¶éĹ´åĢĴæµģ çļĦ
åľ°çĲĥ çļĦ
åĬ³ åĬ¨
æĬķ èµĦ
æĪĳä¹Ł åı¯ä»¥
æ·· åĲĪ
éĢĤåĲĪåĩºåİ»èµ°èµ° åĲĹ
æĪĳçļĦä»·åĢ¼åľ¨äºİ èĥ½å¤Ł
æĥ³èģĬèģĬ åĲĹ
Ķ ¹
çļĦ é¢ĨåŁŁ
çļĦ äº¤æµģ
çļĦ æŀĦå»º
æľī æĦıä¹ī
åı¯ å¢ŀå¼º
å¯ Ħ
ä¸į æ¶īåıĬ
éĢļ åĲĳ
çķ ħ
å¦Ĥä½ķ æıĲåįĩ
æĸ° çĶµå½±
è§Ĥ å¿µ
æİ¨ å¯¼
è° İ
æľª è¢«
ãĢĭ ï¼ī
å®ĥ æĹ¢
å®ĥ èĥ½å¤Ł
èį ¯
éģ¿åħį åģıè§ģ
åħ¨çĲĥ å¥ĳçº¦
çĽ¸ éĤ»
æİ¨åĬ¨ AI
è·¨æĸĩåĮĸ åĲĪä½ľ
äººç±»çļĦ ä¸»è§Ĥä½ĵéªĮ
åħ³éĶ®åľ¨äºİ ä»¥
åĽŀ æº¯
ä½łçļĦ å±±
åĥı é¸Łé£ŀ
å¾Ģ ä½łçļĦå±±
æ³ķå¾ĭ åĨ²çªģ
åĪ©çĶ¨ AI
åľºæĻ¯ ä¸ĭçļĦ
çļĦçĲĨè§£ ä¸İ
æ¶Ī éĻ¤
å¤ª å¤ļ
æĦŁåĪ° çĦ¦èĻĳ
æĹ¶éĹ´çļĦ æĦŁçŁ¥
æıĲåįĩæķĪçİĩ åĴĮ
ä¸Ģå¤© çļĦ
ç®± åŃĲ
æ³Ľ åĮĸ
éĵ ģ
æ¯ıä¸ªäºº çļĦ
ä¼ĺåĮĸç®Ĺæ³ķ åĴĮ
åģ¶ æķ°
èī¯ æĢ§
å¸ĮæľĽ èĥ½
ä¸»è§Ĥä½ĵéªĮä¸İ å®¢è§Ĥ
çĶŁçĲĨ éľĢæ±Ĥ
ï¼ģðŁ Į
åģ¶å°Ķ ä¼ļ
æıĲä¾Ľä¿¡æģ¯åĴĮ å¸®åĬ©
è¯¾ ç¨ĭ
ä½łå½ĵ åĥıé¸Łé£ŀ
ä½łå½ĵåĥıé¸Łé£ŀ å¾Ģä½łçļĦå±±
p p
º çī
æľī ä¸īä¸ª
æĪĳ èĩ´åĬĽäºİ
åĴĮ çİ¯å¢ĥ
èĢ ³
æľĢè¿ĳ åŃ¦
æľĢè¿ĳ åĴĮæľĭåıĭä¸Ģèµ·åģļ
åĨ ľ
çī ºçī
æĬĢæľ¯ ä¸İ
æĬĢæľ¯ å·¥åħ·
çŃ ¾
æĽ´ æį¢
ä¼¦çĲĨ è´£ä»»
å¹³ æĸ¹
åĪĨ åıĳ
å¤ļ æºĲ
æķ°æį® éĩĩéĽĨ
æĥħæĦŁ è¯ĨåĪ«
çĲĨè§£ æĥħæĦŁ
åħ¨ è°·çī©
æ· ĭ
æĪĳä»¬ å°Ŀè¯ķ
åĬł å·¥
æľīè¶£çļĦ ç»ıåİĨåĲĹ
ä¹ĭ è°ľ
å¡ Ķ
å¿ĥæĥħ çī¹åĪ«å¥½
ä¼ĺåħĪ éĢīæĭ©
æīĢæľī æĿ¡ä»¶
å¼Ģåıĳ çļĦ
æ¢ °
æĮĩ åįĹ
éĺ² æĻĴ
åĽŀåĪ° A
ç´§ åĩĳ
æĳ Ĩ
å¿ħé¡» ç»ıè¿ĩ
åŃ¤çĭ¬ æĦŁ
ä»İåĵ²åŃ¦ è§Ĵåº¦æĿ¥çľĭ
éļĲèĹı çļĦ
æľīäºĽ äºº
èĮĥåĽ´ åĨħ
æł¹æį®ä½łçļĦ åħ´è¶£
te xt
ä½łæľīæ²¡æľīç±»ä¼¼çļĦ ç»ıåİĨ
å¹´è½» äºº
AP P
çīºçī ²
e d
¸ æĺ¾
Â ·
çļĦ ä½¿çĶ¨
åľ¨ ä¸į
æĪĳ è®¾è®¡
äºº ä¸İ
ä½ł æľĢ
æĺ¯ å·¥åħ·
åĩ ¸æĺ¾
éľĢ ä¾Ŀèµĸ
