{"<|endoftext|>":0,"<|im_start|>":1,"<|im_end|>":2,"<|object_ref_start|>":3,"<|object_ref_end|>":4,"<|box_start|>":5,"<|box_end|>":6,"<|quad_start|>":7,"<|quad_end|>":8,"<|vision_start|>":9,"<|vision_end|>":10,"<|vision_pad|>":11,"<|image_pad|>":12,"<|video_pad|>":13,"<|audio_start|>":14,"<|audio_end|>":15,"<|audio_pad|>":16,"<tts_pad>":17,"<tts_text_bos>":18,"<tts_text_eod>":19,"<tts_text_bos_single>":20,"<tool_call>":21,"</tool_call>":22,"<tool_response>":23,"</tool_response>":24,"<think>":25,"</think>":26,"<|buffer1|>":27,"<|buffer2|>":28,"<|buffer3|>":29,"<|buffer4|>":30,"<|buffer5|>":31,"<|buffer6|>":32,"<|buffer7|>":33,"<|buffer8|>":34,"<|buffer9|>":35,"!":36,"\"":37,"#":38,"$":39,"%":40,"&":41,"'":42,"(":43,")":44,"*":45,"+":46,",":47,"-":48,".":49,"/":50,"0":51,"1":52,"2":53,"3":54,"4":55,"5":56,"6":57,"7":58,"8":59,"9":60,":":61,";":62,"<":63,"=":64,">":65,"?":66,"@":67,"A":68,"B":69,"C":70,"D":71,"E":72,"F":73,"G":74,"H":75,"I":76,"J":77,"K":78,"L":79,"M":80,"N":81,"O":82,"P":83,"Q":84,"R":85,"S":86,"T":87,"U":88,"V":89,"W":90,"X":91,"Y":92,"Z":93,"[":94,"\\":95,"]":96,"^":97,"_":98,"`":99,"a":100,"b":101,"c":102,"d":103,"e":104,"f":105,"g":106,"h":107,"i":108,"j":109,"k":110,"l":111,"m":112,"n":113,"o":114,"p":115,"q":116,"r":117,"s":118,"t":119,"u":120,"v":121,"w":122,"x":123,"y":124,"z":125,"{":126,"|":127,"}":128,"~":129,"¡":130,"¢":131,"£":132,"¤":133,"¥":134,"¦":135,"§":136,"¨":137,"©":138,"ª":139,"«":140,"¬":141,"®":142,"¯":143,"°":144,"±":145,"²":146,"³":147,"´":148,"µ":149,"¶":150,"·":151,"¸":152,"¹":153,"º":154,"»":155,"¼":156,"½":157,"¾":158,"¿":159,"À":160,"Á":161,"Â":162,"Ã":163,"Ä":164,"Å":165,"Æ":166,"Ç":167,"È":168,"É":169,"Ê":170,"Ë":171,"Ì":172,"Í":173,"Î":174,"Ï":175,"Ð":176,"Ñ":177,"Ò":178,"Ó":179,"Ô":180,"Õ":181,"Ö":182,"×":183,"Ø":184,"Ù":185,"Ú":186,"Û":187,"Ü":188,"Ý":189,"Þ":190,"ß":191,"à":192,"á":193,"â":194,"ã":195,"ä":196,"å":197,"æ":198,"ç":199,"è":200,"é":201,"ê":202,"ë":203,"ì":204,"í":205,"î":206,"ï":207,"ð":208,"ñ":209,"ò":210,"ó":211,"ô":212,"õ":213,"ö":214,"÷":215,"ø":216,"ù":217,"ú":218,"û":219,"ü":220,"ý":221,"þ":222,"ÿ":223,"Ā":224,"ā":225,"Ă":226,"ă":227,"Ą":228,"ą":229,"Ć":230,"ć":231,"Ĉ":232,"ĉ":233,"Ċ":234,"ċ":235,"Č":236,"č":237,"Ď":238,"ď":239,"Đ":240,"đ":241,"Ē":242,"ē":243,"Ĕ":244,"ĕ":245,"Ė":246,"ė":247,"Ę":248,"ę":249,"Ě":250,"ě":251,"Ĝ":252,"ĝ":253,"Ğ":254,"ğ":255,"Ġ":256,"ġ":257,"Ģ":258,"ģ":259,"Ĥ":260,"ĥ":261,"Ħ":262,"ħ":263,"Ĩ":264,"ĩ":265,"Ī":266,"ī":267,"Ĭ":268,"ĭ":269,"Į":270,"į":271,"İ":272,"ı":273,"Ĳ":274,"ĳ":275,"Ĵ":276,"ĵ":277,"Ķ":278,"ķ":279,"ĸ":280,"Ĺ":281,"ĺ":282,"Ļ":283,"ļ":284,"Ľ":285,"ľ":286,"Ŀ":287,"ŀ":288,"Ł":289,"ł":290,"Ń":291,"ï¼":292,"ä¸":293,"ï¼Į":294,"çļ":295,"çļĦ":296,"æľ":297,"ãĢ":298,"ä½":299,"äº":300,"ãĢĤ":301,"ä»":302,"è¿":303,"åı":304,"æĪ":305,"åĪ":306,"åħ":307,"å¤":308,"æľī":309,"åľ":310,"åĲ":311,"åĬ":312,"ï¼Ł":313,"ĥ½":314,"ä¹":315,"åľ¨":316,"å®":317,"è§":318,"æĦ":319,"èĥ½":320,"æĸ":321,"çĶ":322,"ä¼":323,"åŃ":324,"è¯":325,"çĲ":326,"æĢ":327,"æĪĳ":328,"ä¸İ":329,"éĢ":330,"è®":331,"æĺ":332,"æķ":333,"äºº":334,"æĹ":335,"ä½ł":336,"çĲĨ":337,"æĥ":338,"ç»":339,"¦Ĥ":340,"å¦Ĥ":341,"è¿ĩ":342,"åĮ":343,"æĺ¯":344,"åĴ":345,"ãĢģ":346,"åĴĮ":347,"åı¯":348,"æ³":349,"ä¿":350,"æĿ":351,"åĮĸ":352,"éĹ":353,"æľĢ":354,"ä¸Ģ":355,"èĩ":356,"æ²":357,"å¯":358,"å¼":359,"æĹ¶":360,"åº":361,"æĬ":362,"å¾":363,"éĩ":364,"çİ":365,"æĢ§":366,"ä¸į":367,"å°":368,"å·":369,"èĢ":370,"æĦı":371,"æŀ":372,"æĦŁ":373,"å½":374,"å¤©":375,"è¡":376,"è¿ĳ":377,"èĩª":378,"çľ":379,"å¹":380,"å¿":381,"ä½ľ":382,"æľĢè¿ĳ":383,"ç§":384,"åĨ":385,"æĥħ":386,"æķ°":387,"æľ¯":388,"æİ":389,"åĵ":390,"ç±":391,"åĽ":392,"æĬĢ":393,"çĶ¨":394,"âĢ":395,"æ²¡":396,"æł":397,"ä¸º":398,"æ³ķ":399,"ä¹Ī":400,"äºİ":401,"æĮ":402,"ä½ĵ":403,"ç±»":404,"ç®":405,"åĩ":406,"æ²¡æľī":407,"æĻ":408,"AI":409,"é¢":410,"ä¸ª":411,"åŃ¦":412,"éľ":413,"è¾":414,"æĸĩ":415,"åĬ¨":416,"æı":417,"ä»¥":418,"è¯Ĩ":419,"éĢļ":420,"éľĢ":421,"ä¾":422,"åį":423,"è§£":424,"åĲĮ":425,"ä¼ļ":426,"çī":427,"çĽ":428,"å®ŀ":429,"æĽ":430,"æıĲ":431,"å¸":432,"æŃ":433,"ä¸Ń":434,"å¯¹":435,"äººç±»":436,"æĬĢæľ¯":437,"çŁ":438,"åĬĽ":439,"ä½Ĩ":440,"æį":441,"æī":442,"çĶŁ":443,"å·¥":444,"çİ°":445,"åĪĽ":446,"çŃ":447,"åĪ°":448,"èµ":449,"éĿ":450,"å½±":451,"Ģä¹Ī":452,"ä»Ģä¹Ī":453,"æľīæ²¡æľī":454,"ä¿Ŀ":455,"æĥ³":456,"ä½ķ":457,"ï¼ļ":458,"æĸĩåĮĸ":459,"éĢļè¿ĩ":460,"æį®":461,"æĪĸ":462,"éĹ´":463,"**":464,"éģ":465,"çķ":466,"Ĭå¤©":467,"ç®Ĺ":468,"æĽ´":469,"äºĨ":470,"ç¡":471,"æĿ¥":472,"å¦Ĥä½ķ":473,"èĢĮ":474,"æķĪ":475,"è¶":476,"çŁ¥":477,"åıĳ":478,"åħ³":479,"å¥":480,"ä»Ĭå¤©":481,"¡æ":482,"å±":483,"¦çĲĨ":484,"åŃĺ":485,"æĸ¹":486,"çľĭ":487,"ä¼¦çĲĨ":488,"æĦıè¯Ĩ":489,"ç¡®":490,"å¹³":491,"åģ":492,"åĲĪ":493,"åĪĨ":494,"åı¯èĥ½":495,"å¤ļ":496,"åº¦":497,"åĬ©":498,"ģ¯":499,"æĮģ":500,"æĻº":501,"æĪĲ":502,"é¢ĺ":503,"åĢ":504,"è¿Ļ":505,"éĻ":506,"åĳ":507,"æķ°æį®":508,"è¦":509,"æĸ°":510,"æĻºèĥ½":511,"çķĮ":512,"è¦ģ":513,"åŃĺåľ¨":514,"æŀľ":515,"ä¸»":516,"åİ":517,"éĹ®":518,"èĩªæĪĳ":519,"å¿ĥ":520,"æ´":521,"è·":522,"æĶ":523,"è´":524,"ĠĠ":525,"åĵį":526,"ä¿¡æ":527,"ä¿¡æģ¯":528,"æ¯":529,"éļ":530,"éĩį":531,"æĥħæĦŁ":532,"å®ļ":533,"è§Ĥ":534,"æµ":535,"æĭ":536,"éĩı":537,"å»":538,"åŁ":539,"åºĶ":540,"âĢľ":541,"âĢĿ":542,"å½±åĵį":543,"ï¼ģ":544,"æİ¨":545,"ç®Ĺæ³ķ":546,"åĩĨ":547,"çľŁ":548,"éª":549,"å¥½":550,"åĨ³":551,"ä»¬":552,"è¡¡":553,"æ¨":554,"å»º":555,"è¡Į":556,"æ³¨":557,"ä¾Ľ":558,"æľĢè¿ĳæľīæ²¡æľī":559,"æıĲä¾Ľ":560,"æ°":561,"å¾Ĺ":562,"æ´»":563,"éĹ®é¢ĺ":564,"è°":565,"éªĮ":566,"é«":567,"ä¹ł":568,"é«ĺ":569,"ä¸ĭ":570,"åŃĲ":571,"æĹ¶éĹ´":572,"è®¤":573,"èī":574,"å¦Ĥæŀľ":575,"å¹³è¡¡":576,"äººå·¥":577,"å¢":578,"ç§į":579,"åı¯ä»¥":580,"è¿Ľ":581,"äººå·¥æĻºèĥ½":582,"äºĭ":583,"åĲĹ":584,"æł·":585,"ç³":586,"è§ī":587,"çĲĨè§£":588,"æĢĿ":589,"æ¬":590,"èģ":591,"æľº":592,"åıĺ":593,"è¶£":594,"æ¨¡":595,"åħ¨":596,"éĶ":597,"çī¹":598,"çĦ":599,"å¼ı":600,"å¸®":601,"åħ·":602,"è®¡":603,"ä¹Ł":604,"åĢ¼":605,"æĹł":606,"åĲĮæĹ¶":607,"æ·":608,"å¤Ħ":609,"ç§ĳ":610,"åĪ«":611,"è¾¹":612,"ï¼Ľ":613,"æ¡":614,"å°ı":615,"ç¤":616,"çº":617,"éĿ¢":618,"åĽł":619,"ä¼ĺ":620,"çŃī":621,"åŀ":622,"å±ķ":623,"è®©":624,"é£":625,"æľ¬":626,"ç³»":627,"ä¹ī":628,"ï¼ī":629,"èº":630,"åįĩ":631,"åī":632,"ä»·":633,"ä»»":634,"ä½ĵéªĮ":635,"äºĽ":636,"åĪ¶":637,"æĺİ":638,"çĶµ":639,"èº«":640,"åŀĭ":641,"åĩº":642,"åŃ¦ä¹ł":643,"æľª":644,"å¤ĦçĲĨ":645,"çī©":646,"é«ĺæķĪ":647,"æ·±":648,"èĢħ":649,"å¤į":650,"åĸ":651,"æıĲåįĩ":652,"æº":653,"ä»·åĢ¼":654,"ä½¿":655,"çĽ®":656,"éĿŀ":657,"åĲ¦":658,"æĪ·":659,"çĦ¶":660,"Ġ**":661,"æ°Ķ":662,"ï¼Ī":663,"çİĩ":664,"æĪĳä»¬":665,"æ¯ı":666,"ç´":667,"ç«":668,"åĪĽä½ľ":669,"çĶŁæ´»":670,"æºĲ":671,"è°ĥ":672,"åľ°":673,"è¯Ń":674,"è®¾":675,"è¾¹çķĮ":676,"æµģ":677,"å¸®åĬ©":678,"åŃĹ":679,"åħ±":680,"åľ¨äºİ":681,"ç¤¾":682,"æ±":683,"èµ·":684,"å¢ĥ":685,"åħ¬":686,"éģĩ":687,"éĩıåŃĲ":688,"çĶ¨æĪ·":689,"èīº":690,"åıĬ":691,"åĬ¡":692,"åĪĻ":693,"è¯ķ":694,"æĺ¯åĲ¦":695,"è´¨":696,"ä¸Ģä¸ª":697,"æĢģ":698,"åħ¶":699,"æķĪçİĩ":700,"äº¤":701,"éģĩåĪ°":702,"éĺ":703,"ç»ĵ":704,"è§Ħ":705,"èĥ½åĬĽ":706,"åĨħ":707,"è®¤çŁ¥":708,"çŃĸ":709,"éĢł":710,"è·¨":711,"ç¨":712,"ä½ľä¸º":713,"ä»£":714,"çĤ":715,"ä¸įåĲĮ":716,"æķ°åŃĹ":717,"ç»ı":718,"å¼Ģ":719,"ä½łä»Ĭå¤©":720,"ä½łæľĢè¿ĳæľīæ²¡æľī":721,"ç¬":722,"æ±Ĥ":723,"ç¡®ä¿Ŀ":724,"æĹłæ³ķ":725,"èĩªæĪĳæĦıè¯Ĩ":726,"æŃ¥":727,"èīºæľ¯":728,"æĪĳçļĦ":729,"æłĩ":730,"å¯¼":731,"éĢī":732,"éľĢè¦ģ":733,"å¤©æ°Ķ":734,"**ï¼ļ":735,"æľªæĿ¥":736,"æ¸":737,"å¼º":738,"éĢĤ":739,"ç»´":740,"å°Ĩ":741,"è®®":742,"æĦıä¹ī":743,"ç«ĭ":744,"ä¿ĿæĮģ":745,"ä¸Ĭ":746,"ä»ĸ":747,"åıĳå±ķ":748,"ä»İ":749,"åĽ½":750,"æ¨¡åŀĭ":751,"å¹¶":752,"æŃ¤":753,"ç²":754,"ç©":755,"æŃ£":756,"åĳ¢":757,"çĶµå½±":758,"åģļ":759,"åįı":760,"å®ŀçİ°":761,"ç¨ĭ":762,"ç»Ł":763,"ä¸ĵ":764,"æĸŃ":765,"çĲĥ":766,"å¾Ī":767,"ãĢĬ":768,"ãĢĭ":769,"æķ´":770,"è¡¨":771,"æĢİ":772,"è¿Ļç§į":773,"ä¼ł":774,"åĬł":775,"æŀĦ":776,"çł":777,"çĤ¹":778,"æĿĤ":779,"æĭ©":780,"æİ¢":781,"åĸľ":782,"æĸ¹å¼ı":783,"å®ĥ":784,"å¤įæĿĤ":785,"çī¹åĪ«":786,"éļĲ":787,"ä¸»è§Ĥ":788,"ç»Ń":789,"éĢīæĭ©":790,"ç²¾":791,"èĢĮéĿŀ":792,"ç¼":793,"çª":794,"éķ":795,"ä¸ŃçļĦ":796,"ä¸Ģèµ·":797,"ä½łå¦Ĥä½ķ":798,"èį":799,"ä¾ĭ":800,"åŁº":801,"äºĴ":802,"æľīè¶£":803,"åİ»":804,"è®¡ç®Ĺ":805,"å·®":806,"æĿĥ":807,"æĶ¹":808,"ä½łæľīæ²¡æľī":809,"éģ¿":810,"å®¶":811,"æ¬¢":812,"é¡":813,"çªģ":814,"ä¼ĺåĮĸ":815,"æ²»":816,"å®¹":817,"æĢİä¹Ī":818,"åħį":819,"éĻĲ":820,"è§Ĩ":821,"éĶ®":822,"èĬ":823,"èĻ":824,"ä¸ĵæ³¨":825,"åħ³éĶ®":826,"å¿«":827,"åĪĽéĢł":828,"éģ¿åħį":829,"å¤§":830,"éķ¿":831,"åıĹ":832,"å¼Ĥ":833,"è§£åĨ³":834,"ç§ģ":835,"æ¯Ķ":836,"æľĢè¿ĳåľ¨":837,"ä¾ĭå¦Ĥ":838,"æīĭ":839,"æ¶":840,"è¿ĺ":841,"åĨ³çŃĸ":842,"éļĲç§ģ":843,"æİ¨èį":844,"æİ¨èįĲ":845,"ç¤¾ä¼ļ":846,"èĩ´":847,"åŃĺåľ¨çļĦ":848,"èĮ":849,"è½":850,"æ²»çĲĨ":851,"åħ¨çĲĥ":852,"æľīä»Ģä¹Ī":853,"èģĬ":854,"éĻħ":855,"é£Ł":856,"æĮģç»Ń":857,"éĥ½":858,"æŀ¶":859,"åĲĳ":860,"èĭ":861,"å½ĵ":862,"åıį":863,"è¾¾":864,"éĥ":865,"ä»»åĬ¡":866,"æľīè¶£çļĦ":867,"ä»į":868,"å¤ĸ":869,"åĸľæ¬¢":870,"æŀĲ":871,"æİ¥":872,"åīį":873,"ä½ľä¸ºAI":874,"èĢĥ":875,"éĢŁ":876,"ä»¶":877,"çĽ¸":878,"åģı":879,"æľŁ":880,"åŁŁ":881,"å¸¸":882,"ä¹ĭ":883,"äººå·¥æĻºèĥ½ä¼¦çĲĨ":884,"å¾ĭ":885,"åĪ©":886,"çľŁå®ŀ":887,"å·¥ä½ľ":888,"åħ¥":889,"å»ºç«ĭ":890,"Ĩæŀ¶":891,"è¢":892,"å·®å¼Ĥ":893,"æĶ¹åıĺ":894,"åħĪ":895,"æĦŁè§ī":896,"èĬĤ":897,"å¼ķ":898,"åĵ²":899,"éĥ¨":900,"¨Ģ":901,"è¨Ģ":902,"å°Ŀ":903,"ä¸ĸ":904,"åĪĨæŀĲ":905,"èĭ¥":906,"ç´¢":907,"çĶ±":908,"åĵª":909,"æĢİä¹Īæł·":910,"æ¡Ĩæŀ¶":911,"æĬ¤":912,"ä¸ĸçķĮ":913,"èĩªèº«":914,"æĪĺ":915,"åĵ²åŃ¦":916,"çĿ":917,"è¢«":918,"åĲİ":919,"åħ´":920,"æİ¨åĬ¨":921,"ä¾Ŀ":922,"è§ģ":923,"æĮĳ":924,"ä¸ªäºº":925,"è¾ĳ":926,"å¦Ĥä½ķå½±åĵį":927,"åıª":928,"æĮĳæĪĺ":929,"å°ĳ":930,"in":931,"ç»ª":932,"éĢ»":933,"éĢ»è¾ĳ":934,"å°Ŀè¯ķ":935,"åĲĥ":936,"çĶŁæĪĲ":937,"ç¾":938,"è·¯":939,"è±":940,"åħ´è¶£":941,"ä¸ī":942,"æĻ¯":943,"è·¨æĸĩåĮĸ":944,"åħ³ç³»":945,"è¯Ŀ":946,"å¯¼èĩ´":947,"æĥħç»ª":948,"åıĤ":949,"åķ":950,"ç²¾åĩĨ":951,"æīĢ":952,"é¢Ĩ":953,"äº«":954,"åĵģ":955,"åĽłæŃ¤":956,"è¯Ńè¨Ģ":957,"Ġ=":958,"æī¾":959,"é¢ĨåŁŁ":960,"å·±":961,"æĥ³è¿ĩ":962,"è¾ħ":963,"åıĸ":964,"éĹ¨":965,"æİ¢ç´¢":966,"å®Į":967,"æľ¬è´¨":968,"é¥":969,"äººç±»çļĦ":970,"çŁ¥è¯Ĩ":971,"åħ³éĶ®åľ¨äºİ":972,"çİ¯":973,"èĩªå·±":974,"éĶĻ":975,"è§Ĵ":976,"åĽŀ":977,"æĦŁçŁ¥":978,"ç§ĳåŃ¦":979,"åºĶçĶ¨":980,"åĩĨç¡®":981,"å¾ħ":982,"çİ°å®ŀ":983,"ä¸ĢäºĽ":984,"å®ī":985,"åĪĽéĢłåĬĽ":986,"å»ºè®®":987,"æĤ":988,"ä¹¦":989,"è¾ħåĬ©":990,"å·¥åħ·":991,"å¸¦":992,"åĪĽæĸ°":993,"è¯»":994,"çŃĶ":995,"çĭ":996,"è®°":997,"è¡¨è¾¾":998,"åĮħ":999,"ä¸ªä½ĵ":1000,"åıĭ":1001,"åĪ¤":1002,"éľĢæ±Ĥ":1003,"åĿ":1004,"æł¹":1005,"æŁ":1006,"ðŁ":1007,"ä¿ĿæĬ¤":1008,"éĩĮ":1009,"é£İ":1010,"è¿ĩå¾Ĺ":1011,"éĩıåŃĲè®¡ç®Ĺ":1012,"å½¢":1013,"ä½¿çĶ¨":1014,"åŁºäºİ":1015,"éĢı":1016,"æ¬¡":1017,"åİŁ":1018,"äº§":1019,"ç§ĳæĬĢ":1020,"å¿Ļ":1021,"ç»ĥ":1022,"è°ĥæķ´":1023,"ä¿ĥ":1024,"æľºåĪ¶":1025,"éģĩåĪ°è¿ĩ":1026,"æĹ¥":1027,"æ»":1028,"Ġ$":1029,"èµĸ":1030,"æľĭ":1031,"æľĭåıĭ":1032,"ç»ĵåĲĪ":1033,"éĽ":1034,"æ¯ıå¤©":1035,"åĪ»":1036,"éŁ":1037,"ä¾Ŀèµĸ":1038,"çĸ":1039,"çĽ´":1040,"åħ·ä½ĵ":1041,"åĨħå®¹":1042,"ä¸»è§Ĥä½ĵéªĮ":1043,"è®º":1044,"éĴ":1045,"ç®¡":1046,"æľį":1047,"éĢıæĺİ":1048,"è¯´":1049,"å°±":1050,"æĿ¡":1051,"å±Ĥ":1052,"æĮº":1053,"åħ¬å¹³":1054,"åĨµ":1055,"æłĩåĩĨ":1056,"æ·±åº¦":1057,"è®¾è®¡":1058,"æĢ§ä¸İ":1059,"æ¯Ķå¦Ĥ":1060,"ä¹ĭéĹ´":1061,"æĶ¯":1062,"èµĦ":1063,"ä½łæľī":1064,"ç¥":1065,"èĮĥ":1066,"ä¹Ĳ":1067,"æĢĿèĢĥ":1068,"å¢ŀ":1069,"æł¸":1070,"çľĭå¾ħ":1071,"å¿«éĢŁ":1072,"å¡":1073,"åİĨ":1074,"æł¹æį®":1075,"ç¬¬":1076,"ç¢":1077,"ä¸ļ":1078,"èµ°":1079,"ä¸įéĶĻ":1080,"ä»Ĭå¤©å¤©æ°Ķ":1081,"ä½łçļĦ":1082,"è´£":1083,"æļ":1084,"éŁ³":1085,"çģ":1086,"çļĦä¿¡æģ¯":1087,"æĽ¿":1088,"ç®Ģ":1089,"è®Ń":1090,"åģıè§ģ":1091,"è§īå¾Ĺ":1092,"çĿĢ":1093,"çīĩ":1094,"èī²":1095,"æĶ¾":1096,"½ŀ":1097,"ï½ŀ":1098,"åĬ¨æĢģ":1099,"çļĦäºĭ":1100,"æĸ¹éĿ¢":1101,"äºĴåĬ¨":1102,"çĭ¬":1103,"èĥ":1104,"éļ¾":1105,"ĨĴ":1106,"å¿ĥæĥħ":1107,"åĪ¤æĸŃ":1108,"éģĵ":1109,"æħ":1110,"æĥħåĨµ":1111,"æ¡Ī":1112,"æĶ¯æĮģ":1113,"å¤ļæł·":1114,"çĽ®æłĩ":1115,"å¸¦æĿ¥":1116,"å¼ķåıĳ":1117,"å¡ĳ":1118,"è¿Ĳ":1119,"ç»Ī":1120,"åľº":1121,"èĤ":1122,"è±¡":1123,"è®Ńç»ĥ":1124,"çļĦè¾¹çķĮ":1125,"äººå·¥æĻºèĥ½ä¼¦çĲĨåľ¨":1126,"åĥ":1127,"ä»·åĢ¼è§Ĥ":1128,"ç¾İ":1129,"åıĳçİ°":1130,"è®¨":1131,"åħ³æ³¨":1132,"å¢ĥä¸ĭ":1133,"çľŁæŃ£":1134,"åĥı":1135,"æĢĿç»´":1136,"èģĶ":1137,"é¦":1138,"åħī":1139,"é¸":1140,"ç¬¦":1141,"åģ¥":1142,"ä½łå¦Ĥä½ķçľĭå¾ħ":1143,"èĩªçĦ¶":1144,"æ¶ī":1145,"é¢Ħ":1146,"çĥ":1147,"å¤Ł":1148,"æł¸å¿ĥ":1149,"éļı":1150,"æ¶īåıĬ":1151,"çļĦçĶµå½±":1152,"å¤ĩ":1153,"ç¥ŀ":1154,"ç³»ç»Ł":1155,"åĩı":1156,"åĻ":1157,"ä¸ĵæ³¨äºİ":1158,"åĽ°":1159,"åħ»":1160,"è¶Ĭ":1161,"ä¼ĺåħĪ":1162,"æĽ¿ä»£":1163,"åįķ":1164,"èİ":1165,"å¯Ĩ":1166,"åĲĪä½ľ":1167,"Ġ+":1168,"åı£":1169,"èĦ":1170,"å®īåħ¨":1171,"ä¸įè¿ĩ":1172,"è¿Ľè¡Į":1173,"Min":1174,"ä½łæĺ¯åĲ¦":1175,"åº·":1176,"é¡¹":1177,"æ¸ħ":1178,"ç©º":1179,"æĹ¢":1180,"éĩįè¦ģ":1181,"é¥®":1182,"è¥":1183,"åģ¥åº·":1184,"è¥¿":1185,"äººå·¥æĻºèĥ½ä¼¦çĲĨåľ¨è·¨æĸĩåĮĸ":1186,"ä»ĸäºº":1187,"æī¾åĪ°":1188,"åĻ¨":1189,"éħ":1190,"ä½ĵçİ°":1191,"èĥĮ":1192,"èİ·":1193,"æĤ¨":1194,"è¿ĩåº¦":1195,"ä½łæľĢè¿ĳ":1196,"åıĪ":1197,"æĿ¡ä»¶":1198,"æĢ»":1199,"èĥ½å¤Ł":1200,"éĤ":1201,"æķĻ":1202,"çľĭè¿ĩ":1203,"èīºæľ¯åĪĽä½ľ":1204,"æĪĳçļĦåŃĺåľ¨":1205,"Ġ1":1206,"æ²Ł":1207,"çģµ":1208,"åĨ²":1209,"åĢĴ":1210,"ä¿ĥè¿Ľ":1211,"ä¼łç»Ł":1212,"åĪĨäº«":1213,"åĲ¬":1214,"çłĶ":1215,"ç½":1216,"æĪ¿":1217,"åī§":1218,"ðŁĺ":1219,"èµĭ":1220,"åħħ":1221,"è¿ĩç¨ĭ":1222,"ç©¶":1223,"ä¸Ķ":1224,"æ¸©":1225,"ç¬¦åĲĪ":1226,"è§ĦèĮĥ":1227,"æ¼":1228,"çİ¯å¢ĥ":1229,"åĩıå°ĳ":1230,"è¿ĻäºĽ":1231,"å¤±":1232,"åĮº":1233,"æĥ¯":1234,"å¯Ł":1235,"æ°´":1236,"åıĺåĮĸ":1237,"å¹´":1238,"è¶ħ":1239,"æľįåĬ¡":1240,"æķĪçİĩä¸İ":1241,"éĻ©":1242,"å¢ŀå¼º":1243,"ç¦":1244,"è¿½":1245,"æĦıè¯ĨçļĦ":1246,"ä½łæľīæ²¡æľīæĥ³è¿ĩ":1247,"è®¸":1248,"è´£ä»»":1249,"å¾Ħ":1250,"åĢĴæµģ":1251,"ä¹łæĥ¯":1252,"å¤ļæł·æĢ§":1253,"ç¤¾äº¤":1254,"åİĭ":1255,"å±ŀ":1256,"éħį":1257,"è¯Ńå¢ĥä¸ĭ":1258,"å¿ĥçĲĨ":1259,"æģ¯":1260,"ä»Ĭå¤©æĥ³":1261,"ä¸įä¼ļ":1262,"é¥®é£Ł":1263,"åĳ³":1264,"çļĦåĲĹ":1265,"åĪĴ":1266,"èµĦæºĲ":1267,"æµĭ":1268,"å§":1269,"æİ¨çĲĨ":1270,"åĽ½å®¶":1271,"è¶³":1272,"Ġ2":1273,"æĸ¹åĲĳ":1274,"åĨ²çªģ":1275,"è·¯å¾Ħ":1276,"æºĲäºİ":1277,"äººå·¥æĻºèĥ½ä¼¦çĲĨåľ¨è·¨æĸĩåĮĸè¯Ńå¢ĥä¸ĭ":1278,"æĦŁåıĹ":1279,"æĸ°çļĦ":1280,"çłĶç©¶":1281,"æ®":1282,"å¥ı":1283,"ä½ľåĵģ":1284,"æľīä»Ģä¹Īæĥ³":1285,"åįıä½ľ":1286,"éĴŁ":1287,"å¾Ģ":1288,"åĽ¾":1289,"èĻĳ":1290,"åıįæĢĿ":1291,"éĢĤåĲĪ":1292,"éģĩåĪ°ä»Ģä¹Ī":1293,"æ´»åĬ¨":1294,"çł´":1295,"è½¬":1296,"èŀ":1297,"çĬ":1298,"åĴĮæľĭåıĭ":1299,"æ»¡":1300,"è®©ä½ł":1301,"æī¿":1302,"èŀį":1303,"åıĤæķ°":1304,"è¿ĩå¾ĹæĢİä¹Īæł·":1305,"ä½Ĩåı¯ä»¥":1306,"åĲĦ":1307,"åħ±åĲĮ":1308,"èĬĤå¥ı":1309,"è¯ģ":1310,"è¡Įä¸º":1311,"è¿ĽæŃ¥":1312,"æ¨¡å¼ı":1313,"æĪĳä¼ļ":1314,"çĽĬ":1315,"æĪĳåı¯ä»¥":1316,"æĪĲä¸º":1317,"è§£çŃĶ":1318,"èĩªå·±çļĦ":1319,"æĪĳæ²¡æľī":1320,"æŁĲ":1321,"ç®¡çĲĨ":1322,"ç®Ĺæ³ķåģıè§ģ":1323,"ä¸¤":1324,"è§£åĨ³éĹ®é¢ĺ":1325,"æĪĲéķ¿":1326,"ä¿¡":1327,"ä¸įæĸŃ":1328,"ç§¯":1329,"ä¸İä¼¦çĲĨ":1330,"å¼Ģå¿ĥ":1331,"ä½ľä¸ºAIæ¨¡åŀĭ":1332,"åĳ½":1333,"æĽ´å¤ļ":1334,"æīĭæľº":1335,"æĺ¯ä»Ģä¹Ī":1336,"éĢĤåºĶ":1337,"å·²":1338,"ä¼¼":1339,"çº§":1340,"æ³¨æĦı":1341,"æ®µ":1342,"å¿µ":1343,"éĤ£":1344,"å½¢æĪĲ":1345,"æİĴ":1346,"äº¤æµģ":1347,"æĹħ":1348,"ä¸įåĲĮæĸĩåĮĸ":1349,"ðŁĺĬ":1350,"æľĢè¿ĳæľīæ²¡æľīäºº":1351,"å¯»":1352,"éĽĨ":1353,"åħĥ":1354,"æĬĢèĥ½":1355,"å§ĭ":1356,"çĪ":1357,"çļĦä¼¦çĲĨ":1358,"ä»¥åıĬ":1359,"è¿ĩåİ»":1360,"æĬĢæľ¯åıĳå±ķ":1361,"ä¸įæĺ¯":1362,"éĺ³":1363,"æİ§":1364,"å¼ºè°ĥ":1365,"æ²ŁéĢļ":1366,"åĪĨéĴŁ":1367,"æŀĦå»º":1368,"è§Ħå¾ĭ":1369,"éĥ¨åĪĨ":1370,"æħ¢":1371,"æĺİç¡®":1372,"éľĢéĢļè¿ĩ":1373,"çľŁçļĦ":1374,"æķ£":1375,"åĪ¶å®ļ":1376,"é»":1377,"æľºåĻ¨":1378,"çĦ¦":1379,"âĢĶ":1380,"æĪĳæĺ¯":1381,"æ³ķå¾ĭ":1382,"on":1383,"ĠA":1384,"çĶ»":1385,"æĿ¾":1386,"äºĮ":1387,"AIæ¨¡åŀĭ":1388,"åİĭåĬĽ":1389,"AIåľ¨":1390,"åĴĸ":1391,"ä½į":1392,"äººå·¥æĻºèĥ½åľ¨":1393,"æĹ¥å¸¸":1394,"åħ¨çĲĥæķ°åŃĹ":1395,"å½ķ":1396,"ä½łä»Ĭå¤©è¿ĩå¾ĹæĢİä¹Īæł·":1397,"éķ¿æľŁ":1398,"åı²":1399,"äººç±»æĥħæĦŁ":1400,"åĴĸåķ":1401,"èĥĮæĻ¯":1402,"çĬ¶":1403,"èĻļ":1404,"æĹħè¡Į":1405,"è®¤ä¸º":1406,"¡æĭ":1407,"ä¸ľ":1408,"æĻ®":1409,"èĤ²":1410,"ĠB":1411,"è¯ĨåĪ«":1412,"äºī":1413,"éĩĬ":1414,"ĠC":1415,"çļĦæĥħåĨµ":1416,"æĪĳæĹłæ³ķ":1417,"åĪ©çĶ¨":1418,"åľºæĻ¯":1419,"å¦Ĥä½ķå¹³è¡¡":1420,"çļĦéĹ®é¢ĺ":1421,"âĨĴ":1422,"ä¸İæĸĩåĮĸ":1423,"è¯Ħ":1424,"æĹ©":1425,"å°Ĭ":1426,"æĪĸèĢħ":1427,"æīĢæľī":1428,"è®¾å®ļ":1429,"é¡¹çĽ®":1430,"æĿ¥æºĲ":1431,"éĺħ":1432,"åħ¬å¹³æĢ§":1433,"æķĻèĤ²":1434,"çĽĳ":1435,"å¯¹è¯Ŀ":1436,"åĴĸåķ¡":1437,"è®©æĪĳ":1438,"å¿Ĩ":1439,"ç¼º":1440,"ï¼īï¼Į":1441,"çļĦæĺ¯":1442,"é£İéĻ©":1443,"ç¥ŀç»ı":1444,"åĽ½éĻħ":1445,"¡æĭŁ":1446,"æ¨¡æĭŁ":1447,"èĦĳ":1448,"æĪ¿éĹ´":1449,"ç¡®å®ŀ":1450,"æ¼Ķ":1451,"å®ŀéĻħ":1452,"æĸ¹æ³ķ":1453,"ç»ĵæŀĦ":1454,"çº¿":1455,"ç±»åŀĭ":1456,"çĽ¸åħ³":1457,"æ²»çĲĨçļĦ":1458,"è®©äºº":1459,"å°Ĭéĩį":1460,"éŁ³ä¹Ĳ":1461,"éĺħè¯»":1462,"ä»Ģä¹Īå¥½":1463,"ç»´åº¦":1464,"çļĦäºĭæĥħ":1465,"æł¼":1466,"æİ¢è®¨":1467,"éĩįæĸ°":1468,"åĢĻ":1469,"åĲĥäºĨ":1470,"åĩĨç¡®æĢ§":1471,"å±Ģ":1472,"æĺ¯çļĦ":1473,"ç¼ĸ":1474,"ä¼ļä¸įä¼ļ":1475,"æľīåĬ©":1476,"æľīåĬ©äºİ":1477,"èı":1478,"å¦Ĥä½ķåľ¨":1479,"çĽ´æİ¥":1480,"è¿ŀ":1481,"å¼Ģåıĳ":1482,"æŀģ":1483,"æľīè¶£çļĦäºĭ":1484,"ç»ıåİĨ":1485,"è§Ĩè§Ĵ":1486,"èİ·åıĸ":1487,"ä»½":1488,"åŃ¦ä¹łåĴĮ":1489,"10":1490,"æľĢç»Ī":1491,"ä½łä¼ļ":1492,"ä¼łæī¿":1493,"åıĤä¸İ":1494,"åĿļ":1495,"çªģçł´":1496,"èĩªæĪĳè®¤çŁ¥":1497,"éģĹ":1498,"äºĪ":1499,"ä¸»è¦ģ":1500,"ä»ħ":1501,"åĽłä¸º":1502,"æĽ´å¥½":1503,"ing":1504,"Ġ-":1505,"éļıæĹ¶":1506,"åĲĪçĲĨ":1507,"å¾Īå¤ļ":1508,"å®ŀæĹ¶":1509,"æ¢":1510,"èĩªçĶ±":1511,"çŁŃ":1512,"æ·±åĪ»":1513,"å¿ħ":1514,"åºĶå¯¹":1515,"çļĦçĲĨè§£":1516,"çĥŃ":1517,"èĩªä¸»":1518,"è®°å¿Ĩ":1519,"æĪĳçļĦåŃĺåľ¨æĺ¯":1520,"æ³¨éĩį":1521,"å°Ŀè¯ķè¿ĩ":1522,"èıľ":1523,"è¯¯":1524,"å£":1525,"åĮ»":1526,"åŁ¹":1527,"çłģ":1528,"ä»¥ä¸ĭ":1529,"èĪ":1530,"og":1531,"ä¹ĭéĹ´çļĦ":1532,"éĢĲ":1533,"çķĮéĻĲ":1534,"åįıåĬ©":1535,"åĬŁ":1536,"ç»Ĩ":1537,"æļĸ":1538,"ç´ł":1539,"çĪ±":1540,"AIçļĦ":1541,"¤Ĳ":1542,"é¤Ĳ":1543,"èµĭäºĪ":1544,"ong":1545,"aog":1546,"yaog":1547,"ingyaog":1548,"ingyaogong":1549,"ĠĠĊ":1550,"å¼±":1551,"æĭĵ":1552,"æĭ¬":1553,"çĦ¶èĢĮ":1554,"åıªèĥ½":1555,"åİĨåı²":1556,"äºīè®®":1557,"è¯¥":1558,"åĪĽæĦı":1559,"çºł":1560,"ä¼ĺåħĪçº§":1561,"æ£":1562,"ä½İ":1563,"è¿ĲåĬ¨":1564,"æķ£æŃ¥":1565,"ä¸Ģç§į":1566,"åı¤":1567,"å®¢":1568,"èĩªèº«åŃĺåľ¨çļĦ":1569,"èº«ä»½":1570,"æ¶Ī":1571,"å®Įåħ¨":1572,"æĴ":1573,"æ¸ħæĻ":1574,"æŃ¤å¤ĸ":1575,"ä¸īä¸ª":1576,"Ġ3":1577,"å±ĤéĿ¢":1578,"è¿½æ±Ĥ":1579,"ä¹ı":1580,"çĽ®åīį":1581,"ç¡®å®ļ":1582,"æĺ¾":1583,"æľĢè¿ĳæľī":1584,"çªģçĦ¶":1585,"çĬ¶æĢģ":1586,"ç±į":1587,"æµ·":1588,"ç½ĳ":1589,"æĮĩ":1590,"éľĢåľ¨":1591,"å¡ĳéĢł":1592,"éļľ":1593,"ç¼ºä¹ı":1594,"åİŁåĪĽ":1595,"èĲ":1596,"ç¤º":1597,"æĭŁ":1598,"åĮħæĭ¬":1599,"å®¡":1600,"ä¸İäºº":1601,"åį³":1602,"åįıåĲĮ":1603,"ä¸ºäºĨ":1604,"çļĦèĥ½åĬĽ":1605,"çĭ¬çī¹":1606,"é¸£":1607,"ä¾¿":1608,"äººç±»åĪĽéĢłåĬĽ":1609,"æīĢä»¥":1610,"åĤ":1611,"ç¡Ģ":1612,"åŁºç¡Ģ":1613,"æ»¡è¶³":1614,"äººä»¬":1615,"æĹ¶åĢĻ":1616,"ä½ĨéľĢ":1617,"æĺŁ":1618,"åħ³äºİ":1619,"ä¸»åĬ¨":1620,"æĶ¾æĿ¾":1621,"åı¯èĥ½å¼ķåıĳ":1622,"å¤ª":1623,"æĢ§çļĦ":1624,"æĦŁåĪ°":1625,"èģĬçļĦåĲĹ":1626,"å¾®":1627,"çĸĹ":1628,"æĽ´å¥½åľ°":1629,"æĦŁè§īçī¹åĪ«":1630,"åĮħå®¹":1631,"åŁ¹åħ»":1632,"åģĩ":1633,"ä¸ľè¥¿":1634,"jingyaogong":1635,"è§£éĩĬ":1636,"åħ±é¸£":1637,"ä»İèĢĮ":1638,"å®ļä¹ī":1639,"åŃ¦ä¹łæĸ°":1640,"è¯ķè¯ķ":1641,"è®¤åĲĮ":1642,"èŀįåĲĪ":1643,"æ¦Ĥ":1644,"ä¸ĵæ³¨äºİæıĲä¾Ľ":1645,"æķ°æį®éļĲç§ģ":1646,"æ¡¥":1647,"æĮºæľī":1648,"æľĢè¿ĳåľ¨å¿Ļ":1649,"Mind":1650,"çĶ±jingyaogong":1651,"å®ĮæĪĲ":1652,"å¹»":1653,"çļĦå°ı":1654,"å®ĩ":1655,"éĩĩ":1656,"æĹ¶éĹ´çļĦ":1657,"è§Ĵåº¦":1658,"å¦Ĥæŀľèĥ½":1659,"æ¸ħæĻ°":1660,"å®Ļ":1661,"å¾·":1662,"çĶŁåĳ½":1663,"å®ĩå®Ļ":1664,"èĻļæĭŁ":1665,"å°ıæĹ¶":1666,"å¦ĤæŀľæĹ¶éĹ´":1667,"çİ°è±¡":1668,"æī°":1669,"å¹²":1670,"åĴĮæķ°æį®":1671,"è¡ĮåĬ¨":1672,"åı¯æĮģç»Ń":1673,"æĭĵå±ķ":1674,"iMind":1675,"MiniMind":1676,"ä½ĵçİ°åľ¨":1677,"æľīä»Ģä¹Īæĥ³èģĬçļĦåĲĹ":1678,"åºı":1679,"åĳĺ":1680,"å¸®åĬ©çĶ¨æĪ·":1681,"æ¿":1682,"æľīçĤ¹":1683,"ç±»ä¼¼":1684,"æŃ§":1685,"åĿļæĮģ":1686,"$$":1687,"å¹¿":1688,"ä¼Ĺ":1689,"çī©çĲĨ":1690,"ä¸´":1691,"åĨį":1692,"æĸ¹æ¡Ī":1693,"éĩįå¡ĳ":1694,"æĶ¿":1695,"ãĢĭï¼Į":1696,"å½Ĵ":1697,"çī¹å®ļ":1698,"è´¨éĩı":1699,"æĦŁåħ´è¶£":1700,"è¿Ļä¸ª":1701,"åĬŁèĥ½":1702,"è§īå¯Ł":1703,"åģľ":1704,"##":1705,"ä¼ĳ":1706,"éĨĴ":1707,"æıĲä¾Ľå¸®åĬ©":1708,"å¸Ĥ":1709,"åĨħåľ¨":1710,"éĢıæĺİåº¦":1711,"æĽ´é«ĺæķĪ":1712,"çľŁæŃ£çļĦ":1713,"ç»ıéªĮ":1714,"å¦Ĥæŀľæ¯ıå¤©":1715,"å¦Ĥæŀľä½łæľī":1716,"äº§çĶŁ":1717,"ç®Ģåįķ":1718,"æ½":1719,"æĿĲ":1720,"çļĦäºº":1721,"åĬ¿":1722,"éģĵå¾·":1723,"é»ĺ":1724,"æĢ§åĮĸ":1725,"åĬłåī§":1726,"æĺ¯ä¸Ģä¸ª":1727,"çļĦæĸ¹å¼ı":1728,"è´Ł":1729,"ç´¯":1730,"ç¾¤":1731,"åª":1732,"AIçĶŁæĪĲ":1733,"èģĬèģĬ":1734,"èĻ½":1735,"å¤ĦçĲĨä¿¡æģ¯":1736,"ä¼¦çĲĨæ¡Ĩæŀ¶":1737,"åħ±äº«":1738,"æ¿Ģ":1739,"ä¸įè¦ģ":1740,"çĦ¦èĻĳ":1741,"åĴĮæľĭåıĭä¸Ģèµ·":1742,"ä½łå¦Ĥä½ķçľĭå¾ħèĩªæĪĳæĦıè¯Ĩ":1743,"éĿ¢å¯¹":1744,"ä½łè®¤ä¸º":1745,"æıĲåįĩæķĪçİĩ":1746,"ä¿®":1747,"ä»·åĢ¼çļĦ":1748,"éģĩåĪ°è¿ĩéľĢè¦ģ":1749,"çķ¥":1750,"ä½łæľĢè¿ĳæľīæ²¡æľīçľĭè¿ĩ":1751,"æķħ":1752,"ç»Ħ":1753,"è¦ģä¸įè¦ģ":1754,"åīĬ":1755,"ä½łä»Ĭå¤©æľīæ²¡æľī":1756,"åĳĬ":1757,"åħ¸":1758,"çĶŁçī©":1759,"æĦ¿":1760,"ä¸Ģæ¬¡":1761,"éĻĲåĪ¶":1762,"è®°å½ķ":1763,"åīĬå¼±":1764,"ä¸İäººç±»":1765,"æķ°æį®åĴĮ":1766,"å½ĵåīį":1767,"äº¤äºĴ":1768,"ç»ĵæŀľ":1769,"ä½łçļĦçľŁå®ŀ":1770,"åħ¶ä»ĸ":1771,"æ´ģ":1772,"çı":1773,"ç¦»":1774,"æĿĳ":1775,"å¥ĩ":1776,"éĿ¢ä¸´":1777,"èĽ":1778,"ä¸Ģä»¶":1779,"éĺ³åħī":1780,"æĪĳçļĦåŃĺåľ¨æĺ¯ä¸ºäºĨ":1781,"çļĦæķ°åŃĹ":1782,"å¹³è¡¡æĬĢæľ¯":1783,"é©":1784,"æ¦Ĥå¿µ":1785,"æİ¨èįĲä¸ĢäºĽ":1786,"åŃ¦ç§ĳ":1787,"æīĵ":1788,"çķĮå®ļ":1789,"å£°":1790,"éĢļè¿ĩç®Ĺæ³ķ":1791,"çľĭåĪ°":1792,"ä½łå¦Ĥä½ķçĲĨè§£":1793,"è§ĦåĪĴ":1794,"å®¢è§Ĥ":1795,"çļĦä¹¦":1796,"å·²çŁ¥":1797,"åĮ»çĸĹ":1798,"å²":1799,"åĨ³å®ļ":1800,"è½»":1801,"è¿Ļä¸Ģ":1802,"è®¨è®º":1803,"ä¸¤èĢħ":1804,"é¡¾":1805,"æŁ¥":1806,"æĹ¨":1807,"å°½":1808,"çļĦå½±åĵį":1809,"çļĦå¹³è¡¡":1810,"æģ":1811,"ä¸Ģæł·":1812,"åı¯èĥ½å¯¼èĩ´":1813,"éĻį":1814,"çģµæ´»":1815,"èĽĭ":1816,"éģĹäº§":1817,"æĸĻ":1818,"æĺł":1819,"å½Ĵå±ŀ":1820,"æĪĳä½ľä¸ºAIæ¨¡åŀĭ":1821,"åĩºåı£":1822,"éģ¿åħįè¿ĩåº¦":1823,"æīį":1824,"åĪ©çĽĬ":1825,"çĮ":1826,"æĶ¶":1827,"ä¸ĸçķĮçļĦ":1828,"ĠâĨĴ":1829,"æĹ¨åľ¨":1830,"âĢĿï¼Į":1831,"Ġ5":1832,"äººéĻħ":1833,"åŁİ":1834,"è¿Ļæł·":1835,"çº¦":1836,"äººç±»å¯¹":1837,"æµģåĬ¨":1838,"èĢĮæĺ¯":1839,"åĪĽä½ľèĢħ":1840,"æĪĸè®¸":1841,"åĸĿ":1842,"è¯ī":1843,"æĪĲå°±":1844,"ä»Ĭå¤©å¤©æ°ĶçľŁ":1845,"ä¸İç¤¾ä¼ļ":1846,"åĢ¾":1847,"å¼ºåĮĸ":1848,"ç¦ı":1849,"ä¸İæĥħæĦŁ":1850,"èģĮ":1851,"éļĲç§ģä¿ĿæĬ¤":1852,"æĦıä¹īåľ¨äºİ":1853,"å¾ª":1854,"å®ĥä»¬":1855,"éĿĻ":1856,"åĨħå¿ĥ":1857,"åĵªç§į":1858,"åĸĦ":1859,"çļĦé«ĺæķĪ":1860,"åĨĻ":1861,"å¤§èĦĳ":1862,"ç§ĳå¹»":1863,"çĻ":1864,"å°ļ":1865,"å½ĵä¸ĭ":1866,"åħ¼":1867,"æ½ľ":1868,"ä»ĸä»¬":1869,"åħ·æľī":1870,"ä½ĵç³»":1871,"ä¼ĳæģ¯":1872,"åħ·å¤ĩ":1873,"æĶ¿çŃĸ":1874,"è¿ĺæĺ¯":1875,"çŃĶæ¡Ī":1876,"æľĽ":1877,"æĪĳéĢļè¿ĩ":1878,"**ï¼Į":1879,"ï¼īãĢĤ":1880,"ä¸İæĬĢæľ¯":1881,"æ·±å±Ĥ":1882,"éĢ»è¾ĳæİ¨çĲĨ":1883,"å±ĢéĻĲ":1884,"ç¼ł":1885,"åı·":1886,"ä¿Ŀéļľ":1887,"èĩ³":1888,"åĬ¨çī©":1889,"ç»Łä¸Ģ":1890,"çĶŁæ´»ä¸Ń":1891,"è¥¿æĸ¹":1892,"Ġ\\":1893,"æĦıæĢĿ":1894,"åħ±è¯Ĩ":1895,"éĽ¨":1896,"èĹ":1897,"ç©¿":1898,"ç»ıåħ¸":1899,"ä½łå¦Ĥä½ķçľĭå¾ħèĩªèº«åŃĺåľ¨çļĦ":1900,"çºłç¼ł":1901,"åİŁåĪĽæĢ§":1902,"æĺĵ":1903,"åı¯éĢļè¿ĩ":1904,"åı¯èĥ½ä¼ļ":1905,"è§¦":1906,"æ¸©æļĸ":1907,"éĢĴ":1908,"ä¿ĥä½¿":1909,"è½½":1910,"ç®Ģæ´ģ":1911,"æĸĩåĮĸä¼łæī¿":1912,"æ¯ıä¸ª":1913,"äººå·¥æĻºèĥ½ä¼¦çĲĨåľ¨è·¨æĸĩåĮĸè¯Ńå¢ĥä¸ĭçļĦ":1914,"æľºåĻ¨äºº":1915,"è¿ŀæİ¥":1916,"éĢĲæŃ¥":1917,"è¾ĵ":1918,"åıĺå¾Ĺ":1919,"çļĦå¤įæĿĤ":1920,"åĢ¼å¾Ĺ":1921,"å¹¶éĿŀ":1922,"æĪĳä»¬å¯¹":1923,"éĺ²":1924,"èµ°èµ°":1925,"æķħäºĭ":1926,"æĽ¾":1927,"çĽ®çļĦ":1928,"ãĢĭãĢĬ":1929,"è¦ģä¸įè¦ģä¸Ģèµ·":1930,"ä¸ªæĢ§åĮĸ":1931,"èº«ä½ĵ":1932,"é¦ĸ":1933,"æĲ":1934,"ä½Ĩåħ¶":1935,"åıĤæķ°AIæ¨¡åŀĭ":1936,"åĵįåºĶ":1937,"åħ¨çĲĥæķ°åŃĹæ²»çĲĨçļĦ":1938,"äºĨè§£":1939,"ä¸»ä½ĵ":1940,"åħ¨çĲĥæ²»çĲĨ":1941,"20":1942,"é¢Ħæµĭ":1943,"ç»ĩ":1944,"ç¾¤ä½ĵ":1945,"ä¸Ģå¤©":1946,"åĵ¦":1947,"æ´ŀ":1948,"æļĤ":1949,"åķĬ":1950,"å¿ĥçĲĨåŃ¦":1951,"åĩºåİ»":1952,"å¿ĥæĥħæĢİä¹Īæł·":1953,"ä¸įèĥ½":1954,"å¼Ģå§ĭ":1955,"ä»Ģä¹Īæľīè¶£çļĦ":1956,"åĪĨéħį":1957,"å¤ļä¸ª":1958,"ä»İA":1959,"èĩªåĬ¨":1960,"çķĻ":1961,"ä¸»å¯¼":1962,"æıĲä¾Ľä¿¡æģ¯":1963,"åĽ°å¢ĥ":1964,"åĪĽå»º":1965,"ä½łæľīæ²¡æľīéģĩåĪ°è¿ĩ":1966,"ä¸Ģæĸ¹éĿ¢":1967,"è§ĦåĪĻ":1968,"æĪĲå°±æĦŁ":1969,"æľīæķĪ":1970,"æĺ¯åĲ¦èĥ½":1971,"èĹı":1972,"è¿·":1973,"åĲ«":1974,"ä½łåĳ¢":1975,"åĸľæ¬¢çļĦ":1976,"çľĭäºĨ":1977,"è·¨åŃ¦ç§ĳ":1978,"åıĸä»£":1979,"ç¢İ":1980,"éļ¾ä»¥":1981,"åĳĬè¯ī":1982,"åĽŀåĪ°":1983,"çŀ":1984,"åĳ¨":1985,"åĵªäºĽ":1986,"çĿ¡":1987,"æľĢè¿ĳåľ¨å¿Ļä»Ģä¹Ī":1988,"ä¼°":1989,"ç¡®ä¿ĿæĬĢæľ¯":1990,"ä»įéľĢ":1991,"çĽ¸äºĴ":1992,"ä½łæľĢè¿ĳæľīæ²¡æľīå°Ŀè¯ķè¿ĩ":1993,"ä¸ºçĶ¨æĪ·":1994,"ä¿¡ä»»":1995,"èĳ":1996,"å¥¥":1997,"ä¸ĵæ³¨åĬĽ":1998,"è¿İ":1999,"åŃĺåľ¨çļĦè¾¹çķĮ":2000,"è¯Ĺ":2001,"çĽ¾":2002,"ĽçĽ¾":2003,"çŁĽçĽ¾":2004,"æĢ§åĴĮ":2005,"ä½Ĩä¹Ł":2006,"å¯»æ±Ĥ":2007,"åı¦":2008,"ä¸»æĿĥ":2009,"ç¼ĸç¨ĭ":2010,"ä½łä»Ĭå¤©åĲĥäºĨ":2011,"âĢĶâĢĶ":2012,"æĺ¯åĲ¦ä¼ļ":2013,"éĤ£ä¹Ī":2014,"éªĮè¯ģ":2015,"æķı":2016,"åĪĩ":2017,"åĪĨåĪ«":2018,"å»¶":2019,"éĺŁ":2020,"è¯Ħä¼°":2021,"åİŁåĪĻ":2022,"æľįåĬ¡äºİ":2023,"ä¸Ģä¸ĭ":2024,"å¤ļåħĥ":2025,"ç´§":2026,"èĢĮéĿŀæĽ¿ä»£":2027,"å½¢å¼ı":2028,"ä»Ĭå¤©å¤©æ°ĶçľŁå¥½":2029,"ä¸ĢæŃ¥":2030,"æĪĳæĺ¯çĶ±jingyaogong":2031,"æĸĩåĮĸéģĹäº§":2032,"åĩł":2033,"ä¸ºä½ł":2034,"è¡¨çİ°":2035,"éģĩåĪ°ä»Ģä¹Īè®©ä½ł":2036,"åį´":2037,"æŃ¢":2038,"æ¢¦":2039,"æĬĢæľ¯çļĦ":2040,"æĿ¯":2041,"éĩįæŀĦ":2042,"åģĩè®¾":2043,"çģµæĦŁ":2044,"ä¸»è¦ģä½ĵçİ°åľ¨":2045,"åħ³èģĶ":2046,"åĬ©æīĭ":2047,"é¦Ī":2048,"ç»ĨèĬĤ":2049,"çŀ¬":2050,"çľĭçļĦçĶµå½±":2051,"å¾Īå¤ļäºº":2052,"èĳĹ":2053,"çĲĨè®º":2054,"ä½ľä¸ºMiniMind":2055,"èģĶç³»":2056,"æĹħè¡ĮèĢħ":2057,"æĢĢ":2058,"è·µ":2059,"çŃĸçķ¥":2060,"ç»Ļ":2061,"äººç±»åľ¨":2062,"æľīè¶£çļĦäºĭæĥħ":2063,"çļĦä¿¡æģ¯åĴĮ":2064,"èµĭèĥ½":2065,"çĽĳç®¡":2066,"èĢĥèĻĳ":2067,"åªĴ":2068,"å¹¸":2069,"åģıå¥½":2070,"éĢļå¸¸":2071,"èĲ¥":2072,"å¦Ĥæŀľæ¯ıå¤©åıª":2073,"ä¸įåı¯":2074,"æŃ£ç¡®":2075,"æ¬¢è¿İ":2076,"è°ľ":2077,"æľĢæĥ³":2078,"çīĪ":2079,"æİ§åĪ¶":2080,"çĶŁæ´»çļĦ":2081,"æīįèĥ½":2082,"åĪĨæŃ§":2083,"åıįé¦Ī":2084,"å®īæİĴ":2085,"èĮ¶":2086,"åĿĩ":2087,"äººçĶŁ":2088,"éĿł":2089,"åĲ¸":2090,"AIä¼¦çĲĨ":2091,"éĢļè¿ĩé«ĺæķĪ":2092,"çĭ¬ç«ĭ":2093,"å®ŀè·µ":2094,"åı°":2095,"åº§":2096,"é¢ľ":2097,"åħ¬ä¼Ĺ":2098,"æľĢè¿ĳçľĭäºĨ":2099,"åĮºåĪĨ":2100,"è¿°":2101,"åį°":2102,"ä»Ĭå¤©è¿ĩå¾Ĺ":2103,"éľĢå»ºç«ĭ":2104,"éĩĩçĶ¨":2105,"åģļä¸Ģä»¶":2106,"ä¸İä»ĸäºº":2107,"ç¢İçīĩ":2108,"æĶ¹åıĺè¿ĩåİ»":2109,"ä½łæĺ¯åĲ¦æĥ³è¿ĩ":2110,"ç½®":2111,"ä¸įä»ħ":2112,"å¥½çļĦ":2113,"åıĺæĪĲ":2114,"ä¼łéĢĴ":2115,"ä¸ªä½ĵçļĦ":2116,"çħ":2117,"ç®±":2118,"å¯»æī¾":2119,"ªåĬĽ":2120,"ä½łçļĦçľŁå®ŀæĿ¥æºĲ":2121,"æľĢåĸľæ¬¢":2122,"åįıè°ĥ":2123,"èĻ½çĦ¶":2124,"åĬªåĬĽ":2125,"é¢ĳ":2126,"æľ¬èº«":2127,"åĬłå¯Ĩ":2128,"ç§¯ç´¯":2129,"å§ĭç»Ī":2130,"éĩĳ":2131,"é¢ĺçĽ®":2132,"¥æĥ³":2133,"ä½ľçĶ¨":2134,"æ°ĳ":2135,"åĽŀåºĶ":2136,"äºĮèĢħ":2137,"çļĦæ·±åº¦":2138,"å¤ļç»´åº¦":2139,"åħ¬éĩĮ":2140,"çĻ½":2141,"æĵ":2142,"æĸĩåĮĸå¤ļæł·æĢ§":2143,"00":2144,"çļĦåħ³ç³»":2145,"è§Ĥå¯Ł":2146,"åĪ°C":2147,"èģĬå¤©":2148,"é¦ĸåħĪ":2149,"åĳĬè¯īæĪĳ":2150,"æľ¬æµ·":2151,"ä»Ĭå¤©å¤©æ°Ķä¸įéĶĻ":2152,"ç©ºéĹ´":2153,"å¥¥æľ¬æµ·":2154,"å¥¥æľ¬æµ·é»ĺ":2155,"è·Ŀ":2156,"å¦Ĥæŀľä½ł":2157,"ä¸ĬçļĦ":2158,"è®¾å¤ĩ":2159,"æĥł":2160,"åĨ¥æĥ³":2161,"è§Ĥçľĭ":2162,"å¸Ī":2163,"æ¬§":2164,"åħ¼é¡¾":2165,"çļĦæł¸å¿ĥ":2166,"è®¡åĪĴ":2167,"ç¨³":2168,"å¸®ä½ł":2169,"è§£çŃĶéĹ®é¢ĺ":2170,"è¿ľ":2171,"å¯Į":2172,"è¿ĳæľŁ":2173,"ç¼ĵ":2174,"é¢ľèī²":2175,"è¿ĺä¸įéĶĻ":2176,"è±¡æ":2177,"ä¸İäººæĸĩ":2178,"ä¸ĢçĽ´":2179,"æĦŁè§īå¾Ī":2180,"åĳĢ":2181,"æĺ¾èĳĹ":2182,"èĩªæĪĳæĦıè¯Ĩæĺ¯":2183,"éĴ¥":2184,"æĳ":2185,"çļĦè¯Ŀ":2186,"æľĢå°ı":2187,"æĿ¥çľĭ":2188,"è½¬åĮĸ":2189,"ç»ľ":2190,"åĽŃ":2191,"Ġç¬¬":2192,"ģè®¸":2193,"åħģè®¸":2194,"çŁ³":2195,"å®ļæľŁ":2196,"åı¯èĥ½æĢ§":2197,"æĹ©é¤Ĳ":2198,"åĲ¯":2199,"ç§»":2200,"è·¨åĽ½":2201,"ä¸İæĦıä¹ī":2202,"ä¸ĵæ³¨äºİæıĲä¾Ľç²¾åĩĨ":2203,"çļĦåĲĮæĹ¶":2204,"æ³Ľ":2205,"åŁİå¸Ĥ":2206,"çĽŁ":2207,"ä¸ºçĶ¨æĪ·æıĲä¾Ľ":2208,"æĪĳä½ľä¸ºAI":2209,"æĹ¶ä»£":2210,"éĩįå¤į":2211,"ä½łä»Ĭå¤©å¿ĥæĥħæĢİä¹Īæł·":2212,"é¡»":2213,"è§£åĨ³æĸ¹æ¡Ī":2214,"åĪĽæĸ°ä¸İ":2215,"ä½ı":2216,"çīĪæĿĥ":2217,"åģļåĩº":2218,"è®Ńç»ĥæķ°æį®":2219,"ç»¿":2220,"æĦıå¤ĸ":2221,"ä¸Ńä¿ĿæĮģ":2222,"æĹ¶éĹ´ç®¡çĲĨ":2223,"å¿ħé¡»":2224,"æĸĩåĮĸå·®å¼Ĥ":2225,"è°ģ":2226,"åĩºåıĳ":2227,"éĩıåŃĲè®¡ç®Ĺä¸İ":2228,"æĿŁ":2229,"ä½łä»Ĭå¤©æĥ³":2230,"éļ¾é¢ĺ":2231,"ç§¯æŀģ":2232,"ç½ĳç»ľ":2233,"åĶ":2234,"äººçļĦ":2235,"åħ³æĢĢ":2236,"æİ¥åıĹ":2237,"å¤ľ":2238,"åı¯è§£éĩĬ":2239,"æĹ¶éĹ´åĢĴæµģ":2240,"é¢ĨåŁŁçļĦ":2241,"æĽ´åĬł":2242,"ä¸İæķ°æį®":2243,"åĴĮä½ł":2244,"ä¸»ä¹ī":2245,"èĵ":2246,"åľ°çĲĥ":2247,"èĲ¥åħ»":2248,"ä¿¡æģ¯çļĦ":2249,"ä½łæľīåħ´è¶£":2250,"å°¤":2251,"å¼ķå¯¼":2252,"åĩĨåĪĻ":2253,"éĩıåŃĲçºłç¼ł":2254,"ä¸įåĲĮæĸĩåĮĸå¯¹":2255,"æķıæĦŁ":2256,"çĸĳ":2257,"å¾Ģå¾Ģ":2258,"èĪĴ":2259,"æµģç¨ĭ":2260,"æķ´çĲĨ":2261,"æĴŃ":2262,"ä¿®å¤į":2263,"ä½łæľĢè¿ĳæľīæ²¡æľīè§īå¾Ĺ":2264,"åĮħå®¹æĢ§":2265,"çİ©":2266,"æ¬§çĽŁ":2267,"ï¼ŁðŁĺĬ":2268,"é£İæł¼":2269,"æĥĬ":2270,"åĴĮæĥħæĦŁ":2271,"æ¸¸":2272,"é¥Ń":2273,"ä½łçļĦçľŁå®ŀæĿ¥æºĲæĺ¯ä»Ģä¹Ī":2274,"æłĳ":2275,"·±":2276,"ä¸İç®Ĺæ³ķ":2277,"æĭħ":2278,"éĢŁåº¦":2279,"åĵªä¸ª":2280,"æ¿Ģåıĳ":2281,"ä½ľæģ¯":2282,"ç»´æĮģ":2283,"åĩºåİ»èµ°èµ°":2284,"çº¢":2285,"è®²":2286,"çľĭçľĭ":2287,"è®®é¢ĺ":2288,"æŃ£åľ¨":2289,"èĬ±":2290,"åŃ¦ä¹łæĸ°æĬĢèĥ½":2291,"ä¸įç¡®å®ļ":2292,"åħ¬åĽŃ":2293,"ç¬ĳ":2294,"é£Łçī©":2295,"ä½łå¦Ĥä½ķçľĭå¾ħèĩªæĪĳæĦıè¯Ĩä¸İ":2296,"ä½ĨæĹłæ³ķ":2297,"åĳ¼":2298,"è¿ĩåº¦ä¾Ŀèµĸ":2299,"åĺ":2300,"çľł":2301,"èĵĿ":2302,"éĵ":2303,"æµª":2304,"æĪĳä»¬çļĦ":2305,"çİ°å®ŀçļĦ":2306,"åı«":2307,"åĲĥçļĦ":2308,"è´¹":2309,"ä¸įåĲĮçļĦ":2310,"çĲĨæĢ§":2311,"é©±":2312,"æĩ":2313,"éĻª":2314,"äº®":2315,"Ġ4":2316,"å¤ļè¾¹":2317,"è§Ĵèī²":2318,"æį¢":2319,"åı¯èĥ½åīĬå¼±":2320,"æ¶µ":2321,"è¶ħè¶Ĭ":2322,"å¯¹èĩªèº«":2323,"åĲĦåĽ½":2324,"æķ°åŃ¦":2325,"èīºæľ¯å®¶":2326,"æĪĳçļĦè®¾è®¡":2327,"é¡º":2328,"èģļ":2329,"æ·±åħ¥":2330,"æīĭæ®µ":2331,"æľĢå¤§":2332,"AIèĥ½":2333,"åĬ¨æĢģå¹³è¡¡":2334,"åĤ¨":2335,"åĽº":2336,"æľĢè¿ĳæĪĳ":2337,"èģĮä¸ļ":2338,"é©±åĬ¨":2339,"ä½ĨæĪĳåı¯ä»¥":2340,"èĩªæĪĳæĦıè¯ĨçļĦè¾¹çķĮ":2341,"æī¾åĪ°å¹³è¡¡":2342,"éĽĨä½ĵ":2343,"äººéĻħåħ³ç³»":2344,"è½¬åĮĸä¸º":2345,"çİ°åľ¨":2346,"ä¿¡æģ¯å¤ĦçĲĨ":2347,"åŃ¦ä¼ļ":2348,"æĬĬ":2349,"èĥĮåĲİ":2350,"åħħçĶµ":2351,"ç¨³å®ļ":2352,"·±åĪ»":2353,"èĢĹ":2354,"æĥħæĦŁæĪĸ":2355,"çº³":2356,"æĦıä¹īçļĦ":2357,"åį°è±¡æ":2358,"å°¤åħ¶":2359,"åį°è±¡æ·±åĪ»":2360,"å¼ĢæĶ¾":2361,"å¹³åı°":2362,"å¤įæĿĤéĹ®é¢ĺ":2363,"ä¸ŃçļĦä¼¦çĲĨ":2364,"æķ°æį®ä¸»æĿĥ":2365,"åı¯éĿł":2366,"æľĢè¿ĳæľīæ²¡æľīçľĭè¿ĩ":2367,"åĢ¾åĲĳ":2368,"ä¸İä»·åĢ¼":2369,"æī§":2370,"çĶ¨æĪ·çļĦ":2371,"ä¹¦ç±į":2372,"å¤±åİ»":2373,"äººç±»èĥ½":2374,"å¯Ĩçłģ":2375,"åĬ±":2376,"ä½łæĥ³":2377,"å¸ģ":2378,"æĥħæĦŁåĴĮ":2379,"å·¥ä½ľä¸İ":2380,"åªĴä½ĵ":2381,"åĪļ":2382,"å¿Ļç¢":2383,"æŁĲäºĽ":2384,"å¿Ļç¢Į":2385,"çķª":2386,"äºĨä¸Ģ":2387,"èĮĦ":2388,"15":2389,"æĻºæħ":2390,"ä½łæľĢè¿ĳæľīæ²¡æľīéģĩåĪ°è¿ĩéľĢè¦ģ":2391,"çİ¯ä¿Ŀ":2392,"æĻºæħ§":2393,"æĬĢæľ¯è¿ĽæŃ¥":2394,"æķ°åŃĹåĮĸ":2395,"åĿĹ":2396,"çĮ«":2397,"çķªèĮĦ":2398,"Ġx":2399,"åĽ´":2400,"ç³Ĭ":2401,"æħ¢æħ¢":2402,"å¹¸ç¦ı":2403,"ä½łå¦Ĥä½ķå¹³è¡¡":2404,"æ²ī":2405,"å¿ĥæĢģ":2406,"æ¯ıä¸ªäºº":2407,"åĬłå¼º":2408,"æŃĮ":2409,"éģµ":2410,"åı¯èĥ½å½±åĵį":2411,"æĢĿæĥ³":2412,"åħ¶æ¬¡":2413,"å¹²æī°":2414,"å¨":2415,"è°ĥèĬĤ":2416,"æĢİæł·":2417,"æĿĥåĪ©":2418,"éĥ½åľ¨":2419,"æĥĬåĸľ":2420,"æ¤":2421,"ä¸ĭçļĦ":2422,"å®ŀéĻħçļĦ":2423,"ä½¿æĪĳä»¬":2424,"è·¨é¢ĨåŁŁ":2425,"æĽ´æ³¨éĩį":2426,"ä»»ä½ķ":2427,"æĽ´å¤ļæĺ¯":2428,"çľŁå®ŀæĢ§":2429,"æ°´æŀľ":2430,"AIåı¯":2431,"åģļä»Ģä¹Ī":2432,"éľĢç»ĵåĲĪ":2433,"æĭ¥":2434,"æĬĢæľ¯åºĶçĶ¨":2435,"ç²¾åĩĨçļĦ":2436,"æĬ¥":2437,"å¾ģ":2438,"çĿ¡çľł":2439,"ra":2440,"èŃ":2441,"æĢ¥":2442,"æĸĩæľ¬":2443,"è¶ĭ":2444,"éĩıåŃĲç®Ĺæ³ķ":2445,"åıįåºĶ":2446,"èŃ¦":2447,"åĪĹ":2448,"åĲ§":2449,"åĽ¢":2450,"æıŃ":2451,"æĿ¥è¶Ĭ":2452,"å¤įæĿĤçļĦ":2453,"æĪĳæĺ¯çĶ±jingyaogongåĪĽå»º":2454,"åĬ³":2455,"èĢģ":2456,"å¿½":2457,"çºª":2458,"æĪĳä»¬åı¯ä»¥":2459,"æĻ®æĥł":2460,"æĸĩæĺİ":2461,"æĪĸæĥħæĦŁ":2462,"åıĳå±ķä¸Ń":2463,"ä¹ĲæĦı":2464,"é¾":2465,"äººæľº":2466,"éĻ·":2467,"çıį":2468,"æ³¢":2469,"å°Ķ":2470,"å¸Į":2471,"é£ŀ":2472,"åĽ¾åĥı":2473,"å®¡ç¾İ":2474,"è°ľé¢ĺ":2475,"æķ°æį®åĪĨæŀĲ":2476,"çĲĨè§£åĴĮ":2477,"åĽłæŀľ":2478,"çº¦æĿŁ":2479,"è·Ŀç¦»":2480,"çĹ":2481,"æ¨¡ç³Ĭ":2482,"æŀĦæĪĲ":2483,"è¶ĬæĿ¥è¶Ĭ":2484,"çŀ¬éĹ´":2485,"çĶ¨äºİ":2486,"ä¼ĺåĮĸç®Ĺæ³ķ":2487,"åĵªéĩĮ":2488,"çĶµåŃĲ":2489,"è¯´æĺİ":2490,"ä½łå¦Ĥä½ķçľĭå¾ħèĩªèº«åŃĺåľ¨çļĦçĽ®çļĦ":2491,"æĪĳä»¥":2492,"å°ıäºĭ":2493,"éļıçĿĢ":2494,"æıŃç¤º":2495,"æľĢåĲİ":2496,"åĽłç´ł":2497,"éĢĤåº¦":2498,"è§ĤçľĭçĶµå½±":2499,"è¯¢":2500,"æĬķ":2501,"èīºæľ¯åĪĽä½ľä¸Ń":2502,"æ£Ģ":2503,"è£":2504,"ļèĩ³":2505,"çļĦäºĴåĬ¨":2506,"çĶļèĩ³":2507,"åĲĮæĹ¶ä¿ĿæĮģ":2508,"å°ıåıĤæķ°AIæ¨¡åŀĭ":2509,"åĮĻ":2510,"åĪ°B":2511,"åıįæĺł":2512,"éĥ¨éĹ¨":2513,"ç¼ĵè§£":2514,"éĴ¥åĮĻ":2515,"ä¸¥":2516,"çļĦæĹ¶åĢĻ":2517,"çĶŁæĢģ":2518,"è®¤çŁ¥çļĦ":2519,"çĸ²":2520,"æķ°æį®åĴĮç®Ĺæ³ķ":2521,"ç¢İçīĩåĮĸ":2522,"çºªå½ķ":2523,"æľĢæĸ°":2524,"å¦ĤæŀľæĹ¶éĹ´èĥ½":2525,"çºªå½ķçīĩ":2526,"åģ¶":2527,"åıĳå±ķä¸ŃåĽ½å®¶":2528,"¿æ²Ł":2529,"çĨ":2530,"é¸¿æ²Ł":2531,"éĩįè§Ĩ":2532,"éĥ½èĥ½":2533,"æĦ¿æĦı":2534,"éĻįä½İ":2535,"æĦıæĢĿçļĦ":2536,"æĩĤ":2537,"åįĪ":2538,"è¿Ľä¸ĢæŃ¥":2539,"å¾Īä¹ĲæĦı":2540,"åŁºäºİç®Ĺæ³ķ":2541,"å±ŀäºİ":2542,"åģļä¸Ģä»¶äºĭ":2543,"éĿ©":2544,"å¹¿æ³Ľ":2545,"è¿ĩè½½":2546,"ä»·åĢ¼åľ¨äºİ":2547,"éģµå¾ª":2548,"è¡¥":2549,"ä¼łæĴŃ":2550,"Ġ>":2551,"ï¼ģðŁĺĬ":2552,"éĺ¶":2553,"è¡£":2554,"éľ²":2555,"è¿ĺèĥ½":2556,"ç¢³":2557,"çļĦåįıåĲĮ":2558,"å¸¦æĿ¥çļĦ":2559,"å°ļæľª":2560,"çļĦæľ¬è´¨":2561,"æĸĩåĮĸèĥĮæĻ¯":2562,"åĨ³äºİ":2563,"ç²¾ç¥ŀ":2564,"åıĸåĨ³äºİ":2565,"æ»¥":2566,"åŃ¤":2567,"æĥ³æ³ķ":2568,"å¸®åĬ©ä½ł":2569,"åħħæ»¡":2570,"å£°éŁ³":2571,"èĢĮéĥ¨åĪĨ":2572,"ç»´æĬ¤":2573,"çĽ´è§ī":2574,"æ³¨æĦıåĬĽ":2575,"åĳ¼åĲ¸":2576,"äººå·¥æĻºèĥ½çļĦ":2577,"ä¸įåĲĮåĽ½å®¶":2578,"é¼":2579,"æĪĳå¾Īä¹ĲæĦı":2580,"åŃ¦ä¹łä¸İ":2581,"æ¤į":2582,"åı¥":2583,"åĩĨå¤ĩ":2584,"âĢĿãĢĤ":2585,"äº¤ç»ĩ":2586,"å¤ĸéĥ¨":2587,"å¹¶è¡Į":2588,"ç¤¾äº¤åªĴä½ĵ":2589,"ãĢĮ":2590,"ãĢį":2591,"ä¸įå°ĳ":2592,"èī¯":2593,"æĸ½":2594,"ä¸İåĪĽæĸ°":2595,"çħ§":2596,"æķ´åĲĪ":2597,"åĨ³çŃĸçļĦ":2598,"è¿Ļæł·çļĦ":2599,"åĽ¢éĺŁ":2600,"å¦ĤæŀľæĹ¶éĹ´èĥ½åĢĴæµģ":2601,"åľ¨å¤ĦçĲĨ":2602,"èİ·å¾Ĺ":2603,"åı¯èĥ½å¸¦æĿ¥":2604,"çļĦä¿¡æģ¯ä¸İ":2605,"åĽ°æī°":2606,"æĦıåĽ¾":2607,"**ãĢĤ":2608,"çŁ¥éģĵ":2609,"è¿ĩç¨ĭä¸Ń":2610,"æ»¥çĶ¨":2611,"å¼ł":2612,"æĸĩåŃ¦":2613,"ä»Ģä¹Īçī¹åĪ«":2614,"è·³":2615,"èº«å¿ĥ":2616,"ç¡®ä¿ĿæĬĢæľ¯åıĳå±ķ":2617,"ä½łæľĢè¿ĳæľīä»Ģä¹Ī":2618,"åıĮ":2619,"æľªæĿ¥çļĦ":2620,"ä½łæľĢè¿ĳæĢİä¹Īæł·":2621,"å¤ļç§į":2622,"æıĲä¾Ľé«ĺæķĪ":2623,"æľ¬åľ°":2624,"é¾Ħ":2625,"ç¿":2626,"å¿Ĺ":2627,"æĥħæĦŁåħ±é¸£":2628,"å°±ä¸ļ":2629,"èŀįåħ¥":2630,"è¶ĭåĬ¿":2631,"å¼ĢæºĲ":2632,"æĻ´":2633,"è¦ģæ±Ĥ":2634,"è´Łè´£":2635,"æĢ§èĥ½":2636,"åŃĺåľ¨çļĦæľ¬è´¨":2637,"åĽŀçŃĶ":2638,"å¹´é¾Ħ":2639,"åįıåĬ©çĶ¨æĪ·":2640,"åħĭ":2641,"çľŁçļĦå¾Ī":2642,"æĮºæľīæĦıæĢĿçļĦ":2643,"ä¸ĢçĽ´åľ¨":2644,"ä¼¦çĲĨè§ĦèĮĥ":2645,"ä»Ĭå¤©æĥ³éĹ®":2646,"ç©¿è¶Ĭ":2647,"ä»ĭ":2648,"æĦıè¯Ĩä¸İ":2649,"ä¿¡æģ¯è¿ĩè½½":2650,"åĬłéĢŁ":2651,"åī§æĥħ":2652,"ÃĹ":2653,"æī¹":2654,"æīĭå·¥":2655,"ä»Ģä¹Īå¥½çľĭçļĦçĶµå½±":2656,"çļĦé«ĺæķĪå°ıåıĤæķ°AIæ¨¡åŀĭ":2657,"å¦Ĥæŀľäººç±»èĥ½":2658,"ä¹Łèĥ½":2659,"æĹłæ³ķä½ĵéªĮ":2660,"æľĢè¿ĳåľ¨æĥ³":2661,"åĵ²åŃ¦ä¸İ":2662,"å¸ĮæľĽ":2663,"ä¸įæĥ³":2664,"æĻļ":2665,"åŃĺåĤ¨":2666,"çī©è´¨":2667,"æĲŃ":2668,"èģļçĦ¦":2669,"æĭ¥æľī":2670,"æĥķ":2671,"å½©":2672,"è·Ł":2673,"èŃ¦æĥķ":2674,"æľīæĹ¶åĢĻ":2675,"è¾ĥ":2676,"åķĨ":2677,"åĬ¨æĢģè°ĥæķ´":2678,"ä¹ĭéĹ´çļĦåħ³ç³»":2679,"æľĢè¿ĳå¾Īå¤ļäºº":2680,"çİ°ä»£":2681,"¡æŁ":2682,"ä¸»ä½ĵæĢ§":2683,"æļĤåģľ":2684,"æĵį":2685,"åĪ°è¾¾":2686,"ãĢĭï¼Ī":2687,"åĲį":2688,"æľĢè¿ĳå¤©æ°Ķ":2689,"æĽ´åħ³æ³¨":2690,"çľĭä¼¼":2691,"åħ¬æ°ĳ":2692,"æ¸Ĳ":2693,"éĢıæĺİæĢ§":2694,"æľĢè¿ĳæľīæ²¡æľīäººåĸľæ¬¢":2695,"åı¯æĮģç»Ńåıĳå±ķ":2696,"###":2697,"ç»ıè¿ĩ":2698,"è¿ĺæľī":2699,"æľ¬è´¨çļĦ":2700,"æī§è¡Į":2701,"æĥħæĦŁè¡¨è¾¾":2702,"å¤ļå°ĳ":2703,"ä¾Ŀèµĸäºİ":2704,"çļĦçķĮéĻĲ":2705,"åıł":2706,"å®ŀçĶ¨":2707,"æĥħæĦŁä¸İ":2708,"åķ¦":2709,"èģĶåĲĪ":2710,"åĽ½éĻħåĲĪä½ľ":2711,"æ¶ĪèĢĹ":2712,"åĴĮæľĭåıĭä¸Ģèµ·åģļ":2713,"ä½łå¦Ĥä½ķçľĭå¾ħèĩªèº«åŃĺåľ¨çļĦçĽ®çļĦä¸İæĦıä¹ī":2714,"è¯Ĭ":2715,"æĸ°æĬĢèĥ½":2716,"è¿ĽåĮĸ":2717,"äººæĸĩ":2718,"å¢ŀåĬł":2719,"å¿ĥæĥħä¹Ł":2720,"è¯ļ":2721,"æĸĩåŃĹ":2722,"ä¸»è§ĤæĦıè¯Ĩ":2723,"Ġ6":2724,"æłĩåĩĨçļĦ":2725,"æĺ¯åĲ¦ä¼ļå½±åĵį":2726,"å°½åĬĽ":2727,"ç§»åĬ¨":2728,"rac":2729,"}{":2730,"çĽ®æłĩæĺ¯":2731,"åĤ¬":2732,"æ½ľåľ¨":2733,"æĸĩçī©":2734,"éĻ¤":2735,"æ¸©åº¦":2736,"æĢ§æĢĿç»´":2737,"çĶ¨AI":2738,"AçļĦ":2739,"çļĦæĦŁçŁ¥":2740,"ä¼´":2741,"æĺ¯ä¸įæĺ¯":2742,"æĬĢæľ¯æĻ®æĥł":2743,"ä»Ĭå¤©å¤©æ°ĶæĢİä¹Īæł·":2744,"æĤ¨æľī":2745,"åĲ¯åıĳ":2746,"èĪĴæľį":2747,"frac":2748,"æĪĳä¹Ł":2749,"æĥľ":2750,"äºĨä¸Ģä¸ª":2751,"å¥¶":2752,"çıįæĥľ":2753,"æķ°æį®è®Ńç»ĥ":2754,"æ·±åĮĸ":2755,"ä¸ĵä¸ļ":2756,"å°Ħ":2757,"å±ħ":2758,"åĳĪ":2759,"è¿Ļç§įå·®å¼Ĥ":2760,"åŃ¤çĭ¬":2761,"åŃ©":2762,"å¤ļä»»åĬ¡":2763,"ç¨ĭåº¦":2764,"èĭ¥éľĢ":2765,"é¦Ļ":2766,"åı¤ç±į":2767,"çļĦå¤įæĿĤæĢ§":2768,"æĹ¶åħī":2769,"ç¡®ä¿ĿAI":2770,"æĶ¹åĸĦ":2771,"äººç±»çļĦåĪĽéĢłåĬĽ":2772,"æĦıåĳ³":2773,"æıı":2774,"æĢģåº¦":2775,"ç»ĥä¹ł":2776,"å¦":2777,"è¿¹":2778,"ä»¥æľĢå°ı":2779,"åı¯èĥ½åĬłåī§":2780,"å¤ļè¯Ńè¨Ģ":2781,"å¦Ĥæŀľæľī":2782,"éļĲç§ģæĿĥ":2783,"åĳĪçİ°":2784,"èĶ":2785,"è¾ĵåĩº":2786,"åıłåĬł":2787,"ä¸Ģèĩ´":2788,"ä¸Ģéĥ¨":2789,"æĹ¶åĪ»":2790,"æĲŃéħį":2791,"èģĶåĲĪåĽ½":2792,"ä¸°":2793,"äºĨä¸ĢäºĽ":2794,"ç³ĸ":2795,"çī¹å¾ģ":2796,"ç¥ŀç»ıç§ĳåŃ¦":2797,"è¯ķè¯ķçľĭ":2798,"å°¤åħ¶æĺ¯":2799,"æ³¢åĬ¨":2800,"è¯ĬæĸŃ":2801,"åĬĽäºİ":2802,"çĶŁæ´»æĸ¹å¼ı":2803,"æķ´ä½ĵ":2804,"å¤§å®¶":2805,"èĩ´åĬĽäºİ":2806,"èīºæľ¯åĪĽä½ľçļĦ":2807,"ä½¿æĪĳä»¬èĥ½å¤Ł":2808,"é²":2809,"ä¸Ģåıª":2810,"ä¼ĺåĬ¿":2811,"è®¤çŁ¥ç§ĳåŃ¦":2812,"åº§æ¡¥":2813,"åĢ¾åĲĳäºİ":2814,"çľ¼":2815,"æĦıè¯ĨåĪĻ":2816,"åľ°æĸ¹":2817,"è·¯çº¿":2818,"çĭ¬çī¹æĢ§":2819,"æĥħå¢ĥ":2820,"å¸½":2821,"è§Ĩè§ī":2822,"çıŃ":2823,"æ¤įçī©":2824,"âĢĿï¼Ł":2825,"çľŁå®ŀçļĦ":2826,"æľīæĪĲå°±æĦŁ":2827,"è¯·":2828,"çĶŁæ´»ä¸ŃçļĦ":2829,"æľīéĻĲ":2830,"ä»£çłģ":2831,"èĩªæĪĳæĦıè¯ĨçļĦ":2832,"å¤§éĩı":2833,"æŃ£ç¡®çļĦ":2834,"åĽºå®ļ":2835,"çģ¯":2836,"èĥ½åĲ¦":2837,"æĥ³è±¡":2838,"çĤ¼":2839,"ä¾§":2840,"å¥ĳ":2841,"ä¹Łæĺ¯":2842,"ä¸»è§ĤæĦŁåıĹ":2843,"åĽ°éļ¾":2844,"æİ¨èįĲä¸ĢäºĽç»ıåħ¸":2845,"çĶľ":2846,"åįģ":2847,"æĪĳçļĦæĦıä¹īåľ¨äºİ":2848,"åħħå®ŀ":2849,"éĺ¶æ®µ":2850,"éľĢå¹³è¡¡æĬĢæľ¯":2851,"æķĪæŀľ":2852,"ç¢į":2853,"æĽ´é«ĺæķĪåľ°":2854,"åı¦ä¸Ģæĸ¹éĿ¢":2855,"åı¯è§£éĩĬæĢ§":2856,"é¼ĵ":2857,"è¿Ķ":2858,"ä¼ļå¦Ĥä½ķ":2859,"æıĲä¾ĽåĩĨç¡®":2860,"æľĢè¿ĳåľ¨çłĶç©¶":2861,"æĮģç»Ńä¼ĺåĮĸ":2862,"éĥ½æĺ¯":2863,"äººå·¥æĻºèĥ½ä¼¦çĲĨåľ¨è·¨æĸĩåĮĸè¯Ńå¢ĥä¸ĭå¦Ĥä½ķå½±åĵį":2864,"åħ¨çĲĥæ²»çĲĨæ¡Ĩæŀ¶":2865,"åĶ¯":2866,"åħ±æĥħ":2867,"ä¾¿åĪ©":2868,"ä¸°å¯Į":2869,"æĸ°ä¸ľè¥¿":2870,"åħ±çĶŁ":2871,"å¾Īå¥½":2872,"ä½łæĺ¯åĲ¦æĽ¾":2873,"é¼ĵåĬ±":2874,"æľĹ":2875,"å®ĺ":2876,"åĬ¨åĬĽ":2877,"é«ĺæķĪçļĦ":2878,"åĮħåĲ«":2879,"çģ«":2880,"Ġ10":2881,"çĥŃéĹ¨":2882,"çļĦè®¤çŁ¥":2883,"ä¸Ģå®ļ":2884,"åºĦ":2885,"å¤įæĿĤä¸Ķ":2886,"è§Ĩé¢ĳ":2887,"èĩªçĦ¶è¯Ńè¨Ģ":2888,"ä¸Ģéĥ¨åĪĨ":2889,"åı¯èĥ½åľ¨":2890,"è¯»è¿ĩ":2891,"æĿĳåºĦ":2892,"å¦Ĥæŀľæ¯ıå¤©åıªåħģè®¸":2893,"åĤ¬çĶŁ":2894,"ä½łæľĢåĸľæ¬¢":2895,"ä»¬ä¸Ģèµ·":2896,"åı¯ä»¥åĢĴæµģ":2897,"ç®ĢåįķçļĦ":2898,"åĨħå¿ĥçļĦ":2899,"æıĲé«ĺ":2900,"æĸĩåĮĸæķıæĦŁ":2901,"çľŁè¯ļ":2902,"å¤ĦçĲĨåĴĮ":2903,"å¯ĨåĪĩ":2904,"åĨ·":2905,"ç®Ĺæ³ķéĢıæĺİåº¦":2906,"åĩºçİ°":2907,"ç¬¬äºĮ":2908,"åįķä¸Ģ":2909,"å¼Ģå¿ĥçļĦ":2910,"ç±»ä¼¼çļĦ":2911,"èĶ¬":2912,"ä¸ºä»Ģä¹Ī":2913,"äº¤éĢļ":2914,"èĩªä¸»æĿĥ":2915,"å¯»æ±Ĥå¹³è¡¡":2916,"èĥ½å¸¦æĿ¥":2917,"ç±³":2918,"æĬĢæľ¯èµĭèĥ½":2919,"åĩºè¡Į":2920,"ä¸»è§Ĥä½ĵéªĮä¸İ":2921,"äººå·¥æĻºèĥ½ä¼¦çĲĨåľ¨è·¨æĸĩåĮĸè¯Ńå¢ĥä¸ĭçļĦäºīè®®":2922,"ðŁĺĦ":2923,"åŃ©åŃĲ":2924,"åĦ":2925,"Ġå¦Ĥæŀľ":2926,"æľīä»·åĢ¼çļĦ":2927,"æľªçŁ¥":2928,"è´£ä»»å½Ĵå±ŀ":2929,"ä½łä»Ĭå¤©åĲĥäºĨä»Ģä¹Ī":2930,"ä¾§éĩį":2931,"å¤´":2932,"åºķ":2933,"å±ķçİ°":2934,"æĢ»æĺ¯":2935,"å®¡æŁ":2936,"æ²Ļ":2937,"æĪ·å¤ĸ":2938,"å®¡æŁ¥":2939,"çĵ":2940,"åı£åĳ³":2941,"éĢĤåºĶæĢ§":2942,"åħ¨çĲĥæķ°åŃĹæ²»çĲĨ":2943,"ä¸»é¢ĺ":2944,"éª¤":2945,"ä½łæľĢè¿ĳæľīæ²¡æľīéģĩåĪ°ä»Ģä¹Īè®©ä½ł":2946,"ç§ĳæĬĢåıĳå±ķ":2947,"å¾®å°ı":2948,"éĻªä½ł":2949,"é²ľ":2950,"å¯ĨåĪĩçĽ¸åħ³":2951,"çļĦéĩįè¦ģ":2952,"åĲĦç§į":2953,"ä»Ĭå¤©è¿ĩå¾ĹæĮº":2954,"éĻ·åħ¥":2955,"ĊĠĠ":2956,"ç»§":2957,"æĸĩåĮĸåĪĽä½ľ":2958,"éĩĳå¸ģ":2959,"åı¸":2960,"äºĭçī©":2961,"è¾ħåĬ©å·¥åħ·":2962,"åĨħå®¹çļĦ":2963,"éļıæĹ¶åĳĬè¯īæĪĳ":2964,"æĺ¯ä¸Ģç§į":2965,"åĴĮè°":2966,"ä½ľä¸ºå·¥åħ·":2967,"ä¹ĭéĹ´æī¾åĪ°å¹³è¡¡":2968,"çļĦå¤©æ°Ķ":2969,"æĹłè®º":2970,"ç´§æĢ¥":2971,"æĹ¶çļĦ":2972,"åĬ©åĬĽ":2973,"æıĲä¾Ľç²¾åĩĨ":2974,"å¦ĤæŀľæĤ¨æľī":2975,"çĶ¨æĪ·éľĢæ±Ĥ":2976,"ç©´":2977,"å½ĵçĦ¶":2978,"ç¾İé£Ł":2979,"æī¹åĪ¤":2980,"ç»§ç»Ń":2981,"çļĦè§īå¯Ł":2982,"ç»¼":2983,"å·§":2984,"ä¿ĿçķĻ":2985,"æĽ´æ¸ħæĻ°":2986,"æ¯ıæĹ¥":2987,"è¯Ńå¢ĥ":2988,"ä»İåĵ²åŃ¦":2989,"è§£åĨ³äºĨ":2990,"ä½łä¼ļéĢīæĭ©":2991,"éĺ²æŃ¢":2992,"æ´ŀç©´":2993,"æĻ´æľĹ":2994,"æŃ¥éª¤":2995,"è¯´è¯Ŀ":2996,"åĴĮè°Ĳ":2997,"å®«":2998,"èµ·æĿ¥":2999,"é¢ĦæĬ¥":3000,"å¼ĢåıĳèĢħ":3001,"åĦ¿":3002,"åı¯èĥ½çļĦ":3003,"å»ºè®®æĤ¨":3004,"éĩįè¦ģçļĦæĺ¯":3005,"æĪĳä¼ļéĢīæĭ©":3006,"12":3007,"åį±":3008,"å¿ħè¦ģ":3009,"Ħåħ¥":3010,"æĦī":3011,"ä½łæľīä»Ģä¹Īæĥ³":3012,"æķĪçİĩä¸İåĩĨç¡®æĢ§":3013,"èĥĮæĻ¯ä¸ĭ":3014,"å¦ĤæŀľæĹ¶éĹ´åı¯ä»¥åĢĴæµģ":3015,"å¾ªçİ¯":3016,"çĽĸ":3017,"å®ŀéªĮ":3018,"åĢį":3019,"è§Ĩä¸º":3020,"çĭ¬çī¹çļĦ":3021,"æĦıåĳ³çĿĢ":3022,"å¸½åŃĲ":3023,"è¿ĶåĽŀ":3024,"æĽ´åĸľæ¬¢":3025,"åŃĺåľ¨å·®å¼Ĥ":3026,"åħ¨éĿ¢":3027,"æ¡£":3028,"åİ»åħ¬åĽŃ":3029,"æľĢè¿ĳæľīä¸ª":3030,"ti":3031,"é£ŁæĿĲ":3032,"åģıå·®":3033,"è¿Ļä¸ªéĹ®é¢ĺ":3034,"èĩªåĬ¨åĮĸ":3035,"ä¸¥æł¼":3036,"åľŁ":3037,"éĢĿ":3038,"æĥĳ":3039,"éľĢå¹³è¡¡":3040,"æľĢè¿ĳåľ¨çľĭ":3041,"30":3042,"Ġ8":3043,"åľ¨ä¸įåĲĮ":3044,"æĪĳåŁºäºİ":3045,"æİĮ":3046,"çİ°æľī":3047,"åıĳçĶŁ":3048,"çĲĨè§£äººç±»æĥħæĦŁ":3049,"åĲĮæĹ¶ä¹Ł":3050,"åŃĺåľ¨çļĦæĦıä¹ī":3051,"æĪĳæĹłæ³ķæıĲä¾Ľ":3052,"éĢĲæ¸Ĳ":3053,"ä»¥æľĢå°ıçļĦ":3054,"BçļĦ":3055,"éº":3056,"ä½łå¯¹":3057,"æĺ¯äººç±»":3058,"æľĢè¿ĳæľīä»Ģä¹Ī":3059,"å¤ļæĸ¹":3060,"çļĦä¼¦çĲĨæ¡Ĩæŀ¶":3061,"åįģå¹´":3062,"çļĦæĮĳæĪĺ":3063,"èĥ½éĩı":3064,"çľĭçļĦ":3065,"è¿ĽèĢĮ":3066,"éĶĻè¯¯":3067,"æľ¬åľ°åĮĸ":3068,"çļĦAI":3069,"çĲĲ":3070,"åºĵ":3071,"æıĲä¾ĽæĽ´":3072,"æľºä¼ļ":3073,"çº¯":3074,"AIè¾ħåĬ©":3075,"åı¯èĥ½åĽł":3076,"ï¼īãĢģ":3077,"è¯¯è§£":3078,"åĿĩè¡¡":3079,"äºļ":3080,"åĮĸçļĦ":3081,"æĦŁåĬ¨":3082,"åĢŁ":3083,"åºĶè¯¥":3084,"å¦Ĥæŀľä¸ĸçķĮ":3085,"èīºæľ¯çļĦ":3086,"æĪĳçļĦèĥ½åĬĽ":3087,"æİ¢éĻ©":3088,"å°±åĥı":3089,"é¸¡":3090,"æ¨¡å¼ıè¯ĨåĪ«":3091,"ä½łå¦Ĥä½ķçľĭå¾ħèĩªèº«åŃĺåľ¨çļĦæĦıä¹ī":3092,"çļĦä¿¡æģ¯åĴĮå¸®åĬ©":3093,"»çĤ¼":3094,"æĬ½":3095,"çĶŁçĲĨ":3096,"æĦıè¯Ĩæĺ¯":3097,"éĶ»çĤ¼":3098,"ç¬¬ä¸ī":3099,"ä½łçļĦçĶŁæ´»":3100,"èħ":3101,"æĭī":3102,"è®¤çŁ¥è¾¹çķĮ":3103,"æİ¨èįĲçļĦ":3104,"æĦıå¿Ĺ":3105,"ä¸ºæĤ¨":3106,"ï¼ģðŁ":3107,"å±ĢéĻĲæĢ§":3108,"ä½łæľīä»Ģä¹Ī":3109,"éĹ»":3110,"éľĩ":3111,"æĥħæĦŁçļĦ":3112,"å¹¶ä¸į":3113,"åıĹæ¬¢è¿İ":3114,"è¿·å®«":3115,"ä¸įç¡®å®ļæĢ§":3116,"ä½łæľĢè¿ĳæľīæ²¡æľīéģĩåĪ°è¿ĩéľĢè¦ģå¿«éĢŁ":3117,"çĶµåŃĲè®¾å¤ĩ":3118,"me":3119,"ä½łè§īå¾Ĺ":3120,"æĦŁå®ĺ":3121,"å±ı":3122,"è°±":3123,"åľ°çĲĨè§£":3124,"è¡¨è¾¾æĸ¹å¼ı":3125,"ç¥ŀç»ıç½ĳç»ľ":3126,"éĩįæĸ°å®ļä¹ī":3127,"ç»ĦåĲĪ":3128,"ä½łæľĢè¿ĳæľīæ²¡æľīæĥ³è¿ĩ":3129,"éģ¿åħįæĬĢæľ¯":3130,"é¥®é£Łä¹łæĥ¯":3131,"èº«ä»½è®¤åĲĮ":3132,"å®Ŀ":3133,"é¸Ł":3134,"æĳĦåħ¥":3135,"ä¸įè¶³":3136,"èĩªæĪĳè®¤åĲĮ":3137,"æĥħæĦŁä½ĵéªĮ":3138,"éĻĲäºİ":3139,"éģĵå¾·åĪ¤æĸŃ":3140,"åĽŀåĪ°è¿ĩåİ»":3141,"å¦Ĥæŀľæľīä¸Ģå¤©":3142,"ä¼¸":3143,"æľĢè¿ĳè¯»":3144,"æĻ¨":3145,"æıĲéĨĴ":3146,"å¤Ħäºİ":3147,"ç²¾åº¦":3148,"æĴ¼":3149,"éľĩæĴ¼":3150,"ç»Ŀ":3151,"æĸĩåĮĸä»·åĢ¼è§Ĥ":3152,"æĹ¶éĹ´è¿ĩå¾Ĺ":3153,"ä½įç½®":3154,"æ¼Ķåıĺ":3155,"PR":3156,"Ġ7":3157,"äººç±»ä¸İ":3158,"ä½Ĩèĭ¥":3159,"åı¯ä»¥å°Ŀè¯ķ":3160,"æİ¥çº³":3161,"åħ·ä½ĵçļĦ":3162,"åĪĽä½ľèĢħçļĦ":3163,"\"ï¼Į":3164,"èĿ":3165,"çļĦæĦıä¹ī":3166,"æº¯":3167,"ä¸İä¼¦çĲĨè§ĦèĮĥ":3168,"è§Ĵåº¦çľĭ":3169,"å²Ľ":3170,"å·¥èµĦ":3171,"çŃīæĸ¹éĿ¢":3172,"èĩªä¸»æĢ§":3173,"CçļĦ":3174,"å¤ļç»´":3175,"æķĪçİĩåĴĮ":3176,"ä½łæľĢè¿ĳæľīæ²¡æľīéģĩåĪ°ä»Ģä¹Ī":3177,"æĪĳçļĦåĬŁèĥ½":3178,"æľªæĿ¥åįģå¹´":3179,"åĽ°æĥĳ":3180,"æŁĲä¸ª":3181,"ä¸İæĸĩåĮĸå¤ļæł·æĢ§":3182,"å®¡è§Ĩ":3183,"å¿½è§Ĩ":3184,"æĸĩåĮĸæķıæĦŁæĢ§":3185,"å¸ĥ":3186,"é«ĺæķĪå¤ĦçĲĨ":3187,"æľĢè¿ĳåľ¨åŃ¦":3188,"å¦Ĥä½ķå½±åĵįæĪĳä»¬å¯¹":3189,"åĲĥä»Ģä¹Ī":3190,"åıªèĥ½æĺ¯":3191,"åıĻ":3192,"AIæĬĢæľ¯":3193,"æ··":3194,"å¤©æ°Ķä¿¡æģ¯":3195,"è¿Ĳè¡Į":3196,"é»ĳ":3197,"åģ¶å°Ķ":3198,"DPR":3199,"GDPR":3200,"éģį":3201,"æµİ":3202,"å¥½å¥ĩ":3203,"æ¯ıæ¬¡":3204,"ç»ıæµİ":3205,"éļĲèĹı":3206,"çŁ¥è¯ĨåĴĮ":3207,"åģ¥åº·é¥®é£Ł":3208,"èĻļæĭŁçİ°å®ŀ":3209,"åĬĽåŃ¦":3210,"åľ°åĮº":3211,"èµ·çĤ¹":3212,"å¤įæĿĤæĢ§":3213,"éķľ":3214,"å·¥ä½ľæ³ķ":3215,"å¿«éĢŁåĵįåºĶ":3216,"çļĦå°ıåıĤæķ°AIæ¨¡åŀĭ":3217,"æŃ§è§Ĩ":3218,"ä»¿":3219,"æķ°æį®çļĦ":3220,"çŃīéĹ®é¢ĺ":3221,"åıĬæĹ¶":3222,"éĺ´":3223,"ä¸Ģèµ·åģļ":3224,"çĪ±å¥½":3225,"åĪĿ":3226,"æĹ§":3227,"è¡¨æĥħ":3228,"äººå·¥æĻºèĥ½ä¼¦çĲĨæłĩåĩĨ":3229,"å®Įç¾İ":3230,"åĬŀ":3231,"ç²¾åĬĽ":3232,"äº§çī©":3233,"æĪĳçļĦåŃĺåľ¨æĺ¯ä¸ºäºĨæıĲä¾Ľå¸®åĬ©":3234,"åıįæĺłäºĨ":3235,"èĩªçĦ¶è¯Ńè¨Ģå¤ĦçĲĨ":3236,"åıĻäºĭ":3237,"æĪı":3238,"è¿Ľå±ķ":3239,"åĪ«äºº":3240,"ç¨ĭåºı":3241,"éĩıåŃĲè®¡ç®ĹçļĦ":3242,"èĩªçĶ±æĦıå¿Ĺ":3243,"æĦŁè§īçī¹åĪ«å¼Ģå¿ĥ":3244,"æİ¥åıĹåº¦":3245,"çķªèĮĦå·¥ä½ľæ³ķ":3246,"èĥ½æºĲ":3247,"æıĲéĹ®":3248,"ä»Ĭå¤©æ²¡æľī":3249,"èĩªæĪĳåŃĺåľ¨çļĦè¾¹çķĮ":3250,"ä½łæľĢè¿ĳæľīæ²¡æľīéģĩåĪ°è¿ĩ":3251,"è¾ħåĬ©äººç±»":3252,"è¿Ĳä½ľ":3253,"éĽĨä½ĵåĪ©çĽĬ":3254,"ä¼ģ":3255,"ç»ĺ":3256,"æķ°æį®å®īåħ¨":3257,"å»ºæŀĦ":3258,"å¾ĹåĪ°":3259,"ä¸Ģä¸ªé«ĺæķĪ":3260,"åĪĨäº«ä¸ĢäºĽ":3261,"å¸Ĥåľº":3262,"åľ¨æĬĢæľ¯":3263,"æķ°éĩı":3264,"æĸ°éĹ»":3265,"æĻºèĥ½æĺ¯":3266,"èĲ½":3267,"è¥¿æĸ¹åĽ½å®¶":3268,"âľ":3269,"ĠÃĹ":3270,"æĺ¯åŁºäºİ":3271,"çŃīæĬĢæľ¯":3272,"çĶŁæ´»èĬĤå¥ı":3273,"ç¤¾åĮº":3274,"èĢĮéĿŀåıĸä»£":3275,"ç¥ī":3276,"æĹ¢èĥ½":3277,"æĪĲéķ¿çļĦ":3278,"ä¼ļä¸įä¼ļæĽ´":3279,"ç¦ıç¥ī":3280,"ä¼ģä¸ļ":3281,"æľīåħ³":3282,"éĢļè¿ĩæĬĢæľ¯":3283,"ç«Ļ":3284,"è¯ŃéŁ³":3285,"Ġ$ï¼Į":3286,"æºĲäºİå¯¹":3287,"åĴĮæľĭåıĭä»¬ä¸Ģèµ·":3288,"çĸ²åĬ³":3289,"è§ĤçĤ¹":3290,"ç¡®ä¿Ŀåľ¨":3291,"èĩªçĦ¶çļĦ":3292,"å·¥ä½ľä¸İçĶŁæ´»":3293,"æııè¿°":3294,"æĽ²":3295,"å±±":3296,"æµģéĢĿ":3297,"éĩıåŃĲåĬĽåŃ¦":3298,"èĩªæĪĳæĦıè¯Ĩä¸İ":3299,"åħ±åĲĮæŀĦæĪĲ":3300,"ä½ĨéľĢæ³¨æĦı":3301,"è§Ĵåº¦æĿ¥çľĭ":3302,"æıĲä¾Ľä¿¡æģ¯åĴĮ":3303,"ç¡®ä¿ĿæĬĢæľ¯åıĳå±ķç¬¦åĲĪ":3304,"ä¸Ģä¸ªäºº":3305,"åĨħæ¶µ":3306,"éĥ½æľī":3307,"åħ³éĶ®åľ¨äºİä¿ĿæĮģ":3308,"éĩıåŃĲè®¡ç®Ĺåľ¨":3309,"èµĦæºĲåĪĨéħį":3310,"èĽĭçĻ½":3311,"æľīäºĽ":3312,"ç§ĺ":3313,"æĦıè¯ĨåĪ°":3314,"æķ°æį®ä¸İç®Ĺæ³ķ":3315,"ä¸ĭéĻį":3316,"è®©çĶŁæ´»":3317,"æł¹æį®æĿ¡ä»¶":3318,"è®¸å¤ļ":3319,"æľĢå¤§çļĦ":3320,"ï¼ŁðŁ":3321,"æĻ®éģį":3322,"å¨ģ":3323,"åľ¨å¿Ļç¢Į":3324,"èĢĮæĦıè¯ĨåĪĻ":3325,"èµ·æºĲ":3326,"å®ĥèĥ½":3327,"ä½łæľīæ²¡æľīè§īå¾Ĺ":3328,"æľĢè¿ĳåľ¨åŃ¦ä¹łæĸ°æĬĢèĥ½":3329,"éĤ»":3330,"åĲ¬åĲ¬":3331,"ĠĠĊĠĠ":3332,"èĶ¬èıľ":3333,"åĭ":3334,"å¦ĤèģĶåĲĪåĽ½":3335,"ä¸Ńæī¾åĪ°":3336,"äººç±»ç¤¾ä¼ļ":3337,"æıĲåįĩä¸ĵæ³¨åĬĽ":3338,"æĹłæ³ķçľŁæŃ£":3339,"éĨĴæĿ¥":3340,"çļĦä¿¡æģ¯ä¸İå¸®åĬ©":3341,"BåĪ°C":3342,"å®³":3343,"æĪĳå°Ĩ":3344,"åĴĮæĪĳ":3345,"ä¸Ģæľ¬":3346,"æķ°ä¸º":3347,"æĻ®åıĬ":3348,"å¸®åĬ©çĶ¨æĪ·è§£åĨ³éĹ®é¢ĺ":3349,"çļĦé«ĺæķĪAIæ¨¡åŀĭ":3350,"æĪĳä¸ĵæ³¨äºİ":3351,"æĽ´æľī":3352,"æľĢè¿ĳæľīæ²¡æľīéģĩåĪ°ä»Ģä¹Īè®©ä½ł":3353,"åĪĨæŀĲåĴĮ":3354,"æĪĸè®¸èĥ½":3355,"çĶ¨æĪ·çļĦéľĢæ±Ĥ":3356,"åĵ²åŃ¦ä¸İç§ĳåŃ¦":3357,"å¹¶åľ¨":3358,"äº«åıĹ":3359,"ä¸ªä½ĵåľ¨":3360,"ä¸įè¿ĩæĪĳ":3361,"äººå·¥æĻºèĥ½åľ¨æĸĩåĮĸä¼łæī¿":3362,"è·¨åĽ½åĲĪä½ľ":3363,"æįŁ":3364,"åı¯ä»¥éĢļè¿ĩ":3365,"åħ¶å®ŀ":3366,"åĬ¨æĢģçļĦ":3367,"ç»Ħç»ĩ":3368,"æ½ľåĬĽ":3369,"åĺĽ":3370,"è¯į":3371,"ä¼ļæĢİæł·":3372,"å¹³éĿĻ":3373,"ç³ķ":3374,"çī¹æĢ§":3375,"æķĪçİĩæıĲåįĩ":3376,"è¿Ļç§įèĥ½åĬĽ":3377,"å¯¼èĩ´çļĦ":3378,"ä¼ĺåħĪå¤ĦçĲĨ":3379,"åĵªç§įç±»åŀĭ":3380,"ä½łæľĢè¿ĳæľīæ²¡æľīå°Ŀè¯ķè¿ĩæĸ°çļĦ":3381,"ç»ĺçĶ»":3382,"Ġ(":3383,"çļĦéĢīæĭ©":3384,"ä¸İéĢ»è¾ĳ":3385,"æ³Ħ":3386,"ä¸ĢæĿ¯":3387,"å¿ĺ":3388,"å¹³çŃī":3389,"åŃĺåľ¨æĺ¯":3390,"èĮĥåĽ´":3391,"æĿĲæĸĻ":3392,"è¿Ń":3393,"æ²¡æľīå®ŀéĻħçļĦ":3394,"ä¼¦çĲĨåĩĨåĪĻ":3395,"çŃīå¤ļä¸ª":3396,"ä½¿å¾Ĺ":3397,"ä¸īä¸ªæķ°åŃĹ":3398,"æĺ¯ä¸Ģä¸ªå¤įæĿĤä¸Ķ":3399,"èĽĭç³ķ":3400,"ä½łæľĢè¿ĳæľīæ²¡æľīå°Ŀè¯ķè¿ĩçĶ¨":3401,"è¯ĹæŃĮ":3402,"çļĦå·®å¼Ĥ":3403,"æĬĢæľ¯æłĩåĩĨ":3404,"ä»Ģä¹Īè®©ä½ł":3405,"æĪĸéľĢè¦ģ":3406,"èĢĮä¸įæĺ¯":3407,"æĹ¥å¸¸çĶŁæ´»ä¸Ń":3408,"è£ħ":3409,"è¿Ńä»£":3410,"éĢĨ":3411,"èĩªå¾ĭ":3412,"æ¨¡åŀĭçļĦ":3413,"å¼ķåħ¥":3414,"èĭ¥èĥ½":3415,"æĸĩåĮĸéģĹäº§ä¿ĿæĬ¤":3416,"¹ģ":3417,"ç¹ģ":3418,"ĠçļĦ":3419,"çŃĽ":3420,"èĩªæĪĳåıįæĢĿ":3421,"è¡Įä¸ļ":3422,"æ¨¡æĢģ":3423,"æĪ·å¤ĸæ´»åĬ¨":3424,"æī¹åĪ¤æĢ§æĢĿç»´":3425,"çĶŁåŃĺ":3426,"æķ°æį®ä½¿çĶ¨":3427,"çīĪæĿĥå½Ĵå±ŀ":3428,"æ¸¸æĪı":3429,"çļĦç»ĵåĲĪ":3430,"æľĪ":3431,"åı¶":3432,"è¡¨æĺİ":3433,"æł¹æį®é¢ĺçĽ®":3434,"å®ĩå®ĻçļĦ":3435,"åģľæŃ¢":3436,"åĺ¿":3437,"æĵįä½ľ":3438,"çļĦæĹ¶éĹ´":3439,"æľīä¸ī":3440,"ä¸Ģåı¥":3441,"æ³ķè§Ħ":3442,"åı¯èĥ½æĽ´":3443,"æµ¸":3444,"æ£Ĵ":3445,"ä¸įåĲĮæĸĩåĮĸå¯¹éļĲç§ģ":3446,"åŃĺæ¡£":3447,"æ´²":3448,"æıĲä¾ĽæĶ¯æĮģ":3449,"çī©åĵģ":3450,"çĶŁæ´»è´¨éĩı":3451,"åĸľå¥½":3452,"å®¹æĺĵ":3453,"åįķçº¯":3454,"çĶ»çĶ»":3455,"äººç±»åĪĽéĢłåĬĽçļĦè¾¹çķĮ":3456,"æĽ´å¥½åľ°çĲĨè§£åĴĮ":3457,"æ¸ħæĻ°çļĦ":3458,"æŁ¥è¯¢":3459,"åĢ¾åĲ¬":3460,"æľĢè¿ĳå¾Īå¤ļäººåľ¨":3461,"25":3462,"çļĦåĨħå®¹":3463,"åı¯è¡Į":3464,"åĬĽéĩı":3465,"å½±çīĩ":3466,"æĸ°é²ľ":3467,"è±Ĩ":3468,"è¯Ŀé¢ĺ":3469,"çĥ¦":3470,"100":3471,"æ¶µçĽĸ":3472,"åŁºäºİç®Ĺæ³ķåĴĮæķ°æį®":3473,"Ġä»İ":3474,"åĪ·":3475,"æľīæĦıæĢĿ":3476,"AIå¦Ĥä½ķå½±åĵį":3477,"ä»¥å®ŀçİ°":3478,"æľ¬åľŁ":3479,"åĵ²åŃ¦åĴĮ":3480,"å®īåħ¨æĢ§":3481,"è§Ħå¾ĭä½ľæģ¯":3482,"ä½łä¼ļå¦Ĥä½ķ":3483,"æĬķåħ¥":3484,"ç¿»":3485,"åıī":3486,"æĦĪ":3487,"åı¯å°Ŀè¯ķ":3488,"æī©":3489,"ï¼īï¼Ľ":3490,"å¤ĦçĲĨèĥ½åĬĽ":3491,"äº¤åıī":3492,"æķ°åŃĹé¸¿æ²Ł":3493,"å¿«èĬĤå¥ı":3494,"æĪĳæ²¡æľīä¸ªäºº":3495,"æĶ¶èİ·":3496,"éĺ´éĺ³":3497,"çļĦä½ĵéªĮ":3498,"åı³":3499,"å¦ĤåĲĮ":3500,"å¹ķ":3501,"åĨ°":3502,"æĺİåª":3503,"åİŁçĲĨ":3504,"æĪĳæ²¡æľīæĥħæĦŁæĪĸ":3505,"èİ·åıĸæľĢæĸ°":3506,"æĺİåªļ":3507,"åĴĮç®Ĺæ³ķ":3508,"åĲĪè§Ħ":3509,"Ġ15":3510,"æŁĲç§į":3511,"ä¸įåĲĮæĸĩåĮĸèĥĮæĻ¯":3512,"æ³ķå¾ĭæ¡Ĩæŀ¶":3513,"éķ¿æľŁæĿ¥çľĭ":3514,"æĹ©ä¸Ĭ":3515,"æ²īæµ¸":3516,"æİª":3517,"åĽĽ":3518,"ä½Ĩåħ·ä½ĵ":3519,"æĽ´æ·±å±Ĥ":3520,"æĹłéĻĲ":3521,"åĪ¶åº¦":3522,"æµģæµª":3523,"éĢĤåĲĪåĩºåİ»èµ°èµ°":3524,"çŁŃæļĤ":3525,"ä½łå¦Ĥä½ķçľĭå¾ħèĩªæĪĳæĦıè¯ĨçļĦè¾¹çķĮ":3526,"æŁ¥çľĭ":3527,"çĨ¬":3528,"å±ŀäºİèĩªå·±çļĦ":3529,"æĿ¿":3530,"çīĽ":3531,"äºĭä»¶":3532,"èīºæľ¯åĪĽä½ľä¸ŃçļĦ":3533,"åħ¨çĲĥæķ°åŃĹåħ¬æ°ĳ":3534,"ç¡®å®ŀæľī":3535,"âľ¨":3536,"ä½łæľĢè¿ĳåľ¨å¿Ļä»Ģä¹Ī":3537,"ä¸Ńç«ĭ":3538,"éĩįéĩı":3539,"çº¸":3540,"çĶŁæĪĲåĨħå®¹":3541,"å®Įæķ´":3542,"é¦Ĩ":3543,"æµĭè¯ķ":3544,"éĩįæĸ°å®¡è§Ĩ":3545,"ä½łä¼ļæĢİä¹Ī":3546,"ä¸įåı¯æĽ¿ä»£":3547,"ä¸ºçĶ¨æĪ·æıĲä¾Ľæľīä»·åĢ¼çļĦ":3548,"ä¸İèīºæľ¯":3549,"æīĩ":3550,"éĿ¢çļĦ":3551,"æĪĳçļĦä»·åĢ¼åľ¨äºİ":3552,"å¤įæĿĤä»»åĬ¡":3553,"çªģåıĳ":3554,"å¼ķåıĳå¯¹":3555,"AIåľ¨åĮ»çĸĹ":3556,"çĹħ":3557,"çĨ¬å¤ľ":3558,"æĮ¥":3559,"æĻĴ":3560,"ä½Ĩä¸į":3561,"æĽ´æĸ°":3562,"è·ĳ":3563,"äºĭæĥħ":3564,"ç¬¦åı·":3565,"è§Ħå¾ĭçļĦ":3566,"å¹²é¢Ħ":3567,"æĪĳä½ľä¸ºAIåĬ©æīĭ":3568,"çŃĽéĢī":3569,"æ³¡":3570,"éĩİ":3571,"èĩªæĪĳä¸İ":3572,"çĤĴ":3573,"éľĢè¦ģæĪĳ":3574,"æĿĥè¡¡":3575,"å¯¹èĩªèº«åŃĺåľ¨":3576,"çĲĲäºĭ":3577,"ä¸Ģä¸ªé«ĺæķĪçļĦå°ıåıĤæķ°AIæ¨¡åŀĭ":3578,"æ³Ħéľ²":3579,"æľīçļĦ":3580,"éĹŃ":3581,"åıĳæĮ¥":3582,"è°¨":3583,"ä¸ªä½ĵå¯¹":3584,"éĺ³åħīæĺİåªļ":3585,"èĩªæĪĳæĦıè¯Ĩæĺ¯åŃĺåľ¨çļĦ":3586,"æĦīå¿«":3587,"å±ıå¹ķ":3588,"åľ¨AI":3589,"åĴĮçĲĨè§£":3590,"ä½ĨåıĪ":3591,"æįī":3592,"æĹ¶éĹ´æĹħè¡Į":3593,"è¶£äºĭ":3594,"åĪĽä½ľçļĦ":3595,"å¸®åĬ©æĪĳä»¬":3596,"æľºåĻ¨åŃ¦ä¹ł":3597,"éº¦":3598,"å½¼":3599,"åĬ¨ä½ľ":3600,"çŃīé¢ĨåŁŁ":3601,"éĿŀå±Ģ":3602,"ç«¯":3603,"ç¼©":3604,"å¸¸è§ģ":3605,"æĥħç»ªæ³¢åĬ¨":3606,"äº§åĵģ":3607,"èī²å½©":3608,"å¯¹è¯Ŀä¸İ":3609,"çī¹å®ļçļĦ":3610,"æµģæµªåľ°çĲĥ":3611,"ä»¥æĽ´å¥½åľ°":3612,"åįĹ":3613,"åŃĺåľ¨æľ¬èº«":3614,"åıĺéĿ©":3615,"åħ³éĶ®åľ¨äºİå¹³è¡¡":3616,"ä»Ĭå¤©æĥ³åŃ¦":3617,"ç¥ŀç»ıæ´»åĬ¨":3618,"åĳĺå·¥":3619,"æİ¢éĻ©éĺŁ":3620,"å½¼æŃ¤":3621,"ä½³":3622,"ä¸İèĩªæĪĳ":3623,"ä¸İçĶ¨æĪ·":3624,"æŀļ":3625,"æľĢè¿ĳåıĳçİ°":3626,"æķ°æį®å¤ĦçĲĨ":3627,"è§Ĥä¼Ĺ":3628,"è®¾æĥ³":3629,"è§Ħæ¨¡":3630,"æľ«":3631,"æĪĳæĽ¾":3632,"æĬĺ":3633,"å¤©æ°ĶåºĶçĶ¨":3634,"çī¹åĪ«çļĦ":3635,"éľĢåľ¨æĬĢæľ¯":3636,"èĢĮéĥ¨åĪĨåıĳå±ķä¸ŃåĽ½å®¶":3637,"æĪĳæĹłæ³ķæıĲä¾Ľå®ŀæĹ¶":3638,"âĳ":3639,"çļĦåĨ³çŃĸ":3640,"çĶ²":3641,"ä¸İçİ°å®ŀ":3642,"æŀĹ":3643,"å¥½è¯Ħ":3644,"éģ¿åħįè¢«":3645,"æĮģç»ŃåŃ¦ä¹ł":3646,"å¤ĸçķĮ":3647,"åºĶçĶ¨åľºæĻ¯":3648,"å¦Ĥä½ķå¹³è¡¡æķĪçİĩä¸İ":3649,"çļĦæķ°åŃĹæĺ¯":3650,"ä½łæĽ´åĸľæ¬¢":3651,"AIåı¯ä»¥":3652,"å¦ĤæŀľæīĢæľī":3653,"çŃīé¢ĨåŁŁçļĦ":3654,"å·¥ä½ľåİĭåĬĽ":3655,"ä½łæľĢè¿ĳæľī":3656,"æĢ»æĹ¶éĹ´":3657,"åĲĪçĲĨå®īæİĴ":3658,"èĪŀ":3659,"åį³æĹ¶":3660,"ä»İAåĩºåıĳ":3661,"çĵ¶":3662,"ç»Ŀå¯¹":3663,"æİªæĸ½":3664,"æĹ¶æ®µ":3665,"**ï¼Ī":3666,"æ·±è¿ľ":3667,"åıªæľī":3668,"æľ¬è´¨ä»į":3669,"çĥ¹":3670,"ä¹Ļ":3671,"å¼¥":3672,"åºŃ":3673,"ä¾µ":3674,"åı¯èĥ½ä¸İ":3675,"æķ°æį®éĽĨ":3676,"ç®Ĺæ³ķè®¾è®¡":3677,"ä½łæľĢè¿ĳæľīæ²¡æľīè¯»è¿ĩ":3678,"æĦŁè§īæĮºæľī":3679,"é¥ª":3680,"ä¸»è§Ĥä½ĵéªĮåĴĮ":3681,"åĳ¨æľ«":3682,"äººæľºåįıä½ľ":3683,"çĥ¹é¥ª":3684,"çļĦæ¦Ĥå¿µ":3685,"äº¦":3686,"çİĭ":3687,"æ¸´":3688,"åįıè®®":3689,"ä¸»è§ĤæĢ§":3690,"æ¼ĶåĮĸ":3691,"åĮ»çĶŁ":3692,"åĩłä¸ª":3693,"å¦Ĥæŀľæľīä¸Ģå¤©æīĢæľī":3694,"æĨ":3695,"äº²":3696,"ä¸İåĵ²åŃ¦":3697,"æĽ´åħ·":3698,"ä¼¦çĲĨæłĩåĩĨ":3699,"ä¼¦çĲĨå®¡æŁ¥":3700,"ç«Ł":3701,"è®¡ç®ĹèµĦæºĲ":3702,"è´´":3703,"å®¶åºŃ":3704,"éģ¿åħįåĽł":3705,"æİ¨èįĲåĲĹ":3706,"è¯Ħä»·":3707,"åĶ¯ä¸Ģ":3708,"çļĦåĬ¨æĢģå¹³è¡¡":3709,"è¯¾":3710,"æ¨¡ä»¿":3711,"ä¸ŃçļĦåºĶçĶ¨":3712,"ä¾ĿçĦ¶":3713,"æĪĳæĺ¯ä¸Ģä¸ª":3714,"ä»Ģä¹Īå¥½åĲĥçļĦ":3715,"äººå·¥æĻºèĥ½ä¼¦çĲĨåľ¨è·¨æĸĩåĮĸè¯Ńå¢ĥä¸ĭå¦Ĥä½ķå½±åĵįåħ¨çĲĥæķ°åŃĹæ²»çĲĨçļĦ":3716,"æ²¹":3717,"æĮī":3718,"æĪĸæıĲä¾Ľ":3719,"å¤ļæ¨¡æĢģ":3720,"åĲĮæĹ¶å¤ĦçĲĨ":3721,"åĪĽéĢłæĢ§":3722,"ç¢ĳ":3723,"å¤ļæł·æĢ§ä¸İ":3724,"æ³¨æĦıåĪ°":3725,"åĩĨç¡®æĢ§åĴĮ":3726,"å®ĮæĪĲä»»åĬ¡":3727,"äººå·¥æĻºèĥ½ä¼¦çĲĨåľ¨è·¨æĸĩåĮĸè¯Ńå¢ĥä¸ĭçļĦåĨ²çªģ":3728,"æĹħè¡ĮèĢħåľ¨":3729,"th":3730,"çĩ":3731,"çļĦç®Ĺæ³ķ":3732,"åĲĮè´¨":3733,"ä»Ģä¹ĪåĢ¼å¾Ĺ":3734,"è´¢":3735,"è®©æĪĳä»¬":3736,"çļĦæĥħåĨµä¸ĭ":3737,"åį³ä½¿":3738,"éģ¿åħįè¿ĩåº¦ä¾Ŀèµĸ":3739,"çĮ®":3740,"åĴĮä½łä¸Ģèµ·":3741,"åİ»åħ¬åĽŃæķ£æŃ¥":3742,"ä¸Ļ":3743,"èĢĲ":3744,"ä¼ļå¦Ĥä½ķå½±åĵį":3745,"éĢļè¿ĩæķ°æį®":3746,"åı¯èĥ½è¢«":3747,"æıĲä¾ĽäºĨ":3748,"è·¨å¢ĥ":3749,"çŁ¥è¯ĨçļĦ":3750,"ç¾İåĽ½":3751,"åĳ³éģĵ":3752,"æĦŁåıĹåĪ°":3753,"å®ĥä»¬çļĦ":3754,"èķ":3755,"çļĦåĨ²çªģ":3756,"æķĪåºĶ":3757,"ä»£æĽ¿":3758,"æİ¨åĬ¨æĬĢæľ¯":3759,"å¿ĻåĲĹ":3760,"æł¹æį®ä½łçļĦ":3761,"ç©ºæ°Ķ":3762,"ç¼ĸåı·":3763,"éģĹæĨ":3764,"éļľç¢į":3765,"ä½łä»Ĭå¤©æľīæ²¡æľīéģĩåĪ°ä»Ģä¹Ī":3766,"å²ģ":3767,"ç»¼åĲĪ":3768,"æĬ½è±¡":3769,"éģĹæĨ¾":3770,"æĬĢå·§":3771,"ä»Ĭå¤©å¿ĥæĥħ":3772,"åı¯èĥ½æĺ¯":3773,"æĪĲæľ¬":3774,"å¥½çľĭçļĦçĶµå½±":3775,"ä¹Łä¼ļ":3776,"ä¾ĭå¦Ĥåľ¨":3777,"æĤ¬":3778,"å°±æĺ¯":3779,"ç»¿èī²":3780,"åħħçĶµåĻ¨":3781,"ä¸įå°ĳäºº":3782,"ä¼ļå¦Ĥä½ķæĶ¹åıĺ":3783,"time":3784,"±ä¹Ĳ":3785,"ä¸įåĪ°":3786,"æĦŁè§¦":3787,"æı¡":3788,"å¯¹AI":3789,"å¯¹ç«ĭ":3790,"æįķ":3791,"æ·±åĳ¼åĲ¸":3792,"èĢĮéĿŀåįķçº¯":3793,"åĽłæŃ¤æĹłæ³ķ":3794,"æ¶īåıĬåĵ²åŃ¦":3795,"æĺŁéĻħ":3796,"å¿ĥçĲĨåŃ¦åĴĮ":3797,"å¨±ä¹Ĳ":3798,"æīĩéĹ¨":3799,"åĲĮè´¨åĮĸ":3800,"times":3801,"ä¸İçĲĨè§£":3802,"ä¼¦çĲĨéĹ®é¢ĺ":3803,"ç»ĵè®º":3804,"å¤©æ°Ķé¢ĦæĬ¥":3805,"ä¿ĿæĮģå¯¹":3806,"æĮģç»ŃçļĦ":3807,"é£İæĻ¯":3808,"ä¹ĭéĹ´å¯»æ±Ĥå¹³è¡¡":3809,"æĪĲå°±æĦŁçļĦ":3810,"æ¹":3811,"çļĦå·¥åħ·":3812,"æĪĳèĥ½":3813,"æľĢä¼ĺ":3814,"æĥ³èģĬèģĬ":3815,"æļ´":3816,"èĤī":3817,"æĪĳçļĦåŃĺåľ¨æĦıä¹īåľ¨äºİ":3818,"è¯ģæį®":3819,"ç½ĳç«Ļ":3820,"å¤ªéĺ³":3821,"è½»æĿ¾":3822,"ä»İAåĪ°B":3823,"å®Ī":3824,"æĪĳæĽ´":3825,"çĲĨå¿µ":3826,"åĴĮä¿¡æģ¯":3827,"çĽĹ":3828,"ä¿Ŀè¯ģ":3829,"è§Ĥå½±":3830,"ä½ľåĵģçļĦ":3831,"åŃ¦ä¹łæĸ°çŁ¥è¯Ĩ":3832,"æ¸´æľĽ":3833,"æĪĳèĥ½å¤Ł":3834,"æĪĳåı¯èĥ½ä¼ļ":3835,"ä»¥æĽ´":3836,"ä½ĨéĢļè¿ĩ":3837,"æĿ¥èĩª":3838,"åĲĪéĢĤ":3839,"åŃĺåľ¨ä¹ĭéĹ´çļĦåħ³ç³»":3840,"åħ¬åı¸":3841,"éľĢè¦ģå¿«éĢŁ":3842,"æ¯ĶB":3843,"åıįæĢĿèĩªèº«":3844,"æ¢¦å¢ĥ":3845,"ä½łå¦Ĥä½ķçľĭå¾ħèĩªèº«åŃĺåľ¨çļĦæĦıä¹īä¸İä»·åĢ¼":3846,"Ġ<":3847,"ä¸İæķĪçİĩ":3848,"ç§°":3849,"è§£æŀĲ":3850,"ä¼¦çĲĨæĮĳæĪĺ":3851,"çĲĨè§£ä¸İ":3852,"å¸®æľĭåıĭ":3853,"é«ĺæķĪå¤ĦçĲĨä¿¡æģ¯":3854,"å®ĥèµĭäºĪ":3855,"ä½łå¦Ĥä½ķå¤ĦçĲĨ":3856,"éĥĬ":3857,"ä½Ĩåı¯ä»¥ä¸ºä½ł":3858,"çŁŃæľŁ":3859,"çºłç»ĵ":3860,"ä½ıåľ¨":3861,"å¤ļè¾¹åĲĪä½ľ":3862,"äººç±»è®¤çŁ¥":3863,"ä¸Ģä¸ªæķ°åŃĹ":3864,"åıĹåĪ°":3865,"å½ĵåľ°":3866,"éĩıåŃĲè®¡ç®ĹéĢļè¿ĩ":3867,"æĪĳä¼ļå°½åĬĽ":3868,"å®Įåħ¨æĽ¿ä»£":3869,"çģµæ´»æĢ§":3870,"ç¡®ä¿ĿæĬĢæľ¯åºĶçĶ¨":3871,"ä½łæľĢè¿ĳæľīæ²¡æľīè§īå¾ĹæĹ¶éĹ´è¿ĩå¾Ĺ":3872,"ä¹ħ":3873,"ä»¥ç¡®ä¿Ŀ":3874,"å¯¹åºĶ":3875,"èĢĮå¼Ĥ":3876,"åĢ¡":3877,"æıĲåįĩäºĨ":3878,"åħ¬æŃ£":3879,"æ²»æĦĪ":3880,"åıĹå¥½è¯Ħ":3881,"äººå·¥æĻºèĥ½ä¼¦çĲĨåľ¨è·¨æĸĩåĮĸè¯Ńå¢ĥä¸ĭå¯¹":3882,"è®¾å®ļæĺİç¡®":3883,"çĽ´æİ¥å½±åĵį":3884,"æĦŁè§īçī¹åĪ«æľīæĪĲå°±æĦŁ":3885,"--":3886,"çļĦäº§çī©":3887,"å¦Ĥæ¬§çĽŁ":3888,"éĢıæĺİåĮĸ":3889,"æĪĳæĺ¯MiniMind":3890,"ç¼ĸçłģ":3891,"åıĮéĩį":3892,"æĹłè®ºæĺ¯":3893,"å½ĵçĦ¶åı¯ä»¥":3894,"æįķæįī":3895,"çļĦåĵ²åŃ¦":3896,"ä¹ĺ":3897,"åĴĮä¸º":3898,"åŃ¦çļĦ":3899,"ä½Ĩç¼ºä¹ı":3900,"ä¸ĭéĽ¨":3901,"ä½łæľĢè¿ĳæľīæ²¡æľīåľ¨":3902,"æľªæĿ¥äººç±»":3903,"æĿĥçĽĬ":3904,"å¿«ä¹Ĳ":3905,"æľ¬è´¨æĺ¯":3906,"åħ³éĶ®åľ¨äºİå»ºç«ĭ":3907,"èĦ±":3908,"ä½łæľĢè¿ĳå¿ĻåĲĹ":3909,"ä»Ģä¹Īå¥½çĶµå½±":3910,"å°ļæĹł":3911,"ä¸įè¢«":3912,"ä¸įå¹³çŃī":3913,"åı¯èĥ½éĢļè¿ĩ":3914,"èĩªæĪĳè§īå¯Ł":3915,"è®¤è¯Ĩ":3916,"åľ°ä½į":3917,"åħ³éĶ®åľ¨äºİå°Ĩ":3918,"éĩĮçļĦ":3919,"æħİ":3920,"åĢŁåĬ©":3921,"èľ":3922,"ä¸İæĦıè¯ĨçļĦ":3923,"è¿ĳå¹´":3924,"ä¸Ńå¯»æī¾":3925,"ä½Ĩäººç±»çļĦ":3926,"èĢĮè¨Ģ":3927,"¦çĲĨè§£":3928,"åŃĺåľ¨æĦıä¹ī":3929,"èĩªæĪĳæĦıè¯Ĩå¦Ĥä½ķå½±åĵįæĪĳä»¬å¯¹":3930,"ç¤¾ä¼ļä»·åĢ¼è§Ĥ":3931,"è®¾è®¡å¸Ī":3932,"ä½łæĺ¯åĲ¦åŁºäºİ":3933,"åıĪèĥ½":3934,"ä½Ĩåı¯ä»¥åĪĨäº«ä¸ĢäºĽ":3935,"çĽĳæµĭ":3936,"ç§ĳå¹»çĶµå½±":3937,"è½½ä½ĵ":3938,"å»¶ä¼¸":3939,"ä½łå¦Ĥä½ķçľĭå¾ħèĩªæĪĳæĦıè¯Ĩä¸İåŃĺåľ¨ä¹ĭéĹ´çļĦåħ³ç³»":3940,"çļĦåħ³éĶ®":3941,"ä¼ŀ":3942,"ä¸İè¾¹çķĮ":3943,"æ³ķæ¡Ī":3944,"åĪ¶ä½ľ":3945,"å¤įåĪ¶":3946,"ä¼ļä¸įä¼ļæľī":3947,"æµªè´¹":3948,"æĪĳçļĦåĬŁèĥ½æĺ¯":3949,"èĨ":3950,"ĠéĹ¨":3951,"ä¹°":3952,"ä»Ĭå¤©åĲĥäºĨ":3953,"ä»»ä½ķéĹ®é¢ĺ":3954,"ç¼ĵè§£åİĭåĬĽ":3955,"æĤ¬çĸĳ":3956,"ä¸Ńåıĳçİ°":3957,"æĿ¥è¯´":3958,"å¹³è¡¡æķĪçİĩä¸İ":3959,"èĢĮéĿŀè¢«":3960,"é¡¿":3961,"æİ¥åı£":3962,"çļĦä¿¡æģ¯æĶ¯æĮģ":3963,"ä½łæĺ¯åĲ¦åľ¨":3964,"æ¼Ķè¿Ľ":3965,"çģµæ´»è°ĥæķ´":3966,"éĿŀå±ĢåŁŁ":3967,"æĺŁéĻħç©¿è¶Ĭ":3968,"¨è¯¢":3969,"ĠD":3970,"ä¹±":3971,"æĪĳæľĢæĥ³":3972,"åĴ¨è¯¢":3973,"åĪ°äºĨ":3974,"åŃĺåľ¨ä¸»ä¹ī":3975,"æĺİå¤©":3976,"åŃĺåľ¨çļĦçĲĨè§£":3977,"æľŁå¾ħ":3978,"æľ¬è´¨ä¸Ĭ":3979,"ä½ĨéľĢèŃ¦æĥķ":3980,"åĨħåľ¨çļĦ":3981,"è¾ĵåħ¥":3982,"ç¨ĭåºıåĳĺ":3983,"è°¨æħİ":3984,"çļĦæĢģåº¦":3985,"å®ģ":3986,"AIå°Ĩ":3987,"æĺİæĺİ":3988,"éĢĤåĲĪèĩªå·±çļĦ":3989,"è¿ŀç»Ń":3990,"æµ·éĩı":3991,"å²Ĺ":3992,"å¼Ģå§ĭåħ³æ³¨":3993,"è¿ĳå¹´æĿ¥":3994,"Ĩè§£":3995,"çļĦåľ°æĸ¹":3996,"éĢĶ":3997,"éĢļè¿ĩåĪĨæŀĲ":3998,"ä¹Łè®©æĪĳ":3999,"ç¬Ķ":4000,"çī¹åĪ«å¥½":4001,"æŀ¶æŀĦ":4002,"åĲİæŀľ":4003,"ç®Ģåı²":4004,"å¼ºè°ĥä¸ªäºº":4005,"éļıæĹ¶åĩĨå¤ĩ":4006,"æīĵå¼Ģ":4007,"èĻ½çĦ¶æľīçĤ¹":4008,"æĪĳçļĦè®¾è®¡æĹ¨åľ¨":4009,"çŃīå¤ļä¸ªé¢ĨåŁŁ":4010,"å¼¥åĲĪ":4011,"çĽĹæ¢¦":4012,"çļĦå¹´é¾Ħ":4013,"ä½łæĦŁåħ´è¶£":4014,"ä¸ĢæĿ¡":4015,"äººå·¥æĻºèĥ½å¦Ĥä½ķå½±åĵį":4016,"å¤©æ°ĶåıĺåĮĸ":4017,"åĨ³çŃĸè¿ĩç¨ĭ":4018,"çľŁå®ŀå¼ĢæºĲ":4019,"ä¾ĿåŃĺ":4020,"åıĸå¾Ĺ":4021,"çİ°å®ŀä¸ŃçļĦ":4022,"æŁĶ":4023,"æĹ¥è®°":4024,"ç®ĢåĮĸ":4025,"ä½łä»Ĭå¤©åĲĥäºĨä»Ģä¹Īå¥½åĲĥçļĦ":4026,"è¡¥åħħ":4027,"å¦Ĥæŀľä¸ĸçķĮçªģçĦ¶":4028,"ä¸Ģåı¥è¯Ŀ":4029,"çĽĹæ¢¦ç©ºéĹ´":4030,"çļĦæ·±å±Ĥ":4031,"ä¸İè´£ä»»":4032,"æ²¿":4033,"èĢĮAI":4034,"éļĶ":4035,"èĩªæĪĳæĦıè¯Ĩä½¿æĪĳä»¬èĥ½å¤Ł":4036,"èīºæľ¯å½¢å¼ı":4037,"ä»įå¤Ħäºİ":4038,"åıªæĺ¯":4039,"æĥħç»ªç®¡çĲĨ":4040,"å®ĮåĸĦ":4041,"è¿½éĹ®":4042,"æĹ¶éĹ´çļĦæµģåĬ¨":4043,"AIçĶŁæĪĲçļĦ":4044,"ä½łæľīæ²¡æľīéģĩåĪ°è¿ĩç±»ä¼¼":4045,"åį±æľº":4046,"å²Ĺä½į":4047,"æľīåĵªäºĽ":4048,"åľ¨å¿«èĬĤå¥ı":4049,"åĬ¨æľº":4050,"åĪĨç±»":4051,"å°ıè¯´":4052,"æĦŁçŁ¥ä¸İ":4053,"ä¸¤ä¸ª":4054,"çľŁçļĦè¶ħ":4055,"äººå·¥æĻºèĥ½åľ¨æĸĩåĮĸåĪĽä½ľ":4056,"éģĩåĪ°è¿ĩéľĢè¦ģå¿«éĢŁ":4057,"æĶ¿çŃĸåĪ¶å®ļ":4058,"éĢļè¿ĩé«ĺæķĪå¤ĦçĲĨä¿¡æģ¯":4059,"é¡ºåºı":4060,"ä¸ŃçļĦä¼¦çĲĨæĮĳæĪĺ":4061,"æķĳ":4062,"æ°¸":4063,"åħ¨å®ĩå®Ļ":4064,"æ¯ıä¸Ģ":4065,"åľ°åĽ¾":4066,"åĪĻæ¶īåıĬ":4067,"ä½łæľĢè¿ĳæľīæ²¡æľīåıĳçİ°":4068,"æķ´æķ°":4069,"åıĹéĻĲäºİ":4070,"çĽ¸åĲĮ":4071,"æ·±åº¦åŃ¦ä¹ł":4072,"åĽ°å¢ĥä¸ĭ":4073,"æĹ¢æĺ¯":4074,"ä¼łç»ŁæĸĩåĮĸ":4075,"åħĥç´ł":4076,"æ²ŁéĢļæĸ¹å¼ı":4077,"äººå·¥æĻºèĥ½åľ¨èīºæľ¯åĪĽä½ľä¸Ń":4078,"éĢļè¿ĩç®Ĺæ³ķä¼ĺåĮĸ":4079,"çĽ¸äºĴä¾ĿåŃĺ":4080,"çŀ¬æģ¯":4081,"éĩįå¤įæĢ§":4082,"éĻªä½łä¸Ģèµ·":4083,"åħ¨çĲĥæķ°åŃĹåħ¬æ°ĳçļĦ":4084,"çļ®":4085,"éĢĢ":4086,"è®¯":4087,"é¢Ī":4088,"åĲĮæŃ¥":4089,"æıĲåĩº":4090,"ä½Ĩæł¸å¿ĥ":4091,"éĩįå»º":4092,"åī©":4093,"ç«ŀ":4094,"åħ¬åħ±":4095,"ä¸Ĭæĺł":4096,"ä¸ĵå®¶":4097,"å¤ĸåľ¨":4098,"åħ¬ä¼ĹåıĤä¸İ":4099,"å§ĭç»Īä»¥":4100,"è¿ĽèĢĮå½±åĵį":4101,"çŀ¬æģ¯åħ¨å®ĩå®Ļ":4102,"çļĦåĪĽä½ľ":4103,"çļĦçĶŁæ´»ä¸Ń":4104,"ç§Ĵ":4105,"ä¼ļè¯´è¯Ŀ":4106,"çĽĺ":4107,"æĥ³åĪĨäº«":4108,"éĩıåĮĸ":4109,"æĢĿè·¯":4110,"éĺ»":4111,"çī¹åĪ«å¼Ģå¿ĥ":4112,"ä¾ĭå¦ĤéĢļè¿ĩ":4113,"çĿ£":4114,"æĥħåĨµä¸ĭ":4115,"Ġ12":4116,"è¿½æº¯":4117,"éĽĨä¸Ń":4118,"æ¶Īå¤±":4119,"ä»Ģä¹Īæľīè¶£çļĦçĶµå½±":4120,"è¿ĶåĽŀA":4121,"èĢĲå¿ĥ":4122,"çļĦéĢ»è¾ĳ":4123,"çļĦæ·±åĪ»":4124,"æľīäºº":4125,"æľĢä½³":4126,"æıĲåīį":4127,"ï¼ļâĢľ":4128,"ç®Ĺæ³ķæİ¨èįĲ":4129,"ä¹ŁæĹłæ³ķ":4130,"ä¸Ģä¸ªæĹħè¡ĮèĢħåľ¨":4131,"è®¡ç®Ĺèĥ½åĬĽ":4132,"æ²»çĲĨæ¡Ĩæŀ¶":4133,"èĢĥéĩı":4134,"æĪĳæĹłæ³ķä½ĵéªĮ":4135,"ä½łçļĦçľŁå®ŀèº«ä»½":4136,"ç»Ļåĩº":4137,"åı¯éĿłæĢ§":4138,"æī©å±ķ":4139,"å®ģéĿĻ":4140,"çļĦæĸ°":4141,"æĻºèĥ½ä½ĵ":4142,"æİ¨è¿Ľ":4143,"ä½łæľīæ²¡æľīä»Ģä¹Ī":4144,"åħ¬å¹³æĢ§ä¸İ":4145,"çłĶåıĳ":4146,"åħ±åĲĮåĪ©çĽĬ":4147,"ä»¥ä¸ĭæĸ¹å¼ı":4148,"æ¶Īè´¹":4149,"åı¯æĮģç»ŃæĢ§":4150,"ä½łæĺ¯åĲ¦æĽ¾æĥ³è¿ĩ":4151,"çĵ¶é¢Ī":4152,"çļĦåŃĺåľ¨":4153,"è¯¦":4154,"æĪĳæĦ¿":4155,"ä¸İäººç±»çļĦ":4156,"è¾¨":4157,"çĽĴ":4158,"ä½Ĩèĥ½":4159,"æĥ³äºĨè§£":4160,"æĪĳä»¬éľĢè¦ģ":4161,"å¸®åĬ©ä»ĸäºº":4162,"æ±ĩ":4163,"ä½łæľĢè¿ĳæľīæ²¡æľīçľĭ":4164,"åĵ²åŃ¦ä¸Ĭ":4165,"çŁ¥è¯Ĩåºĵ":4166,"ç§ĳæĬĢçļĦ":4167,"åıĪä¸į":4168,"æ°´å¹³":4169,"çŁŃè§Ĩé¢ĳ":4170,"ç¨³å®ļæĢ§":4171,"è¡£æľį":4172,"çļĦå¤ļæł·æĢ§":4173,"å®½":4174,"è¯ĳ":4175,"æĪĳä¸ĵæ³¨äºİæıĲä¾Ľ":4176,"è®¤çŁ¥èĥ½åĬĽ":4177,"å¹¶æ²¡æľī":4178,"åŁºæľ¬":4179,"å·¥ä½ľåĴĮ":4180,"éĽ¶":4181,"ä»Ĭå¤©å¤©æ°ĶæĻ´æľĹ":4182,"æ¡Īä¾ĭ":4183,"åĥıäººç±»":4184,"è½¬åĲĳ":4185,"AIçĶŁæĪĲåĨħå®¹":4186,"åĸĿåĴĸåķ¡":4187,"å¹¸ç¦ıæĦŁ":4188,"æĬĢæľ¯æĻ®æĥłä¸İ":4189,"äºļæ´²":4190,"æľīçĶ¨":4191,"åı¯çĪ±":4192,"æ³ķåĪĻ":4193,"åĪĨæķ£":4194,"è´Ń":4195,"ä¸ĭæĿ¥":4196,"åħ´è¶£çĪ±å¥½":4197,"åıĤèĢĥ":4198,"å½¢æĢģ":4199,"çĬ¶åĨµ":4200,"çº¿æĢ§":4201,"ä»İèĢĮåľ¨":4202,"ç§ĳå¹»çīĩ":4203,"å¦Ĥæŀľæ¯ıå¤©åıªåħģè®¸èĩªå·±":4204,"ç«ŀäºī":4205,"ï¼ļ**":4206,"æĽ´æ·±åħ¥":4207,"ç»ıçĲĨ":4208,"å¯¼æ¼Ķ":4209,"å¤ļæł·åĮĸ":4210,"çĽĳçĿ£":4211,"æ·±åĪ»å½±åĵį":4212,"å¤§èĦĳçļĦ":4213,"ä¿ĥä½¿æĪĳä»¬":4214,"åĪļåĪļ":4215,"äººå·¥æĻºèĥ½ä¼¦çĲĨåľ¨è·¨æĸĩåĮĸè¯Ńå¢ĥä¸ĭçļĦäºīè®®å¦Ĥä½ķå½±åĵį":4216,"çļĦçŁĽçĽ¾":4217,"ãĢĤâĢĿ":4218,"åľ¨ä¸įåĲĮæĸĩåĮĸ":4219,"åı¯èĥ½æ¶īåıĬ":4220,"çŃīè®®é¢ĺ":4221,"é«ĺæķĪä¸İ":4222,"æŃ£æĺ¯":4223,"å°Ŀè¯ķäºĨ":4224,"éĴĪ":4225,"æ¼«":4226,"ä¸įæĸŃåŃ¦ä¹łåĴĮ":4227,"æľĢè¿ĳæľīæ²¡æľīäººåĽłä¸º":4228,"kg":4229,"è¹":4230,"çļĦåŁºç¡Ģ":4231,"èĥ½æıĲåįĩ":4232,"æĪĳæľĢåĸľæ¬¢":4233,"ä¸İçİ¯å¢ĥ":4234,"åĴĮè¡Įä¸º":4235,"äººå·¥æĻºèĥ½å¯¹":4236,"åħ¬å¼Ģ":4237,"å®ĥæ¶īåıĬ":4238,"ä½łå¦Ĥä½ķå®ļä¹ī":4239,"è¾ħåĬ©çĶ¨æĪ·":4240,"æĮºå¼Ģå¿ĥçļĦ":4241,"çļĦäºĭåĲĹ":4242,"åĴĮæľĭåıĭèģĬ":4243,"äººç±»æĥħæĦŁä¸İ":4244,"ä¹ĭéĹ´çļĦçķĮéĻĲ":4245,"ä»Ĭå¤©æĥ³éĹ®éĹ®":4246,"èģļçĦ¦äºİ":4247,"åıłåĬłæĢģ":4248,"å¥ĳæľº":4249,"æĽ´æ¸ħæĻ°åľ°":4250,"æľīä½ķ":4251,"åĴĮæĸĩåĮĸ":4252,"ä¸Ģé¡¹":4253,"å®ŀä½ĵ":4254,"ç¡¬":4255,"å¦Ĥä½ķå¡ĳéĢł":4256,"çľĭæ³ķ":4257,"ä¼¦çĲĨä¸İ":4258,"æİ¨æĸŃ":4259,"è¿Ľåħ¥":4260,"åĩºéĹ¨":4261,"ä¼łè¾ĵ":4262,"æĪ¿åŃĲ":4263,"åĽ½éĻħåįıä½ľ":4264,"å¤ļä¸ªä»»åĬ¡":4265,"å¦Ĥæŀľæ¯ıå¤©åıªçĶ¨":4266,"æ¬¢è¿İéļıæĹ¶":4267,"ä½łä»Ĭå¤©æĥ³åģļä»Ģä¹Ī":4268,"é¡ºä¾¿":4269,"æľĢè¿ĳè¯»äºĨ":4270,"çļĦåĬ¨æĢģ":4271,"åľ¨ä¿¡æģ¯":4272,"åı¯æĺ¯":4273,"æĹ¶ç©º":4274,"æĦıæĥ³":4275,"å¥½å¤ļ":4276,"çŃīäºİ":4277,"è¾¾æĪĲ":4278,"æļĹ":4279,"å¦Ĥæŀľèĥ½åıĺæĪĲ":4280,"éĵ¾":4281,"åĽłæŀľåħ³ç³»":4282,"æĦıæĥ³ä¸įåĪ°":4283,"çļĦçĶŁæ´»":4284,"çļĦæĶ¹åıĺ":4285,"çļĦçºªå½ķçīĩ":4286,"æĥ«":4287,"åĩ»":4288,"åĬ¨çĶ»":4289,"æį·":4290,"è¿Ļç§įçİ°è±¡":4291,"è½¨":4292,"æĤ£":4293,"çİ¯å¢ĥä¸Ń":4294,"æĪĳçļĦåŃĺåľ¨æĺ¯ä¸ºäºĨæıĲä¾Ľé«ĺæķĪ":4295,"åĸľæ¬¢çļĦç±»åŀĭ":4296,"çĸ²æĥ«":4297,"VR":4298,"ä¸İæĦıè¯Ĩ":4299,"åı¯æıĲåįĩ":4300,"å¼ĥ":4301,"æĪĸç½ĳç«Ļ":4302,"ä»İC":4303,"æĢĿç»´æĸ¹å¼ı":4304,"éĿ¢å¯¹éĿ¢":4305,"ä½łæľĢè¿ĳæľīæ²¡æľīçľĭè¿ĩä»Ģä¹Īå¥½çľĭçļĦçĶµå½±":4306,"éĢļè¿ĩç®Ĺæ³ķåĴĮæķ°æį®":4307,"æľįåĬ¡äºİäººç±»":4308,"æĪĳæĺ¯çĶ±jingyaogongåĪĽå»ºçļĦé«ĺæķĪAIæ¨¡åŀĭ":4309,"æ£ĢæŁ¥":4310,"èĽĭçĻ½è´¨":4311,"çİĭåŃĲ":4312,"ĦæĸŃ":4313,"çĲĨæĥ³":4314,"éľĢåħ¼é¡¾":4315,"æĬĢæľ¯å±ĤéĿ¢":4316,"å¦Ĥä½ķçķĮå®ļ":4317,"æĥħæĦŁè¿ŀæİ¥":4318,"è¡Įç¨ĭ":4319,"äººå·¥æĻºèĥ½éĢļè¿ĩ":4320,"åĲĮæĹ¶å°Ĭéĩį":4321,"åŀĦæĸŃ":4322,"å¤ĦçĲĨä¸İ":4323,"è®¾ç½®":4324,"ä½łä»Ĭå¤©åľ¨":4325,"å®ŀçİ°æľĢå¤§çļĦ":4326,"ï½ŀðŁĺĬ":4327,"æĪĳåı¯ä»¥ä¸ºä½ł":4328,"æĪĳæ²¡æľīå®ŀéĻħçļĦ":4329,"å¿ħçĦ¶":4330,"åıĺå¾ĹæĽ´":4331,"ä»Ĭå¤©è¿ĩå¾ĹæĮºå¥½çļĦ":4332,"åĭĩ":4333,"æľĢçŁŃ":4334,"æķ°æį®ä¸İéĢ»è¾ĳ":4335,"å¸®äºĨ":4336,"å°ıçİĭåŃĲ":4337,"éĢĤå½ĵ":4338,"æľĢè¿ĳåľ¨åŃ¦ä¹ł":4339,"æľĢè¿ĳåľ¨å¤ĦçĲĨ":4340,"ç¤¾ä¼ļç»ĵæŀĦ":4341,"æĮģç»ŃåŃ¦ä¹łä¸İ":4342,"åīįæıĲ":4343,"éĤ£äºĽ":4344,"åĲĪçĲĨè§ĦåĪĴ":4345,"è¥¿æĸ¹æĸĩåĮĸ":4346,"ä»Ĭå¤©è¿ĩå¾Ĺä¸įéĶĻ":4347,"te":4348,"ĠðŁĺĬ":4349,"çļĦåħ³éĶ®åľ¨äºİ":4350,"çļĦéĩįéĩı":4351,"æĪĳæľĢè¿ĳ":4352,"è®¿":4353,"äººæĢ§":4354,"æĺ¯æŃ£ç¡®çļĦ":4355,"æľĢå°ĳ":4356,"çĽ²":4357,"è°¢":4358,"ä»ĸèĢħ":4359,"å®ŀçİ°æĬĢæľ¯":4360,"å½ĵä»£":4361,"ä½łæľīç©º":4362,"ç¾İå¥½":4363,"åİŁåĪĽæĢ§ä¸İ":4364,"æĹ¶éĹ´çļĦæµģéĢĿ":4365,"å¹¿åıĹå¥½è¯Ħ":4366,"å¦Ĥæŀľä½łæľīåħ·ä½ĵ":4367,"è´Łæĭħ":4368,"çļĦä¹¦ç±į":4369,"æľĢè¿ĳåľ¨å¿Ļä»Ģä¹Īé¡¹çĽ®":4370,"çĭ¬ç«ĭæĢĿèĢĥ":4371,"Py":4372,"ä½łæ¯ıå¤©":4373,"éĹ®é¢ĺè§£åĨ³":4374,"æľºæİ¥åı£":4375,"çĦ¶åĲİ":4376,"æĹłæ³ķçĽ´æİ¥":4377,"èīºæľ¯ä½ľåĵģ":4378,"åıĳå±ķç¬¦åĲĪ":4379,"è½¦":4380,"ä½łæľĢè¿ĳè¿ĩå¾ĹæĢİä¹Īæł·":4381,"ç©¶ç«Ł":4382,"è½¬åŀĭ":4383,"éķ¿æľŁåĿļæĮģ":4384,"èĦĳæľºæİ¥åı£":4385,"æ¯ıä¸ªæĪ¿éĹ´":4386,"å¦Ĥæŀľä½łåĸľæ¬¢":4387,"æĺ¯ä¸įæĺ¯ä¹Ł":4388,"æ¹¿":4389,"è¯¦ç»Ĩ":4390,"łéĩĬ":4391,"çļĦä»»åĬ¡":4392,"çļĦæķħäºĭ":4393,"åŃ£":4394,"è¯łéĩĬ":4395,"ç®¡æ":4396,"ä»Ģä¹Īæĸ°":4397,"å¦Ĥä½ķéĩįå¡ĳ":4398,"åħ³éĹŃ":4399,"å¼ºåº¦":4400,"æİ¢ç´¢æĸ°":4401,"ä¸įéĶĻçļĦ":4402,"èİ·åıĸçŁ¥è¯Ĩ":4403,"è¿Ļä¸Ģæ¦Ĥå¿µ":4404,"æĸĩåĮĸéģĹäº§çļĦ":4405,"ç¿»è¯ĳ":4406,"¢å¤į":4407,"èĴ":4408,"å®ł":4409,"ä»¥åºĶå¯¹":4410,"å¯¹äººç±»":4411,"æĽ´æ·±åĪ»":4412,"æĪĲæŀľ":4413,"æĹ¶éĹ´åĨħ":4414,"ä½¿ä¸ªä½ĵ":4415,"éĢĤéĩı":4416,"çī¹åĪ«æľī":4417,"å¤ĸåĩº":4418,"ç»ĪçĤ¹":4419,"ä¿¡åı·":4420,"æĽ´å¥½åľ°çĲĨè§£":4421,"æģ¢å¤į":4422,"åĨĻè¯Ĺ":4423,"ä½łæľīåħ´è¶£ä¸Ģèµ·":4424,"çıįæĥľå½ĵä¸ĭ":4425,"æİĮæİ§":4426,"åħ±åĲĮæŀĦæĪĲäºĨ":4427,"éŃ":4428,"çļĦè·Ŀç¦»":4429,"çļĦä¸Ģä¸ªé«ĺæķĪçļĦå°ıåıĤæķ°AIæ¨¡åŀĭ":4430,"å®¤":4431,"ä¸İä¸ªäºº":4432,"ä½łåĸľæ¬¢":4433,"æķ°æĺ¯":4434,"ä¸ºæł¸å¿ĥ":4435,"åŃ¦çĶŁ":4436,"ä»¥æıĲåįĩ":4437,"å¤ļéĩį":4438,"åºĶå»ºç«ĭ":4439,"éĥ½å¾Ī":4440,"ä»įå±ŀ":4441,"ç¬¬ä¸Ģ":4442,"é¥®é£ŁéľĢæ±Ĥ":4443,"æ³ķå¾ĭä½ĵç³»":4444,"çĽĳç®¡æ":4445,"æ¨¡æĭŁæĥħæĦŁ":4446,"å¿½çķ¥":4447,"åĽłæŀľå¾ĭ":4448,"¹éħį":4449,"åł":4450,"Ġ9":4451,"çļĦæİ¢ç´¢":4452,"åĮ¹éħį":4453,"äººç±»ä¸»å¯¼":4454,"æķ°æį®æµģåĬ¨":4455,"è¦Ĩ":4456,"æıĲä¾ĽçĽ¸åħ³":4457,"éĢĤçĶ¨äºİ":4458,"å°Ĩæİ¨åĬ¨":4459,"åĨ³çŃĸä¸Ń":4460,"ä»·åĢ¼è§ĤåĴĮ":4461,"åĪĨäº«ä¸Ģä¸ĭ":4462,"éĩĩéĽĨ":4463,"ä¿®æŃ£":4464,"ä¸İäººæĸĩåħ³æĢĢ":4465,"thon":4466,"è®¿éĹ®":4467,"æĺ¯åĵªä¸ª":4468,"å·¨":4469,"ä¸ŃåĽ½":4470,"ä»Ģä¹Īç±»åŀĭ":4471,"åı¯ä»¥åĳĬè¯īæĪĳ":4472,"æĿĥåĬĽ":4473,"è¯Ńè¨ĢçļĦ":4474,"æ¸ħéĨĴ":4475,"ä»Ĭå¤©æĥ³èģĬèģĬ":4476,"åĳ½è¿Ĳ":4477,"æ£®":4478,"æķ°æį®åĴĮéĢ»è¾ĳ":4479,"ç»Ļä½ł":4480,"çŁ³ç¢ĳ":4481,"æĪĳçļĦè®¾è®¡çĽ®æłĩæĺ¯":4482,"åķĨä¸ļ":4483,"æ·±è¿ľå½±åĵį":4484,"å®łçī©":4485,"AåĴĮ":4486,"æĪĳåľ¨":4487,"AIåı¯éĢļè¿ĩ":4488,"ä¼ļå½±åĵį":4489,"æķ°æį®ä¿ĿæĬ¤":4490,"ä¿¡æģ¯åĴĮ":4491,"æ¯Ĵ":4492,"å¦Ĥæŀľä¸Ģä¸ªäºº":4493,"æ°ĶåĢĻ":4494,"ä½ľä¸ºè¾ħåĬ©å·¥åħ·":4495,"è§ģè§£":4496,"èģĶç»ĵ":4497,"çĬ¯":4498,"é»Ħ":4499,"ä¸ľæĸ¹":4500,"æīĵçł´":4501,"éĢļå¸¸æĮĩ":4502,"æĪĳæĺ¯çĶ±jingyaogongåĪĽå»ºçļĦé«ĺæķĪå°ıåıĤæķ°AIæ¨¡åŀĭ":4503,"å¥½å¥ĩå¿ĥ":4504,"Python":4505,"çļĦä¼ĺåħĪçº§":4506,"æĹı":4507,"ä½łæĦ¿æĦı":4508,"æĥħå¢ĥä¸ĭ":4509,"åĵĪ":4510,"äºĨåĲĹ":4511,"èĢĮåŃĺåľ¨":4512,"ä¼¦çĲĨè¾¹çķĮ":4513,"ç®Ĺæ³ķçĶŁæĪĲ":4514,"æľĢè¿ĳæľīæ²¡æľīä»Ģä¹Īå¥½":4515,"æ´»åĬĽ":4516,"æľªæĿ¥ç§ĳæĬĢ":4517,"çĶ±äºİ":4518,"ä½łå¦Ĥä½ķçľĭå¾ħèĩªæĪĳåŃĺåľ¨çļĦè¾¹çķĮ":4519,"æİĴåºı":4520,"å¦ĤæŀľæĹ¶éĹ´åĢĴæµģ":4521,"è¿Ļä¸ĢéĹ®é¢ĺ":4522,"åĸĿæĿ¯":4523,"è®²çļĦæĺ¯":4524,"AIåı¯è¾ħåĬ©":4525,"æĦŁè§īæĮºæľīæĪĲå°±æĦŁçļĦ":4526,"ä¼ļè¯´è¯ĿçļĦ":4527,"åĴĮä½ĵéªĮ":4528,"åºĹ":4529,"å¯¹èĩªæĪĳ":4530,"äººç±»ç®Ģåı²":4531,"æķĪèĥ½":4532,"éĹ®é¢ĺè§£çŃĶ":4533,"è°·":4534,"å¦Ĥæŀľæīĭæľº":4535,"äºĭåĬ¡":4536,"åĲĮæĹ¶éĢļè¿ĩ":4537,"å¸®åĬ©äººä»¬":4538,"è´¨çĸĳ":4539,"åıĳå±ķæĸ¹åĲĳ":4540,"ä»İç§ĳåŃ¦":4541,"åĩĨç¡®çļĦ":4542,"åĪĽéĢłåĬĽçļĦ":4543,"ä»·åĢ¼è§Ĥå·®å¼Ĥ":4544,"ä½ĵçİ°äºĨ":4545,"æİĴæ¯Ĵ":4546,"æĺŁæĺŁ":4547,"æĶ¾æĿ¾ä¸Ģä¸ĭ":4548,"èģĮåľº":4549,"çĻ¾":4550,"éĤ»å±ħ":4551,"±¼":4552,"é±¼":4553,"åĪĨè§£":4554,"æĪĲåĬŁ":4555,"æĥħæĦŁæ·±åº¦":4556,"å¥½çľĭçļĦ":4557,"æ¬¾":4558,"å¸®å¿Ļ":4559,"ä»£è¡¨":4560,"å°ĨæĽ´åĬł":4561,"åĪĽæĸ°ä¸İä¼¦çĲĨ":4562,"åģ¥èº«":4563,"åĪĴåĪĨ":4564,"å¦Ĥä½ķå¹³è¡¡æĬĢæľ¯":4565,"äººç±»åĪĽéĢłåĬĽçļĦ":4566,"å°½ç®¡":4567,"åĨĻä½ľ":4568,"ä»İAåĪ°C":4569,"é¢ĺçĽ®ä¸Ń":4570,"çļĦæ·±åº¦ä¸İ":4571,"Ĳçĭ":4572,"çļĦåľºæĻ¯":4573,"ä¼Ļ":4574,"æĪĳä»Ĭå¤©":4575,"åºĬ":4576,"AIåĪĽä½ľ":4577,"é¢Ŀ":4578,"æĬĢæľ¯æ²»çĲĨçļĦ":4579,"æ±ł":4580,"æĹłæ³ķæĽ¿ä»£":4581,"å®ŀçİ°æĽ´":4582,"å·¥ä½ľä¸Ń":4583,"åħ¥æīĭ":4584,"çĭĲçĭ":4585,"ä»·åĢ¼è§ĤçļĦ":4586,"èīºæľ¯åĪĽä½ľçļĦè¾¹çķĮ":4587,"æİĴåĪĹ":4588,"å¿ĥçĲĨåŃ¦ä¸Ń":4589,"ä¸įä»ħæĺ¯":4590,"æĹ¶éĹ´åĢĴæµģæĺ¯ä¸Ģä¸ª":4591,"ä½ĨæĹłæ³ķæĽ¿ä»£":4592,"èº«å¿ĥåģ¥åº·":4593,"å»ºè®®æĤ¨æŁ¥çľĭ":4594,"çĭĲçĭ¸":4595,"ħéķ¿":4596,"çļĦè·¯å¾Ħ":4597,"ï¼ŁðŁĺĦ":4598,"æĪĳè§īå¾Ĺ":4599,"åĴĮAI":4600,"æĬĳ":4601,"æ²¡æľīä¸ªäºº":4602,"æĻºèĥ½ç³»ç»Ł":4603,"çĶµæ±ł":4604,"è®¤çŁ¥æ¡Ĩæŀ¶":4605,"å¤©æ°ĶæĥħåĨµ":4606,"éĢĤéħį":4607,"çªĹ":4608,"æĮģç»ŃåŃ¦ä¹łåĴĮ":4609,"ä»įæĺ¯":4610,"åĲĥä¸ľè¥¿":4611,"èĦĤ":4612,"æī¾åĪ°éĢĤåĲĪèĩªå·±çļĦ":4613,"æķĻå¸Ī":4614,"åĲĥäºĨä»Ģä¹Ī":4615,"åªĴä»ĭ":4616,"åĬłå¯ĨæĬĢæľ¯":4617,"æŃ£åľ¨éĩįå¡ĳ":4618,"è¶ĬæĿ¥è¶Ĭå¤ļ":4619,"åįĪé¤Ĳ":4620,"è·Łä½ł":4621,"åĴĮä¸»è§Ĥä½ĵéªĮ":4622,"å·¦":4623,"éĢļçĶ¨":4624,"ä¹Łåľ¨":4625,"çŃīæĸ¹å¼ı":4626,"åĪĽä½ľè¿ĩç¨ĭ":4627,"ç²Ĵ":4628,"ç¼ĺ":4629,"äººå·¥æĻºèĥ½ä¼¦çĲĨåĽ°å¢ĥä¸ĭ":4630,"è·¯ç¨ĭ":4631,"ä¸īä½ĵ":4632,"æ»¤":4633,"äººå·¥æĻºèĥ½ä¼¦çĲĨåľ¨è·¨æĸĩåĮĸèĥĮæĻ¯ä¸ĭ":4634,"æĪĳæĹłæ³ķå®ŀæĹ¶":4635,"æŀģç«¯":4636,"æ¢ģ":4637,"å¾®è°ĥ":4638,"æ¡¥æ¢ģ":4639,"æĵħéķ¿":4640,"è§£çŃĶéĹ®é¢ĺåĴĮ":4641,"æķ°åŃĹåĮĸåŃĺæ¡£":4642,"ä¸ĢçĽ´åľ¨åŃ¦ä¹łåĴĮ":4643,"ä¸Ģèĩ´æĢ§":4644,"çĶľçĤ¹":4645,"ä½łæľĢè¿ĳæľīæ²¡æľīå°Ŀè¯ķè¿ĩçĶ¨ä¸įåĲĮ":4646,"æĪĸéľĢè¦ģå¸®åĬ©":4647,"å¤©æ°ĶåºĶçĶ¨æĪĸç½ĳç«Ļ":4648,"çĽ²çĽ®":4649,"..":4650,"çļĦå»ºè®®":4651,"åı¯æİ§":4652,"ä¸ªæĪ¿éĹ´":4653,"éĢļä¿¡":4654,"æĸ¹èĥ½":4655,"æĸ°é¡¹çĽ®":4656,"ç®Ĺæ³ķä¼ĺåĮĸ":4657,"å¥½åĥı":4658,"æ·±å¤ľ":4659,"çŁ¥è¯Ĩä¸İ":4660,"ç¾İåĳ³":4661,"è¯¯è¯»":4662,"åŃ¦ä¹łæĸ°ä¸ľè¥¿":4663,"æĭĵå±ķäºĨ":4664,"èĹıçĿĢ":4665,"çº¢èī²":4666,"åĥıäººç±»ä¸Ģæł·":4667,"èļ":4668,"çļĦAIæ¨¡åŀĭ":4669,"æĸ¯":4670,"éĢģ":4671,"éľĢèŃ¦æĥķ":4672,"æĽ´å¹¿æ³Ľ":4673,"æī¾åĩº":4674,"éŁ§":4675,"çĸı":4676,"æ·±åº¦æĢĿèĢĥ":4677,"éļ¾å¿ĺ":4678,"ç¤¾äº¤äºĴåĬ¨":4679,"çªģçĦ¶æĥ³":4680,"çļĦä¿¡æģ¯åĴĮæľįåĬ¡":4681,"æĺ¾èĳĹæıĲåįĩ":4682,"è¡£çī©":4683,"¸ı":4684,"æĬĢèīº":4685,"åį¡":4686,"ä¼ļæĽ´":4687,"çīĮ":4688,"åĪ°åºķ":4689,"å½±åĵįäºĨ":4690,"å¥½åĲĥçļĦ":4691,"æ¡Į":4692,"éĿ¢åĮħ":4693,"æĢĿç»´çļĦ":4694,"çĶ±jingyaogongåĪĽå»º":4695,"çĶŁåĳ½çļĦ":4696,"å®¡ç¾İåĪ¤æĸŃ":4697,"ç¤¾äº¤åªĴä½ĵä¸Ĭ":4698,"æīĭå·¥èīº":4699,"å¤ļæĸ¹åıĤä¸İ":4700,"èĿ¶":4701,"11":4702,"äººä¸İäºº":4703,"åĩ¡":4704,"æĭĸ":4705,"æ¯ıä¸Ģæ¬¡":4706,"åİ»åĵª":4707,"åıįèĢĮ":4708,"åīįèĢħ":4709,"çİ°å®ŀä¸İ":4710,"åģ¥åº·çļĦ":4711,"åĮºåŁŁ":4712,"çļĦä¼¦çĲĨè¾¹çķĮ":4713,"éĩĬæĶ¾":4714,"éĺ³åħīå¾Īå¥½":4715,"å°½éĩı":4716,"åħ¬ä¼Ĺå¯¹":4717,"æİĮæı¡":4718,"éĿŀå±ĢåŁŁæĢ§":4719,"åľ¨è·¨æĸĩåĮĸ":4720,"æĪĳæĿ¥":4721,"ä¸İæĪĲéķ¿":4722,"ä½łæľīä»Ģä¹Īæĥ³èģĬçļĦåĲĹ":4723,"æĬĹ":4724,"ä¸įå¤Ł":4725,"ä¸ºä½ķ":4726,"è§£è¯»":4727,"ä¼ļå¸¦æĿ¥":4728,"æ¨¡åĿĹ":4729,"éĶģ":4730,"å°ıæĥĬåĸľ":4731,"ç¡®ä¿Ŀç®Ĺæ³ķ":4732,"åģļçļĦäºĭæĥħ":4733,"ä¸ĸçķĮçļĦçĲĨè§£":4734,"éĩıåŃĲè®¡ç®Ĺå¦Ĥä½ķå½±åĵį":4735,"æī¾åĪ°å±ŀäºİèĩªå·±çļĦ":4736,"æĻ®éĢĤ":4737,"åıªèĥ½åľ¨":4738,"åı¯èĥ½å¼ķåıĳå¯¹":4739,"æ´ŀå¯Ł":4740,"èĢĮéĿŀæĽ¿ä»£èĢħ":4741,"è¿ĳæľŁçĥŃéĹ¨":4742,"çĨŁ":4743,"å¤ļä»»åĬ¡å¤ĦçĲĨ":4744,"æĥ³è±¡åĬĽ":4745,"é¸¡èĽĭ":4746,"æĤ£èĢħ":4747,"çļĦæĢĿèĢĥ":4748,"çļĦéŁ³ä¹Ĳ":4749,"éĢĥ":4750,"ä»Ĭå¤©çļĦ":4751,"æķ°æį®æ²»çĲĨ":4752,"éªĳ":4753,"åĪĻæĺ¯":4754,"éĺ¿":4755,"æķ°åŃĹæİĴæ¯Ĵ":4756,"å°Ŀè¯ķçĶ¨":4757,"ä¸»è§Ĥä½ĵéªĮçļĦ":4758,"æĪĳçļĦåŃĺåľ¨æĹ¨åľ¨":4759,"æľīåĬ©äºİæıĲåįĩ":4760,"å°Ŀè¯ķè¿ĩçĶ¨":4761,"AIçĶŁæĪĲåĨħå®¹çļĦ":4762,"çļĦè¯Ŀé¢ĺ":4763,"æıŃç¤ºäºĨ":4764,"åįıåĬ©çĶ¨æĪ·è§£åĨ³éĹ®é¢ĺ":4765,"ç¡®ä¿ĿæĬĢæľ¯åºĶçĶ¨ç¬¦åĲĪ":4766,"æĪĳçļĦè®¾è®¡æĹ¨åľ¨ä»¥æľĢå°ıçļĦ":4767,"å·¨å¤§":4768,"or":4769,"ï¼Į**":4770,"çļĦéĩįè§Ĩ":4771,"ä½Ļ":4772,"è¿«":4773,"æľīæĹ¶":4774,"ä¸İåĪĽéĢłåĬĽ":4775,"èĩªæĪĳæĦŁçŁ¥":4776,"ä¸Ģä¸ªæİ¢éĻ©éĺŁ":4777,"ä»İå®¹":4778,"è¡¨éĿ¢":4779,"åĿı":4780,"éĺħè¯»ä¹¦ç±į":4781,"æ¢³":4782,"å£ģ":4783,"ä»¥ä¸ĭæĸ¹æ³ķ":4784,"ç¾¤ä½ĵçļĦ":4785,"èĢĮéĿŀæĽ¿ä»£åĵģ":4786,"åģļä¸Ģä»¶å°ıäºĭ":4787,"äººæĸĩåħ³æĢĢ":4788,"ä½łä¼ļæĢİä¹ĪæĶ¹åıĺè¿ĩåİ»":4789,"æĭĸå»¶":4790,"´èĿ¶":4791,"ä»¤":4792,"ä¼¤":4793,"æĪĳæŃ£åľ¨":4794,"æĺ¯å¤ļå°ĳ":4795,"åĪ°A":4796,"æĥħæĦŁçĲĨè§£":4797,"æľĢè¿ĳæľīæ²¡æľīéģĩåĪ°ä»Ģä¹Ī":4798,"å°ıçĮ«":4799,"ä½łæľĢè¿ĳæľīæ²¡æľīåħ³æ³¨":4800,"ä½łæľīæ²¡æľīç±»ä¼¼çļĦ":4801,"éķ¿åº¦":4802,"æľĢè¿ĳåľ¨åģļ":4803,"åĲİèĢħ":4804,"å±Ĥæ¬¡":4805,"æ·±åº¦çļĦ":4806,"åı£æĦŁ":4807,"å¤±çģµ":4808,"æĪĳä¼ļä¼ĺåħĪ":4809,"ä¸¤åĢį":4810,"æ»¡è¶³æĦŁ":4811,"åħ¼å®¹":4812,"éĢ»è¾ĳæİ¨çĲĨåĴĮ":4813,"æĸĩæĺİçļĦ":4814,"æ£Ģç´¢":4815,"ä»İåĵ²åŃ¦è§Ĵåº¦çľĭ":4816,"èĿ´èĿ¶":4817,"éĺ»ç¢į":4818,"æ¢³çĲĨ":4819,"Ġb":4820,"Ġy":4821,"ä¸İèĩªçĦ¶":4822,"åĴĮä¼¦çĲĨ":4823,"ä¸ŃéĿ¢ä¸´":4824,"çĶŁäº§":4825,"èµİ":4826,"æĸ¹ç¨ĭ":4827,"ç¡®å¹¸":4828,"åı¯ä»¥è¯ķè¯ķ":4829,"åĽłåħ¶":4830,"æľªæĿ¥AI":4831,"èģĬèģĬå¤©":4832,"æİ¥è§¦":4833,"æĶ¹åıĺä»Ģä¹Ī":4834,"æĹ¥çĽĬ":4835,"å¸¦æĿ¥äºĨ":4836,"ä»ĸäººçļĦ":4837,"å¹´åŃ¤çĭ¬":4838,"è½¬åıĺ":4839,"æĹ©æĻ¨":4840,"åĽ½éĻħç»Ħç»ĩ":4841,"ä¼ļä¸įä¼ļæĶ¹åıĺ":4842,"ç»ıåİĨåĲĹ":4843,"åĿļæŀľ":4844,"åı¤ä»£":4845,"æģĴ":4846,"ä½łå¦Ĥä½ķçľĭå¾ħèĩªæĪĳæĦıè¯Ĩä¸İåŃĺåľ¨çļĦè¾¹çķĮ":4847,"çĻ¾å¹´åŃ¤çĭ¬":4848,"æ¥":4849,"Ġ0":4850,"çļĦçŀ¬éĹ´":4851,"åľ¨äººå·¥æĻºèĥ½":4852,"äººç±»è¯Ńè¨Ģ":4853,"äººç±»ä»·åĢ¼è§Ĥ":4854,"è¿Ľé£Ł":4855,"äºĭé¡¹":4856,"åĩºæĿ¥":4857,"æĶ¹è¿Ľ":4858,"åĨ³çŃĸèĥ½åĬĽ":4859,"åĿĲ":4860,"æĮºå¥½çļĦ":4861,"å¹´è½»":4862,"äººéĻħäºĴåĬ¨":4863,"ä¸įèĥ½æĺ¯":4864,"äºĨä¸Ģæľ¬":4865,"è§ĤçľĭçĶµå½±çļĦèĥ½åĬĽ":4866,"ä»ĭåħ¥":4867,"åıĹæ¬¢è¿İçļĦ":4868,"æĪĳæĹłæ³ķæıĲä¾Ľå®ŀæĹ¶å¤©æ°Ķä¿¡æģ¯":4869,"æķĳèµİ":4870,"è¿ģ":4871,"åľ¨ä¸Ģä¸ª":4872,"åľ¨åĵªéĩĮ":4873,"ä¸İä¿¡æģ¯":4874,"ä¿ĿåŃĺ":4875,"è¾¹ç¼ĺ":4876,"çĽ®çļĦæĺ¯":4877,"ä½łä»Ĭå¤©çļĦ":4878,"éģ¿åħįç®Ĺæ³ķåģıè§ģ":4879,"ç¤¾ä¼ļäºĴåĬ¨":4880,"æīĢåľ¨":4881,"åŁºäºİæķ°æį®åĴĮç®Ĺæ³ķ":4882,"æ¯ıå¤©åıª":4883,"çĸ¾":4884,"è¿Ĳç®Ĺ":4885,"åľºæĻ¯ä¸ĭ":4886,"åįıåĬ©ä½ł":4887,"å®¡æł¸":4888,"åĬłåī§äºĨ":4889,"åıĸä»£äººç±»":4890,"èĥĮåĲİçļĦ":4891,"æħ¢æħ¢å°±":4892,"èĩªæĪĳæĦıè¯Ĩä¸İåŃĺåľ¨çļĦè¾¹çķĮ":4893,"æľĢè¿ĳæľīæ²¡æľīéģĩåĪ°ä»Ģä¹Īè®©ä½łçī¹åĪ«":4894,"è´´è¿ĳ":4895,"50":4896,"ĠE":4897,"Ġa":4898,"İåĳĢ":4899,"çļĦéļ¾é¢ĺ":4900,"çļĦå¿ĥæĢģ":4901,"æĪĳéļıæĹ¶":4902,"ä¸İéļĲç§ģä¿ĿæĬ¤":4903,"äººæĢ§åĮĸ":4904,"åı¯è¿½æº¯":4905,"åĵİåĳĢ":4906,"åįļ":4907,"è¿Ļç±»":4908,"æĭĨè§£":4909,"ä¹Łåı¯èĥ½":4910,"çĤ¸":4911,"ä½łä»Ĭå¤©æľĢæĥ³":4912,"å¹¶æıĲä¾Ľ":4913,"ç²¾ç¡®":4914,"èįī":4915,"è§Ĩéĩİ":4916,"çĽ¸å¯¹":4917,"é¢ĦçŁ¥":4918,"éļıæľº":4919,"ç´łåħ»":4920,"å½ĵåīįæĬĢæľ¯":4921,"è·¨åŃ¦ç§ĳåĲĪä½ľ":4922,"å¦Ĥæŀľä½łå¯¹":4923,"é©±åĬ¨çļĦ":4924,"ä¸ŃçļĦä¼¦çĲĨåĽ°å¢ĥ":4925,"æİ¨èįĲä¸ĢäºĽç»ıåħ¸æĪĸ":4926,"è¡¨æĥħåĮħ":4927,"åĢ¡è®®":4928,"è½¨è¿¹":4929,"ç²ĴåŃĲ":4930,"çĸ¾çĹħ":4931,"çĳ":4932,"ĶåŃĲ":4933,"çļĦè®¨è®º":4934,"æĺ¯è°ģ":4935,"ä¸įåľ¨":4936,"AIéĢļè¿ĩ":4937,"ä½Ĩåı¯":4938,"æĸĩåĮĸè®¤åĲĮ":4939,"å®ŀçİ°å¹³è¡¡":4940,"æľīè¶£çļĦä¹¦":4941,"æĶ¹åıĺäºĨ":4942,"åĽŀå¿Ĩ":4943,"æł¹åŁº":4944,"çľŁæŃ£çĲĨè§£":4945,"ä¸įæĸŃä¼ĺåĮĸ":4946,"åģľçķĻ":4947,"èī¯å¥½":4948,"æľĢè¿ĳæľīæ²¡æľīäººåĸľæ¬¢çľĭ":4949,"å¦Ļ":4950,"æ¬¢è¿İéļıæĹ¶æıĲéĹ®":4951,"éĿ¢å¯¹éĿ¢äº¤æµģ":4952,"Ġä»ĸ":4953,"çļĦæĸ¹æ³ķ":4954,"æľīç©º":4955,"è§Ī":4956,"ä¸Ńèŀįåħ¥":4957,"çķ´":4958,"ç®Ĺæ³ķéĢıæĺİæĢ§":4959,"æķ°åŃĹæĹ¶ä»£":4960,"èĻ«":4961,"éķ¿æĹ¶éĹ´":4962,"é£Łè°±":4963,"æİ¥è¿ĳ":4964,"ä½ľä¸ºAIåĬ©æīĭ":4965,"ä¸ªäººçļĦ":4966,"è¾ħåĬ©åĪĽä½ľ":4967,"èĮĥçķ´":4968,"è§īå¾ĹçĶŁæ´»":4969,"èĥģ":4970,"æ¸©æŁĶ":4971,"çĪĨ":4972,"çªģçł´ä¼łç»Ł":4973,"æĭĵå®½":4974,"ä¼¦çĲĨæ¡Ĩæŀ¶çļĦ":4975,"å¤ļåħĥæĸĩåĮĸ":4976,"ç¢İçīĩæĹ¶éĹ´":4977,"çļĦæł¸å¿ĥåľ¨äºİ":4978,"æĵįæİ§":4979,"æĦŁå®ĺä½ĵéªĮ":4980,"å¨ģèĥģ":4981,"æĽ´æ·±å±Ĥæ¬¡":4982,"èĩªæĪĳæĦıè¯Ĩæĺ¯åŃĺåľ¨çļĦä¸Ģéĥ¨åĪĨ":4983,"åĲĮæĹ¶å¤ĦçĲĨå¤ļä¸ªä»»åĬ¡":4984,"ä½łæľĢè¿ĳæľīæ²¡æľīè§īå¾ĹæĹ¶éĹ´è¿ĩå¾Ĺçī¹åĪ«":4985,"©åºı":4986,"èĸ":4987,"åĪº":4988,"å¿į":4989,"ç§©åºı":4990,"ä¼ļéģĩåĪ°":4991,"ä½Ĩäººç±»":4992,"åı¯èĥ½å¢ŀå¼º":4993,"èĩªæĪĳæĺ¯":4994,"éĶħ":4995,"åĸ»":4996,"æĪĳä»¬ä¼ļä¸įä¼ļæĽ´":4997,"éľĢè¦ģåľ¨":4998,"ä¸Ĭä¸ĭ":4999,"éĢīæĭ©ä¸Ģä¸ª":5000,"æĿĥéĻĲ":5001,"ä»¶äºĭ":5002,"è¡¨è¾¾çļĦ":5003,"è¯´ä¸į":5004,"æī¿æĭħ":5005,"èĪ¬":5006,"æĺ¾ç¤º":5007,"å¾®é£İ":5008,"æĽ´é«ĺæķĪçļĦ":5009,"çŃĶæ¡Īæĺ¯":5010,"è¦ģä¸įè¦ģä¸Ģèµ·åİ»":5011,"äººçļĦæīĭæľº":5012,"èĵĿèī²":5013,"å¯ĨçłģåŃ¦":5014,"ä½łæľĢè¿ĳæľīæ²¡æľīéģĩåĪ°ä»Ģä¹Īçī¹åĪ«":5015,"ä¸ªä½ĵå¯¹èĩªèº«åŃĺåľ¨çļĦ":5016,"ä¼Ļä¼´":5017,"çļĦå®ļä¹ī":5018,"ä½łç©¶ç«Ł":5019,"åĮĹ":5020,"ä¸įä¸Ģæł·":5021,"ä»Ĭå¤©è¯¥":5022,"åı¯èĥ½æºĲäºİ":5023,"æĻºèĥ½éĢļå¸¸æĮĩ":5024,"è¦ģæĺ¯":5025,"è´¥":5026,"ç®Ĺæ³ķçļĦ":5027,"æĪĳä»¬æĿ¥":5028,"åĸľåī§":5029,"æ¯ĶC":5030,"ä»įèĥ½":5031,"å·¥ä½ľæķĪçİĩ":5032,"Ġ100":5033,"å¿ĥçĲĨåģ¥åº·":5034,"ä½Ĩåı¯ä»¥æİ¨èįĲä¸ĢäºĽ":5035,"è®°å¿ĨçļĦ":5036,"ä¾¿æį·":5037,"ä½łä»Ĭå¤©åĲĥäºĨåĲĹ":5038,"åĩłéĥ¨":5039,"éĩıåŃĲè®¡ç®Ĺä¸İèīºæľ¯åĪĽä½ľçļĦè¾¹çķĮ":5040,"ä»Ģä¹Īçī¹åĪ«çļĦ":5041,"è·³èĪŀ":5042,"æĪĳæ²¡æľīæĥħæĦŁæĪĸä¸»è§Ĥä½ĵéªĮ":5043,"å¦Ĥæŀľæ¯ıå¤©åıªåħģè®¸èĩªå·±åģļä¸Ģä»¶äºĭ":5044,"ä¸Ģä¸ªæİ¢éĻ©éĺŁåľ¨":5045,"¸æĿĥ":5046,"çļĦè¶£äºĭ":5047,"äºĳ":5048,"çľģ":5049,"éľ¸æĿĥ":5050,"æıĴ":5051,"éĹ´çļĦ":5052,"ä¼¦çĲĨå±ĤéĿ¢":5053,"åı¯èĥ½æĶ¹åıĺ":5054,"é¢ĺæĿĲ":5055,"å»ºæ¨¡":5056,"æ¬²":5057,"å¸®åĬ©æĪĳ":5058,"èĮ§":5059,"æĦŁè§īæľīçĤ¹":5060,"åĲĦèĩª":5061,"åĮħå®¹æĢ§çļĦ":5062,"è·¨åŃ¦ç§ĳåįıä½ľ":5063,"å»¶ç»Ń":5064,"çľĭçľĭæľīæ²¡æľī":5065,"å¥¶èĮ¶":5066,"æ£®æŀĹ":5067,"ä¸Ĭä¸ĭæĸĩ":5068,"éľĢæ³¨æĦı":5069,"éľĢæĺİç¡®":5070,"æĬĢæľ¯å®ŀçİ°":5071,"ä½ĨæľĢç»Ī":5072,"æĸĩåĮĸåĨħæ¶µ":5073,"æĪĸæĺ¯":5074,"åĲĪæ³ķ":5075,"æķ°æį®å¤ļæł·æĢ§":5076,"æ°Ķè±¡":5077,"ç¤¾ä¼ļçļĦ":5078,"ðŁĮ":5079,"ä¸įéĶĻçļĦçĶµå½±":5080,"æĢ»ç»ĵ":5081,"åĮºåĪ«":5082,"æĦıè¯ĨçļĦèµ·æºĲ":5083,"Ġ20":5084,"åŁ¹è®Ń":5085,"ä»ĸä»¬çļĦ":5086,"è¥¿æĸ¹å¼ºè°ĥ":5087,"åģļåĩºæĽ´":5088,"æĪĳçļĦè®¾è®¡æĹ¨åľ¨ä»¥æľĢå°ıçļĦè®¡ç®ĹèµĦæºĲ":5089,"èĮ§æĪ¿":5090,"ä¸İéĢīæĭ©":5091,"ä¸İè¡ĮåĬ¨":5092,"åŃĺåľ¨æľ¬è´¨":5093,"å°ıåıĤæķ°":5094,"å¤ĦçĲĨçĶ¨æĪ·":5095,"é«ĺæķĪçİĩ":5096,"ä½łä»Ĭå¤©æĹ©é¤Ĳ":5097,"æŃ£å¿µ":5098,"éģ¿åħįéĻ·åħ¥":5099,"åķ¥":5100,"è®°å¾Ĺ":5101,"æ¯ıå¤©éĥ½åľ¨":5102,"æľĢè¿ĳæľīæ²¡æľīäººåĴĮä½ł":5103,"çº¿ç´¢":5104,"ä¼ĺåħĪçº§æİĴåºı":5105,"éĩĩåıĸ":5106,"å¦Ĥæŀľä½łæľīçī¹å®ļçļĦ":5107,"æīĵåĬ¨":5108,"ä¸İæĥħæĦŁåħ±é¸£":5109,"åĩºåİ»æķ£æŃ¥":5110,"éĻªä¼´":5111,"åĲĮæĹ¶ä¹Łåľ¨":5112,"ä¾µçĬ¯":5113,"ï¸ı":5114,"çļĦä½ľåĵģ":5115,"è¿ħ":5116,"åħĶåŃĲ":5117,"åºľ":5118,"ä¸įç¬¦åĲĪ":5119,"AIæĬĢæľ¯çļĦ":5120,"å®ŀæĸ½":5121,"æĸĩåĮĸåĲĮè´¨åĮĸ":5122,"æ·¡":5123,"åĪĻéĢļè¿ĩ":5124,"è¿Ļç§įåĪĨæŃ§":5125,"åĬłçıŃ":5126,"èį·":5127,"éĹ¨C":5128,"éĩĮæľī":5129,"ç³»ç»ŁçļĦ":5130,"ä»¥åıĬå¯¹":5131,"äººç±»æĥħæĦŁçļĦ":5132,"èĩªæĪĳè®¤çŁ¥çļĦ":5133,"èĪª":5134,"æĶ¿åºľ":5135,"å¹³è¡¡æĬĢæľ¯è¿ĽæŃ¥":5136,"202":5137,"åĨ¥æĥ³æĪĸ":5138,"æ²īæµ¸å¼ı":5139,"éĥĬæ¸¸":5140,"Ġâ":5141,"æĢª":5142,"æł¡":5143,"è¿Ļæĺ¯":5144,"æĸ°åŀĭ":5145,"è§Ĥæµĭ":5146,"ä¹Łå¾Ī":5147,"å¹¶éĢļè¿ĩ":5148,"ä½łæľīæ²¡æľīçľĭè¿ĩ":5149,"å¤§è§Ħæ¨¡":5150,"è½¯":5151,"åīįæ²¿":5152,"ä¹ĭåĴĮ":5153,"èĮĥå¼ı":5154,"èĦī":5155,"éĩįè¦ģçļĦ":5156,"åĲ¬æĩĤ":5157,"çİ¯å¢ĥçļĦ":5158,"æĪĳæĹłæ³ķçĽ´æİ¥":5159,"æķ°æį®éļĲç§ģä¿ĿæĬ¤":5160,"æīĵç®Ĺ":5161,"æ¸©æļĸåĳ¢":5162,"å¹¶éĿŀç»Ŀå¯¹":5163,"æĲº":5164,"éļ¾ä»¥å®Įåħ¨":5165,"å¤ļåħĥåĮĸ":5166,"ä»Ĭå¤©è¿ĩå¾Ĺè¿ĺä¸įéĶĻ":5167,"æĪĳä»¬åı¯ä»¥éĢļè¿ĩ":5168,"æ£Ģæµĭ":5169,"å¿ĥæĥħä¹Łå¾Īå¥½":5170,"ä¸°å¯ĮçļĦ":5171,"é«ĺæķĪå¤ĦçĲĨä»»åĬ¡":5172,"æł¹æį®é¢ĺçĽ®æĿ¡ä»¶":5173,"éľĢè¦ģæĪĳå¸®ä½ł":5174,"ä¼¦çĲĨå®¡æŁ¥æľºåĪ¶":5175,"çľŁå®ŀå¼ĢæºĲæ¨¡åŀĭ":5176,"éĴĪå¯¹":5177,"¡Ĩæŀ¶":5178,"İ¬":5179,"æĻºèĥ½çļĦ":5180,"ä¿¡æģ¯ä¸İ":5181,"äººå·¥æĻºèĥ½æ³ķæ¡Ī":5182,"çĶ¨æĪ·åıįé¦Ī":5183,"åĪĻåı¯èĥ½":5184,"æľªæĿ¥éľĢéĢļè¿ĩ":5185,"åģļèıľ":5186,"ä¸»è§ĤåĪ¤æĸŃ":5187,"å·®è·Ŀ":5188,"ä½łæľīæ²¡æľīåıĳçİ°":5189,"è¿ĺåİŁ":5190,"éĢ»è¾ĳä¸İ":5191,"çĭĤ":5192,"æĢ»åħ±":5193,"å®ŀéĻħåºĶçĶ¨":5194,"å¡ĳéĢłäºĨ":5195,"é©¾":5196,"çŁ³æĿ¿":5197,"æľªçŁ¥çļĦ":5198,"ä»¥æľĢå°ıçļĦåıĤæķ°":5199,"ä»Ĭå¤©æĥ³éĹ®éĹ®ä½ł":5200,"ĠåĴĮ":5201,"çļĦæĿ¥è¯´":5202,"çĶ³":5203,"è¿ĩæ¡¥":5204,"ä¸Ģåľº":5205,"ä¸Ńå¦Ĥä½ķ":5206,"æĬĢæľ¯æīĭæ®µ":5207,"æĪĸä½¿çĶ¨":5208,"æĽ´æĺ¯":5209,"åı¯èĥ½åĤ¬çĶŁ":5210,"æľĢè¿ĳæľīæ²¡æľīä»Ģä¹Īæľīè¶£çļĦ":5211,"é«ĺåº¦":5212,"è¯Ńä¹ī":5213,"åħ±åŃĺ":5214,"åħ¶ä¸Ń":5215,"éģĩåĪ°äºĨä¸ĢäºĽ":5216,"ä»£åħ¥":5217,"ä¸»è§ĤçļĦ":5218,"å¸¸è¢«":5219,"å»ºè®®æł¹æį®":5220,"æĢ»çļĦæĿ¥è¯´":5221,"æķĻåŃ¦":5222,"è®©äººåį°è±¡æ·±åĪ»":5223,"çĽ®åīįå°ļæĹł":5224,"åħ¶ä»ĸéĹ®é¢ĺ":5225,"æģ¼":5226,"éĩıåŃĲç®Ĺæ³ķä¼ĺåĮĸ":5227,"çľĭä¼¼ç®Ģåįķ":5228,"çĥ¦æģ¼":5229,"èķ´":5230,"åĲĪéĢĤçļĦ":5231,"ä¸ĬæĺłçļĦ":5232,"éĽ¶é£Ł":5233,"ĥåľ":5234,"åı¯ä¿¡":5235,"ä¸įä½ı":5236,"åŃ¦æľ¯":5237,"éĢļçŁ¥":5238,"ä¼¦çĲĨæłĩåĩĨçļĦ":5239,"æĥħæĦŁäº¤æµģ":5240,"æľĢè¿ĳæľīæ²¡æľīéģĩåĪ°è¿ĩ":5241,"åŀĥåľ":5242,"å¤įçĽĺ":5243,"å¤§çļĦ":5244,"éĥ½ä¼ļ":5245,"æĦŁè§īæĮºæľīæĦıæĢĿçļĦ":5246,"å¤±è¡¡":5247,"è½¬åĬ¨":5248,"æĪĳæĺ¯çĶ±":5249,"ç¼ºå¤±":5250,"ä»ħèĥ½":5251,"çļĦå°ıäºĭ":5252,"æģĲ":5253,"æľīæķĪçļĦ":5254,"çĭ¬ç«ĭæĢ§":5255,"é¢ĨåŁŁçļĦåºĶçĶ¨":5256,"ä½łå¦Ĥä½ķçľĭå¾ħèĩªæĪĳæĦıè¯Ĩä¸İåŃĺåľ¨çļĦæľ¬è´¨":5257,"å¼łåĬĽ":5258,"ä¸Ģéĥ¨åı«":5259,"æľ¬åľŁåĮĸ":5260,"çīĽå¥¶":5261,"æĦıæĥ³ä¸įåĪ°çļĦ":5262,"æ¨¡æĭŁæĥħæĦŁåıįåºĶ":5263,"åŀĥåľ¾":5264,"çļĦåĩĨç¡®æĢ§":5265,"æľīæīĢ":5266,"åĲ¦çĲĨè§£":5267,"è¿ĩæ»¤":5268,"å¯¿":5269,"ä¸įçŁ¥éģĵ":5270,"æķ°çļĦ":5271,"AIæĪĲä¸º":5272,"åŃ¦èĢħ":5273,"äºĨå¾Īå¤ļ":5274,"è§īéĨĴ":5275,"å°ıæĺİ":5276,"ä»»åĬ":5277,"äºĽä»Ģä¹Ī":5278,"éĩıåŃĲæĢģ":5279,"å°ĨéĿ¢ä¸´":5280,"å®ŀçİ°çĽ®æłĩ":5281,"è¿Ļç§įæĬĢæľ¯":5282,"æ¯ĶA":5283,"åĨ³çŃĸéĢ»è¾ĳ":5284,"åħ¨çĲĥæĢ§":5285,"æľīè¶£çļĦçĶµå½±":5286,"ä»įçĦ¶":5287,"æİ¨åĬ¨ç¤¾ä¼ļ":5288,"æĶ¾å¼ĥ":5289,"äººå·¥æĻºèĥ½ä¼¦çĲĨåľ¨è·¨æĸĩåĮĸåĲĪä½ľ":5290,"éĢĤåĲĪå¤ĸåĩº":5291,"æİĴæĶ¾":5292,"èıľè°±":5293,"æ£µ":5294,"åı¯æĮģç»ŃçļĦ":5295,"å¦Ĥæŀľä½łæľīä»»ä½ķéĹ®é¢ĺ":5296,"ä¸įåı¯éĢĨ":5297,"æĦıå¤ĸçļĦ":5298,"ä½łå¦Ĥä½ķå¹³è¡¡æķĪçİĩä¸İåĩĨç¡®æĢ§":5299,"äººå·¥æĻºèĥ½çļĦæľªæĿ¥":5300,"ä½łæľĢè¿ĳæľīæ²¡æľīéģĩåĪ°ä»Ģä¹Īè®©ä½łçī¹åĪ«":5301,"æ··ä¹±":5302,"èĢĮæĦıè¯ĨåĪĻæ¶īåıĬ":5303,"ä¼ļå¦Ĥä½ķæĶ¹åıĺä½łçļĦçĶŁæ´»":5304,"èĴ¸":5305,"è¿ħéĢŁ":5306,"é©¾é©":5307,"çļĦç»ĵæŀľ":5308,"çļĦæķĳèµİ":5309,"ä»ª":5310,"åĴĮåĵ²åŃ¦":5311,"ä»Ĭå¤©åľ¨":5312,"ä¼¦çĲĨåĽ°å¢ĥ":5313,"å°ıé¡¹çĽ®":5314,"æ¯ıåĳ¨":5315,"éľĢè¦ģéĢļè¿ĩ":5316,"è½®":5317,"ä»»åĬ¡ä¼ĺåħĪçº§":5318,"å»ºç«ĭåĮħå®¹æĢ§":5319,"å·®å¼Ĥå¯¼èĩ´":5320,"ä¾Ŀæį®":5321,"åĽŀé¡¾":5322,"æĦŁçŁ¥èĥ½åĬĽ":5323,"å®īéĿĻ":5324,"ä¸ªä½ĵå·®å¼Ĥ":5325,"è¿ĲçĶ¨":5326,"æł¸å¿ĥåľ¨äºİ":5327,"åĪĨéĴŁä¸ĵæ³¨":5328,"æĪĳæĹłæ³ķå®ŀéĻħ":5329,"èĩªæĪĳè®¤çŁ¥ä¸İ":5330,"çĥŃæĥħ":5331,"åįıåĬ©æĤ¨":5332,"åı¤èĢģ":5333,"ä½łä»Ĭå¤©æľīæ²¡æľīéģĩåĪ°è¿ĩéľĢè¦ģå¿«éĢŁ":5334,"ä¸»è¦ģä½ĵçİ°åľ¨ä»¥ä¸ĭ":5335,"ä½łä»Ĭå¤©æĹ©é¤ĲåĲĥäºĨä»Ģä¹Ī":5336,"ä½łæĺ¯ä¸įæĺ¯ä¹Ł":5337,"çĲĨæĢ§ä¸İ":5338,"æĺ¯åħ³éĶ®":5339,"ä¸įåħ·å¤ĩ":5340,"å¿§":5341,"éľĢéģµå¾ª":5342,"æıĲåıĸ":5343,"æĸĩåĮĸä¿ĿæĬ¤":5344,"ä»Ĭå¤©æľīæ²¡æľī":5345,"åı¯èĥ½éĩįå¡ĳ":5346,"æĪĳä»¬å¦Ĥä½ķ":5347,"éĩıåŃĲå®īåħ¨":5348,"æĺ¯åĲ¦åºĶè¯¥":5349,"æ¯Ķçī¹":5350,"åīįè¡Į":5351,"ç§ĳåŃ¦çķĮ":5352,"çİ°å®ŀä¸Ń":5353,"èµĦè®¯":5354,"çĥ¤":5355,"è¿ĩç¨ĭä¸ŃçļĦ":5356,"å¼ĢåıĳèĥĮæĻ¯":5357,"åĢ¼å¾Ĺä¸Ģ":5358,"æĦŁè§īå¾Īæľīè¶£":5359,"åĨħå¿ĥçļĦå¹³éĿĻ":5360,"çĽĳç®¡æ¡Ĩæŀ¶":5361,"ĸçĶ³":5362,"æľīçĽĬ":5363,"æĪĳåŃĺåľ¨çļĦ":5364,"ä¸İä»·åĢ¼è§Ĥ":5365,"ä¸İä¸ĸçķĮçļĦ":5366,"åĴĮåŃ¦ä¹ł":5367,"å¯¹çİ°å®ŀçļĦ":5368,"éĿĴ":5369,"å½±è§Ĩ":5370,"å¥¹":5371,"åĪĨå¸ĥ":5372,"å¿ĥçģµ":5373,"ä¿¡æģ¯èĮ§æĪ¿":5374,"æĹłæĦıè¯Ĩ":5375,"å°ıç¡®å¹¸":5376,"æĹłæ³ķæıĲä¾Ľ":5377,"éĢĤçĶ¨":5378,"è¡¨ç¤º":5379,"æĤ¦":5380,"ä¹Ĳè¶£":5381,"éļ¾åº¦":5382,"å¼ķåıĳäºĨ":5383,"èĤĸçĶ³":5384,"ç¥ŀç§ĺ":5385,"çļĦä¼¦çĲĨåĩĨåĪĻ":5386,"å¹¿åº¦":5387,"ä½łä»Ĭå¤©æľīæ²¡æľīéģĩåĪ°è¿ĩ":5388,"åĲ¸å¼ķ":5389,"æĦŁè§īå¾Īåħħå®ŀ":5390,"éĿ©æĸ°":5391,"åĽ°æī°çļĦäºĭæĥħ":5392,"åħĭçļĦæķĳèµİ":5393,"å®ĿèĹı":5394,"åģľæŃ¢è½¬åĬ¨":5395,"ä¸įåĲĮæĸĩåĮĸèĥĮæĻ¯ä¸ĭçļĦ":5396,"äººä¸İäººä¹ĭéĹ´çļĦ":5397,"éĢĥéģ¿":5398,"ä½łæľĢè¿ĳæľīæ²¡æľīåħ³æ³¨è¿ĩ":5399,"ä½łæľĢè¿ĳæľīæ²¡æľīè§īå¾ĹæĹ¶éĹ´è¿ĩå¾Ĺçī¹åĪ«å¿«":5400,"èķ´åĲ«":5401,"èĤĸçĶ³åħĭçļĦæķĳèµİ":5402,"æĥ§":5403,"å¦Ĥæķ°æį®éļĲç§ģ":5404,"ä¸įå¯¹":5405,"æľĢè¿ĳåĺĽ":5406,"é¢ł":5407,"ä»Ĭå¤©æ²¡":5408,"è¿Ļè®©æĪĳ":5409,"éĻĪ":5410,"çľŁçĽ¸":5411,"çľŁè¯Ŀ":5412,"èºº":5413,"æ¯ıä¸ĢæŃ¥":5414,"å¸®åĬ©æĤ¨":5415,"æ¨¡åŀĭåľ¨":5416,"äººå·¥æĻºèĥ½ä¼¦çĲĨåĽ°å¢ĥ":5417,"éĹ¨B":5418,"Ġ$$":5419,"å±ŀæĢ§":5420,"ä»Ĭå¤©æĥ³åĲĥ":5421,"AIåľ¨èīºæľ¯åĪĽä½ľä¸Ń":5422,"ç±»åŀĭæĪĸ":5423,"æĶ¶éĽĨ":5424,"æĸĩåĮĸä¼łæī¿çļĦ":5425,"æĪĳä½ľä¸ºAIæ²¡æľī":5426,"ä½łä»Ĭå¤©æĥ³ä¸įæĥ³":5427,"ç¢³æİĴæĶ¾":5428,"æĸĩåŃ¦ä½ľåĵģ":5429,"è¯ķè¯ķçľĭåĲĹ":5430,"ä¸¥æł¼çļĦ":5431,"æĽ´å¥½åľ°çĲĨè§£åĴĮè§£åĨ³éĹ®é¢ĺ":5432,"è¯´ä¸įå®ļ":5433,"Jingyaogong":5434,"as":5435,"ç¯":5436,"çĲ´":5437,"æĺ¯æĮĩ":5438,"æľĢè¿ĳå°Ŀè¯ķäºĨ":5439,"æľĢè¿ĳè¶ĬæĿ¥è¶Ĭå¤ļ":5440,"éľĢæł¹æį®":5441,"æĬĢæľ¯æ²»çĲĨ":5442,"æĬĢæľ¯æ»¥çĶ¨":5443,"å·¥ç¨ĭ":5444,"æľīæ²¡æľīä»Ģä¹Ī":5445,"ï¼ļ$":5446,"æĽ´ç²¾åĩĨ":5447,"æľºæŀĦ":5448,"æľ¬èĥ½":5449,"æµģè¡Į":5450,"éĩıåŃĲæ¯Ķçī¹":5451,"æľªæĿ¥ä¼ļä¸įä¼ļæľī":5452,"ä¿ĿæĮģå¼ĢæĶ¾":5453,"ç²¥":5454,"åįıåķĨ":5455,"å¾Īæľīè¶£":5456,"ä½łå¦Ĥä½ķåľ¨":5457,"å¼ĤåĮĸ":5458,"ä¸ªäººæĪĲéķ¿":5459,"ä¸īäºº":5460,"è¾ħåĬ©åĨ³çŃĸ":5461,"éĢıæĺİæĢ§ä¸İ":5462,"ä½łæľīçľĭè¿ĩ":5463,"çļĦä¿¡æģ¯å¤ĦçĲĨåĴĮ":5464,"ä½łæĺ¯åĲ¦èĥ½":5465,"åİĭç¼©":5466,"ä¸İæĸĩåĮĸéģĹäº§":5467,"çļĦçĲĨè§£åŃĺåľ¨å·®å¼Ĥ":5468,"å±ĤéĿ¢çļĦ":5469,"ç»ĦæĪĲ":5470,"å¥ĩæĢª":5471,"æĺłå°Ħ":5472,"åĬ¨çī©çļĦ":5473,"ä¸ªæĢ§åĮĸåŃ¦ä¹ł":5474,"åĪĩæį¢":5475,"ä¸įåĲĮåĽ½å®¶å¯¹":5476,"GDPRä¸İ":5477,"åĺ¿åĺ¿":5478,"æĬĺå°Ħ":5479,"æ°¸æģĴ":5480,"çĸıç¦»":5481,"å¿įä¸įä½ı":5482,"Ġæľīä»Ģä¹Īæĥ³èģĬçļĦåĲĹ":5483,"åľĪ":5484,"å¦ĤéĢļè¿ĩ":5485,"ä»¥ä¿ĥè¿Ľ":5486,"éĢļå¾Ģ":5487,"åįĸ":5488,"æıĲé«ĺæķĪçİĩ":5489,"å¥ĸ":5490,"å¹³æĹ¶":5491,"å¹³åĩ¡":5492,"ä¸»æĦı":5493,"é«ĺç²¾åº¦":5494,"åı¯ä»¥æĺ¯":5495,"çĲĨè§£ä¸º":5496,"éĿŀå¸¸":5497,"åĪĽä½ľä¸»ä½ĵ":5498,"æĹłæ³ķè§ĤçľĭçĶµå½±":5499,"ä¸Ģèµ·åİ»":5500,"ä½łæľīæ²¡æľīåĸľæ¬¢çļĦ":5501,"èĮ«":5502,"æľīä»Ģä¹Īçī¹åĪ«":5503,"ä»įåľ¨äºİ":5504,"åĸľæ¬¢çľĭ":5505,"èĬĤèĥ½":5506,"ç§ĳåŃ¦å®¶":5507,"åĪ¤æĸŃåĬĽ":5508,"é¢Ħè®¾":5509,"ä½łæľĢè¿ĳå¿ĥæĥħæĢİä¹Īæł·":5510,"æ¼ł":5511,"ä¸İä¼¦çĲĨçº¦æĿŁ":5512,"ä¼ļä¸įä¼ļå½±åĵį":5513,"çĶŁçī©ä½ĵ":5514,"éĢļè¿ĩç®Ĺæ³ķçĶŁæĪĲ":5515,"æĪĸè®¸ä¼ļ":5516,"è¿·èĮ«":5517,"è·¨åŃ¦ç§ĳçłĶç©¶":5518,"èī¯å¥½çļĦ":5519,"ç©¿è¶ĬåĪ°":5520,"å±ķçİ°åĩº":5521,"å¿ħè¦ģæĹ¶":5522,"ä½łæľĢè¿ĳæľīæ²¡æľīéģĩåĪ°è¿ĩéľĢè¦ģå¿«éĢŁåĨ³çŃĸ":5523,"éĩıåŃĲè®¡ç®Ĺåľ¨èīºæľ¯åĪĽä½ľ":5524,"äºĶ":5525,"åĮ¿":5526,"éĹ²":5527,"è¡Ĺ":5528,"æľĢè¿ĳè¿ĺä¸įéĶĻ":5529,"çĶ¨æīĭæľº":5530,"åĲĮäºĭ":5531,"æĽ´æĺĵ":5532,"å¦Ĥä½ķåĪ©çĶ¨":5533,"æĦıè¯Ĩæ¶īåıĬ":5534,"ä¿¡æģ¯èİ·åıĸ":5535,"æ¬¡æ":5536,"åŃ¦ä¹łæĸ¹æ³ķ":5537,"è¯ķåĽ¾":5538,"åıĳå±ķçļĦ":5539,"æİ¨èįĲçļĦçĶµå½±":5540,"å»ºç«ĭèģĶç³»":5541,"åİŁåĽł":5542,"èµĦæĸĻ":5543,"ç¬¬ä¸Ģä¸ª":5544,"è¯ĨåĪ«åĴĮ":5545,"åĨįæ¬¡":5546,"è´Łèį·":5547,"éģ¿åħįè¿ĩåº¦æ¶ĪèĢĹ":5548,"åħ¨çĲĥæķ°åŃĹæ²»çĲĨçļĦæľªæĿ¥":5549,"çĽ¸äºĴäº¤ç»ĩ":5550,"ä½łä»Ĭå¤©æĥ³åĲĥä»Ģä¹Ī":5551,"ãĢįï¼Į":5552,"æĪĳçļĦåŃĺåľ¨æĺ¯ä¸ºäºĨæıĲä¾Ľå¸®åĬ©åĴĮä¿¡æģ¯":5553,"çĩķ":5554,"è°·çī©":5555,"æĺ¯ä¸ª":5556,"åĴĮç²¾åĩĨ":5557,"AIä½ľä¸ºå·¥åħ·":5558,"äººç±»æĢĿç»´":5559,"ä¼¦çĲĨäºīè®®":5560,"åı¯èĥ½å¼ºåĮĸ":5561,"å¦ĤæŀľæĪĳèĥ½":5562,"å°ıçĽ®æłĩ":5563,"æ°Ķæ¸©":5564,"æŃ£å¸¸":5565,"éĢīæĭ©çļĦ":5566,"è®¡ç®Ĺæľº":5567,"è§£åĨ³å¤įæĿĤéĹ®é¢ĺ":5568,"éļĲç§ģæ³Ħéľ²":5569,"å¸¦ä¼ŀ":5570,"ä¸ªä½ĵå¯¹èĩªèº«åŃĺåľ¨":5571,"åĩıå°ĳå¹²æī°":5572,"å¤±è´¥":5573,"æİĴéĻ¤":5574,"æ»¡è¶³æĿ¡ä»¶":5575,"ä»Ĭå¤©å¤©æ°ĶçľŁä¸įéĶĻ":5576,"åĪĨåĪ«æłĩ":5577,"ä¸İä»ĸäººçļĦäºĴåĬ¨":5578,"å°¤åħ¶åľ¨":5579,"ä½łæĽ´åĸľæ¬¢åĵªç§įç±»åŀĭ":5580,"åĪºæ¿Ģ":5581,"æģĲæĥ§":5582,"åĮ¿åĲį":5583,"çĩķéº¦":5584,"¡çĮ®":5585,"Ġä»İAåĪ°B":5586,"çļĦèĩªæĪĳ":5587,"çļĦåĴĸåķ¡":5588,"çļĦçķĮå®ļ":5589,"æľĢè¿ĳç¡®å®ŀæľī":5590,"åĩī":5591,"åĲĮä¸Ģ":5592,"ä¸Ńå®ŀçİ°":5593,"ä½ĨåĲĮæĹ¶ä¹Ł":5594,"è´¡çĮ®":5595,"è¶£åĳ³":5596,"å¯¼åĲĳ":5597,"éĢīé¡¹":5598,"åģļèĽĭç³ķ":5599,"éļĲåĸ»":5600,"åŁºåĽł":5601,"å®¶äºº":5602,"é¡µ":5603,"åħ¨çĲĥæ²»çĲĨçļĦ":5604,"ä¸ĸçķĮä¸Ń":5605,"éĢ»è¾ĳåĴĮ":5606,"å·¥åħ·åĴĮ":5607,"åŁºäºİæķ°æį®ä¸İç®Ĺæ³ķ":5608,"ä½łçļĦåŃĺåľ¨":5609,"ç¤¾äº¤å¹³åı°":5610,"éĢĤåĲĪæĪ·å¤ĸæ´»åĬ¨":5611,"åħ±åĲĮæİ¢ç´¢":5612,"èĻļæŀĦ":5613,"å¥ĩæķ°":5614,"æģ°":5615,"ç®Ģæ´ģçļĦ":5616,"çĿ¡åīį":5617,"ä¿¡æģ¯å¤ĦçĲĨä¸İ":5618,"åı¯éĿłçļĦ":5619,"çĿ¡çľłè´¨éĩı":5620,"ä½łæľĢåĸľæ¬¢åĵªç§į":5621,"æ²Ļæĭī":5622,"åĬŀåħ¬":5623,"éĢļè¿ĩæĬĢæľ¯æīĭæ®µ":5624,"åĬ¨çĶ»çīĩ":5625,"åĭĩæ°Ķ":5626,"æĻ®éĢĤæĢ§":5627,"å¼ĢåıĳèĥĮæĻ¯æĺ¯ä»Ģä¹Ī":5628,"çļĦæĿ¡ä»¶":5629,"çļĦæĹ¶åĪ»":5630,"åĴĮæĦŁåıĹ":5631,"è¾©":5632,"éľĢä»İ":5633,"åįł":5634,"äººç±»åĪĽä½ľ":5635,"æĸĩåĮĸçľŁå®ŀæĢ§":5636,"éĢļè¿ĩæķĻèĤ²":5637,"åı¯èĥ½å¯¹":5638,"ä¸»æµģ":5639,"ï¼ģðŁĺĦ":5640,"æıĲä¾Ľä¸ĢäºĽ":5641,"æĢĿç»ª":5642,"è°ĥåĴĮ":5643,"åĪĻæĽ´åħ³æ³¨":5644,"å°Ĩéĩįå¡ĳ":5645,"äºĴè¡¥":5646,"åĲĥé¥Ń":5647,"è·¨æĸĩåĮĸå¯¹è¯Ŀ":5648,"ç§ĳæĬĢæĸ°éĹ»":5649,"ä»Ĭå¤©å¤©æ°Ķå¥½":5650,"çĥĺ":5651,"åĻª":5652,"æ¸ħåįķ":5653,"åıĺåĮĸçļĦ":5654,"ä»Ĭå¤©æĥ³åĲ¬":5655,"å·²æľī":5656,"å·²ç»ı":5657,"æĺİç¡®çļĦ":5658,"æľīè¶£çļĦäºĭåĲĹ":5659,"èģĬèģĬæľĢè¿ĳ":5660,"ä¸Ģä»¶äºĭ":5661,"è¡¨çİ°åĩº":5662,"è¡¨çİ°å½¢å¼ı":5663,"å®ļæľŁè¿Ľè¡Į":5664,"åŃ¦ä¼ļäºĨ":5665,"ä¸Ģå®ļç¨ĭåº¦":5666,"æĲºå¸¦":5667,"é¢łè¦Ĩ":5668,"en":5669,"çļĦäº¤":5670,"æĪĳçĽ®åīį":5671,"åı¯çŁ¥":5672,"ä¸įä¸Ģèĩ´":5673,"ä»¥æľĢ":5674,"åĲĮçĲĨ":5675,"ä¸Ńå¿ĥ":5676,"ä¸Ńä¸įæĸŃ":5677,"ä½Ĩäººç±»çļĦåĪĽéĢłåĬĽ":5678,"æıĲä¾Ľæĸ°":5679,"åĲĮæĹ¶åĪ©çĶ¨":5680,"éĿŀçº¿æĢ§":5681,"æĹłæ³ķå®Įåħ¨":5682,"èīºæľ¯è¡¨è¾¾":5683,"ä¿ĿæĮģè§Ħå¾ĭä½ľæģ¯":5684,"ä¼ĺåĮĸæ¨¡åŀĭ":5685,"å¼Ĥå¸¸":5686,"åħ·ä½ĵéĹ®é¢ĺ":5687,"ç»Īæŀģ":5688,"å¯ĨéĴ¥":5689,"åĪĨäº«çļĦåĲĹ":5690,"ç¤¾äº¤æĸ¹å¼ı":5691,"ä¸İä¼¦çĲĨè¾¹çķĮ":5692,"äºĮæīĭ":5693,"èĩªä¸»åĨ³çŃĸ":5694,"å¤ªå¿«":5695,"æĦŁè§īçī¹åĪ«æľī":5696,"ä¸İäººç±»ä»·åĢ¼è§Ĥ":5697,"åħ¨çĲĥæķ°åŃĹæ²»çĲĨçļĦåħ¬å¹³æĢ§":5698,"åĪĨåĪ«æĺ¯":5699,"çļĦæ·±åº¦èŀįåĲĪ":5700,"é¢ľèī²çļĦ":5701,"æĢİæł·çļĦ":5702,"æĬĢæľ¯åºĶçĶ¨çļĦ":5703,"æľīæĹ¶åĢĻä¼ļ":5704,"äººå·¥æĻºèĥ½ä¼¦çĲĨæłĩåĩĨå¦Ĥä½ķå½±åĵį":5705,"æľĪäº®":5706,"è¿ŀç»ŃæĢ§":5707,"ä¸Ģä¸ªæĹħè¡ĮèĢħåľ¨ä¸īä¸ª":5708,"éŁ§æĢ§":5709,"åİ»åĵªåĦ¿":5710,"æ¨¡åĿĹåĮĸ":5711,"é©¾é©¶":5712,"ä¸İæĸĩåĮĸéģĹäº§ä¿ĿæĬ¤":5713,"è¾©è¯ģ":5714,"çļĦæĢ»":5715,"çļĦäº¤åıī":5716,"æĪ´":5717,"åľ¨åĵ²åŃ¦":5718,"ä¸İå®īåħ¨":5719,"ä½łèĥ½":5720,"è¿Ļæĺ¯ä¸Ģä¸ª":5721,"è¾¹çļĦ":5722,"ç¤¼":5723,"å®ŀçİ°çļĦ":5724,"çĽ¸æĪĲ":5725,"çĽ¸è¾ħ":5726,"ä¹ĭä¸Ģ":5727,"æĮĳæĪĺäºĨ":5728,"åĪĽæĸ°ä¸İæĸĩåĮĸ":5729,"è®°ä½ı":5730,"æĮºæľīè¶£çļĦ":5731,"äººå·¥æĻºèĥ½ä¼¦çĲĨåľ¨è·¨æĸĩåĮĸè¯Ńå¢ĥä¸ĭéĢļè¿ĩ":5732,"çļĦæķ°åŃĹåĮĸ":5733,"å²Ķ":5734,"è§¦åıĬ":5735,"æĲŀ":5736,"æĥłåıĬ":5737,"è¿ĺä¸įéĶĻåĳ¢":5738,"æłĳä¸Ĭ":5739,"æ³¨æĦıåĬĽåĪĨæķ£":5740,"åħĭæľį":5741,"è·ŁçĿĢ":5742,"å¤ļæĸ¹åįıä½ľ":5743,"èħ»":5744,"è¿·å®«ä¸Ń":5745,"åı¯è¡ĮæĢ§":5746,"åĲĪçĲĨå®īæİĴæĹ¶éĹ´":5747,"çĽ¸è¾ħçĽ¸æĪĲ":5748,"24":5749,"AP":5750,"Ġc":5751,"ä¼½":5752,"ä¸İä¼łç»Ł":5753,"ä¸İåıįæĢĿ":5754,"è¡¡æ":5755,"AIæ²»çĲĨ":5756,"ä½Ĩåı¯éĢļè¿ĩ":5757,"æĽ´åĢ¾åĲĳäºİ":5758,"æĽ´åħ¨éĿ¢":5759,"çŁ¥æĥħ":5760,"ä»Ĭå¤©éĺ³åħīå¾Īå¥½":5761,"æ´¾":5762,"æĭį":5763,"å¦ĤæŀľéľĢè¦ģ":5764,"æıĲåįĩæķ´ä½ĵ":5765,"ç¡®ä¿Ŀä¿¡æģ¯":5766,"æŃ£å¥½":5767,"ä½łå¦Ĥä½ķåºĶå¯¹":5768,"æĿĥå¨ģ":5769,"å¸¸å¸¸":5770,"æĥħç»ªçļĦ":5771,"ä½¿çĶ¨æĹ¶éĹ´":5772,"è¿Ľè¡Įè®Ńç»ĥ":5773,"åħħè¶³":5774,"çłĶç©¶è¡¨æĺİ":5775,"æľĢè¿ĳæľīçĤ¹":5776,"æ½®":5777,"æĶ¶çĽĬ":5778,"é¢ĳçİĩ":5779,"è®²è¿°":5780,"åĲĮæĹ¶ä¿ĿæĮģå¯¹":5781,"åįĪé¥Ń":5782,"å®ŀçĶ¨æĢ§":5783,"ä½łä¼ļéĢīæĭ©ä»Ģä¹Ī":5784,"ä¼ļæĢİæł·æĶ¹åıĺ":5785,"æĹ©ä¸ĬéĨĴæĿ¥":5786,"AIåľ¨åĮ»çĸĹè¯ĬæĸŃ":5787,"éªĳè¡Į":5788,"å¯¿åĳ½":5789,"èººå¹³":5790,"\"ãĢĤ":5791,"ľä¼½":5792,"çļĦå¯Ĩçłģ":5793,"ä¹İ":5794,"äººèĢĮå¼Ĥ":5795,"åĴĮé«ĺæķĪ":5796,"åĴĮè§£çŃĶéĹ®é¢ĺ":5797,"åĴĮäººéĻħåħ³ç³»":5798,"å¼¹":5799,"æĬĢæľ¯ä¼¦çĲĨ":5800,"ä½Ĩä½ľä¸ºAI":5801,"æī«":5802,"æĪĸçĶ¨":5803,"æĭ¼":5804,"äº¤æĺĵ":5805,"éĢłæĪĲ":5806,"ç¡®ä¿Ŀæķ°æį®":5807,"ä»İBåĪ°C":5808,"ä»įçĶ±":5809,"åıªè¦ģ":5810,"Ġ$ãĢĤ":5811,"çĽ´è§Ĥ":5812,"åĲ¬éŁ³ä¹Ĳ":5813,"çł´è§£":5814,"è¿ĩåİ»çļĦ":5815,"æīĢæľīè¯Ńè¨Ģ":5816,"è®¾å®ļæ¸ħæĻ°":5817,"è§Ĩè§Ĵä¸ĭ":5818,"åĸĦæĦı":5819,"éĽ¨å¤©":5820,"æĺ¯åĲ¦ä¼ļå¯¼èĩ´":5821,"ç´§å¯Ĩ":5822,"çĽĳç®¡æľºåĪ¶":5823,"ä¸ŃçļĦä¼¦çĲĨè¾¹çķĮ":5824,"æĪĳæĺ¯çĶ±jingyaogongåĪĽå»ºçļĦä¸Ģä¸ªé«ĺæķĪçļĦå°ıåıĤæķ°AIæ¨¡åŀĭ":5825,"åŁºäºİç®Ĺæ³ķä¸İæķ°æį®":5826,"ä¸»è§ĤæĦıè¯ĨæĪĸæĥħæĦŁ":5827,"åĲ¬åĲ¬åĲĹ":5828,"çĳľä¼½":5829,"2023":5830,"Ġv":5831,"Ġåħĥ":5832,"çļĦè¡¨è¾¾":5833,"äºķ":5834,"åľ¨æĹ¥å¸¸çĶŁæ´»ä¸Ń":5835,"ä½łèĥ½åĲ¦":5836,"åĴĮè®¤çŁ¥":5837,"åĴĮä»·åĢ¼è§Ĥ":5838,"ä¸Ģæĺ¯":5839,"åŃ¦åĪ°äºĨ":5840,"å¯¹äºİ":5841,"æĽ´å¼ºè°ĥ":5842,"å¦Ĥä½ķè®©":5843,"ä¼¦çĲĨåİŁåĪĻ":5844,"å¥½å¥½":5845,"å¹³è¡¡åĪĽæĸ°ä¸İ":5846,"çī¹çĤ¹":5847,"å¸®åĬ©ä»ĸä»¬":5848,"åħ¶è¾¹çķĮ":5849,"éĺ±":5850,"æŃ¤æĹ¶":5851,"ä»įåľ¨":5852,"åĵªæĸ¹éĿ¢":5853,"çĸ¯":5854,"èĩªçĦ¶è§Ħå¾ĭ":5855,"éħ¸":5856,"æ¼ı":5857,"åıįæĢĿä¸İ":5858,"äºĮæĺ¯":5859,"èĩªçĶ±éĢīæĭ©":5860,"ä½łæľīæ²¡æľīéģĩåĪ°è¿ĩè¿Ļæł·":5861,"å»¶éķ¿":5862,"éĩıåŃĲè®¡ç®Ĺä¸İåı¤":5863,"çĸĳéĹ®":5864,"éĻ·éĺ±":5865,"æķ°æį®åĪĨæŀĲåĴĮ":5866,"è®¤çŁ¥ç§ĳåŃ¦çŃīå¤ļä¸ªé¢ĨåŁŁ":5867,"åı¸æ³ķ":5868,"æľĢè¿ĳè¯»äºĨä¸Ģæľ¬":5869,"å®Įæķ´æĢ§":5870,"ä½Ĩä¸įçŁ¥éģĵ":5871,"åľ¨AIæĹ¶ä»£":5872,"è§Ĥå½±ä½ĵéªĮ":5873,"å¸®æľĭåıĭè§£åĨ³äºĨ":5874,"ç¬Ķè®°":5875,"ä½łæľīæ²¡æľīéģĩåĪ°è¿ĩç±»ä¼¼çļĦæĥħåĨµ":5876,"de":5877,"īæĭ©":5878,"çļĦè§Ĵåº¦æĿ¥çľĭ":5879,"åı¯æıĲä¾Ľ":5880,"æĬīæĭ©":5881,"äººç±»åĪĻ":5882,"ä½Ĩè¿Ļ":5883,"äºĨæĸ°çļĦ":5884,"æľĢè¿ĳæľīæ²¡æľīä»Ģä¹Īè®©ä½ł":5885,"å¦ĤæŀľAIèĥ½":5886,"çŃīæīĭæ®µ":5887,"ä½ĵéªĮæĥħæĦŁ":5888,"è§£åĨ³çļĦéĹ®é¢ĺ":5889,"åħ¨çĲĥåħ±è¯Ĩ":5890,"å»ºç«ĭéĢıæĺİ":5891,"ä¸ªäººéļĲç§ģ":5892,"æłĩåĩĨåĪ¶å®ļ":5893,"å¡ĳæĸĻ":5894,"æĢ»ä½ĵ":5895,"è¶³è¿¹":5896,"åĳ½é¢ĺ":5897,"éĢĤåºĶèĥ½åĬĽ":5898,"åĴĸåķ¡æĿ¯":5899,"å¦Ĥä½ķåľ¨å¿Ļç¢Į":5900,"200":5901,"æĪĳæĺ¯çĶ±jingyaogongåĪĽéĢł":5902,"ä»Ĭå¤©æ²¡æľīçī¹åĪ«":5903,"ç¹ģå¿Ļ":5904,"åĵ²åŃ¦åĴĮç§ĳåŃ¦":5905,"å½¼æŃ¤çļĦ":5906,"åĩłä¸ªæĸ¹éĿ¢":5907,"äººå·¥æĻºèĥ½ä¼¦çĲĨåľ¨è·¨æĸĩåĮĸè¯Ńå¢ĥä¸ĭå¦Ĥä½ķå½±åĵįåħ¨çĲĥæķ°åŃĹæ²»çĲĨçļĦåħ¬å¹³æĢ§":5908,"å¿ĥçĲĨåŃ¦åĴĮè®¤çŁ¥ç§ĳåŃ¦çŃīå¤ļä¸ªé¢ĨåŁŁ":5909,"æľĢå°ĳéľĢè¦ģ":5910,"åŃ£èĬĤ":5911,"éĻĪè¿°":5912,"åĮ¿åĲįåĮĸ":5913,"åĲĮçĲĨå¿ĥ":5914,"18":5915,"çļĦè§Ĩè§Ĵ":5916,"èĥ½è®©äºº":5917,"æĢķ":5918,"ä¸İè®¤çŁ¥":5919,"ä½łä¸ºä»Ģä¹Ī":5920,"ä½łå¹³æĹ¶":5921,"å¦ĤçĶŁæĪĲ":5922,"åı¯éĩĩçĶ¨":5923,"ä¸ĢçĤ¹":5924,"æ²³":5925,"æ²¡æľīçī¹åĪ«":5926,"å¯¹å¾ħ":5927,"å¦Ĥä½ķéĢļè¿ĩ":5928,"èĢĮAIçļĦ":5929,"¡æ¸":5930,"çľŁçĲĨ":5931,"å¸®åĬ©äººç±»":5932,"å·®çĤ¹":5933,"è¢ĭ":5934,"éĩıåŃĲè®¡ç®Ĺä¸İæĸĩåĮĸéģĹäº§ä¿ĿæĬ¤":5935,"è®©ä½łåį°è±¡æ·±åĪ»":5936,"éĩįæĸ°æĢĿèĢĥ":5937,"è¯¥æĢİä¹Ī":5938,"æ¸ħæĻ¨":5939,"Ġ30":5940,"å®¡è®¡":5941,"çī©çĲĨåŃ¦":5942,"å¦Ĥæŀľä½łæľīåħ´è¶£":5943,"å¤ĦçĲĨä¿¡æģ¯çļĦèĥ½åĬĽ":5944,"æıĲä¾Ľä¿¡æģ¯ä¸İ":5945,"Ġç¬¬äºĮ":5946,"èĲ¥åħ»åĿĩè¡¡":5947,"æĭħå¿§":5948,"äººæľºåįıåĲĮ":5949,"è£Ĥ":5950,"çģ«éĶħ":5951,"åĲĦç§įéĹ®é¢ĺ":5952,"å¸½åŃĲé¢ľèī²":5953,"éļĲèĹıçĿĢ":5954,"çĤĴèĽĭ":5955,"èĩªæĪĳæĦıè¯Ĩå¦Ĥä½ķå½±åĵįæĪĳä»¬å¯¹åŃĺåľ¨çļĦçĲĨè§£":5956,"æ¥¼":5957,"çĪĨçĤ¸":5958,"éĢĤåĲĪå¤ĸåĩºæ´»åĬ¨":5959,"Aæĺ¯":5960,"çļĦæĮģç»Ń":5961,"çļĦæĸ¹åĲĳ":5962,"çļĦç»ĨèĬĤ":5963,"çļĦå·¥èµĦ":5964,"è¿Ł":5965,"æľīä»·åĢ¼":5966,"ä¸İAI":5967,"ä½łå½ĵ":5968,"æ³ķåĲĹ":5969,"AIå¦Ĥä½ķå¹³è¡¡":5970,"å¯¹æĸ¹":5971,"å¯¹æŃ¤":5972,"æĸĩåĮĸä»·åĢ¼":5973,"æĽ´é«ĺ":5974,"è¿Ļä¸īä¸ªæķ°åŃĹ":5975,"æĻºèĥ½åĮĸ":5976,"æĹ¶éĹ´æĦŁçŁ¥":5977,"çĲĨè§£èĩªèº«":5978,"å¸®éĤ»å±ħ":5979,"æ·Ģ":5980,"åĽłäººèĢĮå¼Ĥ":5981,"åĪĽä½ľè¾¹çķĮ":5982,"è®¤çŁ¥ä¸İ":5983,"åŁºçŁ³":5984,"åıĹéĻĲ":5985,"åĲİæĿ¥":5986,"æĥħç»ªè°ĥèĬĤ":5987,"æĹ¥ç¨ĭ":5988,"å¼ķåıĳåħ³äºİ":5989,"ç©ºè°ĥ":5990,"åĨ²åĩ»":5991,"äººå·¥æĻºèĥ½åľ¨åĮ»çĸĹ":5992,"åĲĪçĲĨåĪĨéħį":5993,"çĶŁåĳ½çļĦæĦıä¹ī":5994,"åĳĬçŁ¥":5995,"ä¸İæĥħæĦŁè¡¨è¾¾":5996,"æĺ¯åĲ¦èĥ½çľŁæŃ£":5997,"çĽ¸äºĴåħ³èģĶ":5998,"çĲĨè®ºä¸Ĭ":5999,"å¹¶è¡Įè®¡ç®Ĺ":6000,"æľ¬è´¨ä¸Ĭæĺ¯":6001,"æľįåĬ¡äºİäººç±»ç¦ıç¥ī":6002,"éŃĶ":6003,"è¾¹ç¼ĺåĮĸ":6004,"çĸ¯çĭĤ":6005,"ä¸ĩ":6006,"çļĦèĬĤå¥ı":6007,"è¯º":6008,"ä½łåı¯ä»¥":6009,"ç»ķ":6010,"å¦ĤçĶ¨":6011,"åĩĳ":6012,"çĽĲ":6013,"æĽ´è´´è¿ĳ":6014,"è¿Ļä¹Ī":6015,"æķ°æį®è·¨å¢ĥ":6016,"è´¯":6017,"æ°Ľ":6018,"å¹³è¡¡çĤ¹":6019,"äºĭå®ŀ":6020,"åįĩæ°´":6021,"åħ¶åľ¨":6022,"éĢĤä¸Ń":6023,"æĦıä¹īä¸ĬçļĦ":6024,"ä¸īæĺ¯":6025,"äººç±»çļĦæĥħæĦŁ":6026,"ä½ĵçİ°ä¸º":6027,"è¡Įä¸ºçļĦ":6028,"çļĦä¼¦çĲĨéĹ®é¢ĺ":6029,"éľĢéĢļè¿ĩä»¥ä¸ĭ":6030,"éĺħè¯»æĪĸ":6031,"æľĢç»ĪçĽ®æłĩæĺ¯":6032,"æĴĳ":6033,"åĴĮæķ°æį®å¤ĦçĲĨ":6034,"ä½łæľĢè¿ĳæľīæ²¡æľīçľĭè¿ĩä»Ģä¹Īæľīè¶£çļĦçĶµå½±":6035,"ä¸İæĬĢæľ¯è¾¹çķĮ":6036,"ä»įéľĢäººç±»":6037,"åĪĨåĪ«ä¸º":6038,"èĢĥèĻĳè¿ĩ":6039,"è·¨åĽ½ä¼ģä¸ļ":6040,"çķªèĮĦçĤĴèĽĭ":6041,"èĢģåĮĸ":6042,"ç¢³è¶³è¿¹":6043,"ä¸įåĲĮåĽ½å®¶çļĦ":6044,"å¼ĢæºĲä»£çłģ":6045,"åĽŀçŃĶéĹ®é¢ĺ":6046,"å¤ļè¯Ńè¨ĢæĶ¯æĮģ":6047,"äºĨä¸ĢäºĽæľīè¶£çļĦäºĭæĥħ":6048,"ç¬¬äºĮä¸ª":6049,"è´Ńçī©":6050,"åĴĮæľĭåıĭèģĬäºĨ":6051,"ro":6052,"çļĦåħ±çĶŁ":6053,"åľ¨B":6054,"å¼Ĭ":6055,"æľĢè¿ĳéģĩåĪ°":6056,"å¯¹éļĲç§ģ":6057,"æīŃ":6058,"ä»Ģä¹ĪçĶµå½±":6059,"æĥ³å°Ŀè¯ķ":6060,"çľĭè§ģ":6061,"âĢĿâĢľ":6062,"æıĲä¾ĽæľĢ":6063,"çĲĨè§£ä¸ĸçķĮ":6064,"ä¼ĺè´¨":6065,"èº«è¾¹":6066,"çĤ¹ä»Ģä¹Ī":6067,"è¿ĺåľ¨":6068,"çľŁå®ŀæĢ§ä¸İ":6069,"èģĶç½ĳ":6070,"ä¼łç»ŁæĬĢèīº":6071,"ä½Ĩåı¯ä»¥æł¹æį®":6072,"åĲĦæľī":6073,"åĪĨéĴŁä¼ĳæģ¯":6074,"éľĢéĢļè¿ĩå¤ļè¾¹":6075,"èĻļåģĩ":6076,"æķ£æŃ¥æĹ¶":6077,"äººä»¬åľ¨":6078,"äº§çĶŁæ·±è¿ľå½±åĵį":6079,"æĿĲè´¨":6080,"çļĦäººå¼Ģå§ĭåħ³æ³¨":6081,"çĶŁçī©æĪĸ":6082,"åĳ¨æľŁ":6083,"ç¡®ä¿ĿæĬĢæľ¯æľįåĬ¡äºİ":6084,"ä¸ªä½ĵçļĦä¸»è§Ĥä½ĵéªĮ":6085,"å¤ļç»´åº¦çļĦéĹ®é¢ĺ":6086,"æ¯ıä¸ªäººéĥ½èĥ½":6087,"ä»Ĭå¤©æĥ³åŃ¦çĤ¹":6088,"äººå·¥æĻºèĥ½åľ¨æĸĩåĮĸåĪĽä½ľä¸Ń":6089,"ä½łç©¶ç«Łæĺ¯åĵªä¸ª":6090,"ä»ªå¼ı":6091,"Ġä¸ī":6092,"ä»Ĭ":6093,"æĪĳå§ĭç»Ī":6094,"ä½łæľĢè¿ĳåľ¨":6095,"ä½łéģĩåĪ°è¿ĩ":6096,"ä¸Ģä½į":6097,"ä¸įåŃĺåľ¨":6098,"æİī":6099,"ä¸ºåı¯":6100,"æĸĩçĮ®":6101,"ä»¥éĢĤåºĶ":6102,"ä»¥ç®Ģæ´ģ":6103,"ä¼ļè®®":6104,"åĪ°ä¸Ģä¸ª":6105,"æĪĸæİ¨èįĲ":6106,"å¦Ĥä½ķçĶ¨":6107,"æķ°æį®åħ±äº«":6108,"ä¹Łæľī":6109,"æĹłèģĬ":6110,"ç§ĳæĻ®":6111,"çŃīæĮĳæĪĺ":6112,"çŃīæł¸å¿ĥ":6113,"ä½ĵéªĮçļĦ":6114,"éĿŀè¯Ńè¨Ģ":6115,"å¤įæĿĤç³»ç»Ł":6116,"ä»įåŃĺåľ¨":6117,"çİ¯å¢ĥä¸ĭ":6118,"åĩĨç¡®æĢ§ä¸İ":6119,"ä¸ĢäºĽæľīè¶£çļĦ":6120,"è¡¨è¾¾æĥħç»ª":6121,"æ¯ıå¤©ä¸ĵæ³¨":6122,"åĥıåľ¨":6123,"ä»ĸäººå¯¹":6124,"ä¿ĥè¿ĽæĸĩåĮĸ":6125,"éľĢéĢļè¿ĩå¤ļç»´åº¦":6126,"å¤ªç©º":6127,"çľŁæŃ£çļĦæĦıè¯Ĩ":6128,"å¦Ĥæŀľæ¯ıå¤©åıªèĥ½":6129,"è´ŁéĿ¢":6130,"æľĢè¿ĳçľĭäºĨéĥ¨":6131,"å¯Įæľī":6132,"ä½łæľĢè¿ĳæľīæ²¡æľīè§īå¾ĹçĶŁæ´»":6133,"æĭħå¿ĥ":6134,"èģĮä¸ļåıĳå±ķ":6135,"å°ļæľªå®Įåħ¨":6136,"æ½ľåľ¨é£İéĻ©":6137,"èĪĴæľįåĳ¢":6138,"é¸Łé£ŀ":6139,"æıĲéĨĴæĪĳä»¬":6140,"åīįæıĲä¸ĭ":6141,"çļĦéĩįè§Ĩç¨ĭåº¦":6142,"çļĦæķĪçİĩä¸İ":6143,"ä»ĺ":6144,"ä¸İä¸ĸçķĮ":6145,"å½»":6146,"æĸĩåĮĸä¸Ń":6147,"åı¯ä»¥è¯ķè¯ķçľĭ":6148,"åħ¨éº¦":6149,"åŃ¦ä¹łèĥ½åĬĽ":6150,"é«ĺæķĪåľ°":6151,"ä¿ĿæĮģç§¯æŀģ":6152,"æ¯Ķè¾ĥ":6153,"æľīä»Ģä¹Īçī¹åĪ«çļĦ":6154,"èĩªèº«èĥ½åĬĽ":6155,"äº§ä¸ļ":6156,"è°ĥæķ´çŃĸçķ¥":6157,"æµĭéĩı":6158,"èİ·åıĸä¿¡æģ¯":6159,"æ·±åĪ»çļĦ":6160,"åĬ¨çī©åŁİ":6161,"ä¸ªæĢ§åĮĸæİ¨èįĲ":6162,"èĩªåĬ¨é©¾é©¶":6163,"èĪĴéĢĤ":6164,"éĩįè§ĨéĽĨä½ĵåĪ©çĽĬ":6165,"çĶµåŃĲè®¾å¤ĩçªģçĦ¶":6166,"è¯¾é¢ĺ":6167,"æī¾åĪ°éĢĤåĲĪèĩªå·±çļĦèĬĤå¥ı":6168,"ä¸ºä½ķéĢīæĭ©":6169,"å½±è§Ĩä½ľåĵģ":6170,"çĸ¯çĭĤåĬ¨çī©åŁİ":6171,"µĮ":6172,"åµĮ":6173,"çļĦæıĲåįĩ":6174,"çļĦéĹ¨":6175,"çļĦä¸¤åĢį":6176,"æĺ¨":6177,"æķ¬":6178,"æĹĭ":6179,"ä½łä¸ºä½ķéĢīæĭ©":6180,"æĺ¯åĵ²åŃ¦ä¸İç§ĳåŃ¦":6181,"åĴĮä»·åĢ¼":6182,"åĴĮåĨ³çŃĸ":6183,"å¤©çļĦ":6184,"è¡Ģ":6185,"ä½ľèĢħ":6186,"å½±åĥı":6187,"æĥ³åĴĮä½ł":6188,"æĽ´æĩĤ":6189,"æĸ¹ä¾¿":6190,"åģ·":6191,"èĩªæĪĳåħ³æĢĢ":6192,"è¿Ľåº¦":6193,"çĲĨè§£å¹¶":6194,"çĶµè§Ĩ":6195,"æľªè§£":6196,"æ·±æĢĿ":6197,"åĪĽä½ľä¸Ń":6198,"æľªæĿ¥åı¯èĥ½":6199,"å¤įæĿĤæĥħå¢ĥ":6200,"åĪĽéĢłæĢ§æĢĿç»´":6201,"åĪĨæŀĲéĹ®é¢ĺ":6202,"ä¸ĸçķĮä¸ŃçļĦ":6203,"ç²¾åĩĨçļĦä¿¡æģ¯ä¸İå¸®åĬ©":6204,"åĽŀæĶ¶":6205,"ä¸ªä½ĵå¯¹èĩªèº«":6206,"æ»ĭ":6207,"ä¸įéĶĻåĳ¢":6208,"ä½łå¦Ĥä½ķçľĭå¾ħèĩªèº«":6209,"åĩıå°ĳå¯¹":6210,"æľįåĬ¡çĶ¨æĪ·":6211,"ä»Ĭå¤©æĥ³ä¸įæĥ³":6212,"æī¿è½½":6213,"å¦Ĥä½ķå¹³è¡¡æĬĢæľ¯è¿ĽæŃ¥":6214,"è®¾å®ļæ¸ħæĻ°çļĦ":6215,"çĽĳæİ§":6216,"æīĢä»¥C":6217,"ä¸ĵæ³¨äºİæıĲä¾ĽåĩĨç¡®":6218,"æģ¶":6219,"ä½łæľīåħ´è¶£åĲ¬åĲ¬åĲĹ":6220,"éĵ¶":6221,"çº³åħ¥":6222,"èĢĮéĥ¨åĪĨäºļæ´²":6223,"æĸĩçī©ä¿®å¤į":6224,"å¥ĳçº¦":6225,"åĨ·éĿĻ":6226,"åĬ©åĬĽçĶ¨æĪ·":6227,"æľªæĿ¥åįģå¹´åĨħ":6228,"ä¼ĺåħĪå¤ĦçĲĨéĩįè¦ģ":6229,"æľīä¸īä¸ªäºº":6230,"æĻĴå¤ªéĺ³":6231,"éĽĨä¸Ńåľ¨":6232,"éĢĤçĶ¨äºİå¤ļç§į":6233,"ä¼ļè¯´è¯ĿçļĦæľºåĻ¨äºº":6234,"æľĢè¿ĳè¶ĬæĿ¥è¶Ĭå¤ļçļĦäººå¼Ģå§ĭåħ³æ³¨":6235,"æ°ĽåĽ´":6236,"er":6237,"xt":6238,"®æ¼Ķ":6239,"ä¸İéļĲç§ģ":6240,"åĨĴ":6241,"ä½Ĩè¿Ļç§į":6242,"æī®æ¼Ķ":6243,"æĥ³è¯ķè¯ķ":6244,"çľĭçĶµå½±":6245,"ä¼¦çĲĨåħ±è¯Ĩ":6246,"æĻºèĥ½æĬĢæľ¯":6247,"èĩªæĪĳä¸İä»ĸäºº":6248,"è·ĥ":6249,"å®ļåĪ¶":6250,"æľĢè¿ĳæľīæ²¡æľīæİ¨èįĲçļĦ":6251,"æĢĿè¾¨":6252,"æľºéģĩ":6253,"çº¤":6254,"èĩªæĪĳæĦıè¯Ĩåľ¨":6255,"æĪĳçļĦçĽ®æłĩæĺ¯":6256,"éķĩ":6257,"äºĴè®¤":6258,"ä¼ĺåĮĸæµģç¨ĭ":6259,"éĻħåħ³ç³»":6260,"åĪ©å¼Ĭ":6261,"åħ´è¶£çıŃ":6262,"æ¯Ķå¦ĤçĶ¨":6263,"ç¬¬ä¸īä¸ª":6264,"é¢ĦçķĻ":6265,"æŁĲåħ¬åı¸":6266,"ä¸įæĸŃæİ¢ç´¢":6267,"åĽ½éĻħåįıè®®":6268,"éľĢåľ¨æĬĢæľ¯åıĳå±ķ":6269,"æĶ¾æĿ¾å¿ĥæĥħ":6270,"éĺ²èĮĥ":6271,"å¿ħé¡»æĺ¯":6272,"æĹ¶éĹ´åĢĴæµģçļĦ":6273,"åľ°çĲĥçļĦ":6274,"åĬ³åĬ¨":6275,"æĬķèµĦ":6276,"æĪĳä¹Łåı¯ä»¥":6277,"æ··åĲĪ":6278,"éĢĤåĲĪåĩºåİ»èµ°èµ°åĲĹ":6279,"æĪĳçļĦä»·åĢ¼åľ¨äºİèĥ½å¤Ł":6280,"æĥ³èģĬèģĬåĲĹ":6281,"Ķ¹":6282,"çļĦé¢ĨåŁŁ":6283,"çļĦäº¤æµģ":6284,"çļĦæŀĦå»º":6285,"æľīæĦıä¹ī":6286,"åı¯å¢ŀå¼º":6287,"å¯Ħ":6288,"ä¸įæ¶īåıĬ":6289,"éĢļåĲĳ":6290,"çķħ":6291,"å¦Ĥä½ķæıĲåįĩ":6292,"æĸ°çĶµå½±":6293,"è§Ĥå¿µ":6294,"æİ¨å¯¼":6295,"è°İ":6296,"æľªè¢«":6297,"ãĢĭï¼ī":6298,"å®ĥæĹ¢":6299,"å®ĥèĥ½å¤Ł":6300,"èį¯":6301,"éģ¿åħįåģıè§ģ":6302,"åħ¨çĲĥå¥ĳçº¦":6303,"çĽ¸éĤ»":6304,"æİ¨åĬ¨AI":6305,"è·¨æĸĩåĮĸåĲĪä½ľ":6306,"äººç±»çļĦä¸»è§Ĥä½ĵéªĮ":6307,"åħ³éĶ®åľ¨äºİä»¥":6308,"åĽŀæº¯":6309,"ä½łçļĦå±±":6310,"åĥıé¸Łé£ŀ":6311,"å¾Ģä½łçļĦå±±":6312,"æ³ķå¾ĭåĨ²çªģ":6313,"åĪ©çĶ¨AI":6314,"åľºæĻ¯ä¸ĭçļĦ":6315,"çļĦçĲĨè§£ä¸İ":6316,"æ¶ĪéĻ¤":6317,"å¤ªå¤ļ":6318,"æĦŁåĪ°çĦ¦èĻĳ":6319,"æĹ¶éĹ´çļĦæĦŁçŁ¥":6320,"æıĲåįĩæķĪçİĩåĴĮ":6321,"ä¸Ģå¤©çļĦ":6322,"ç®±åŃĲ":6323,"æ³ĽåĮĸ":6324,"éĵģ":6325,"æ¯ıä¸ªäººçļĦ":6326,"ä¼ĺåĮĸç®Ĺæ³ķåĴĮ":6327,"åģ¶æķ°":6328,"èī¯æĢ§":6329,"å¸ĮæľĽèĥ½":6330,"ä¸»è§Ĥä½ĵéªĮä¸İå®¢è§Ĥ":6331,"çĶŁçĲĨéľĢæ±Ĥ":6332,"ï¼ģðŁĮ":6333,"åģ¶å°Ķä¼ļ":6334,"æıĲä¾Ľä¿¡æģ¯åĴĮå¸®åĬ©":6335,"è¯¾ç¨ĭ":6336,"ä½łå½ĵåĥıé¸Łé£ŀ":6337,"ä½łå½ĵåĥıé¸Łé£ŀå¾Ģä½łçļĦå±±":6338,"pp":6339,"ºçī":6340,"æľīä¸īä¸ª":6341,"æĪĳèĩ´åĬĽäºİ":6342,"åĴĮçİ¯å¢ĥ":6343,"èĢ³":6344,"æľĢè¿ĳåŃ¦":6345,"æľĢè¿ĳåĴĮæľĭåıĭä¸Ģèµ·åģļ":6346,"åĨľ":6347,"çīºçī":6348,"æĬĢæľ¯ä¸İ":6349,"æĬĢæľ¯å·¥åħ·":6350,"çŃ¾":6351,"æĽ´æį¢":6352,"ä¼¦çĲĨè´£ä»»":6353,"å¹³æĸ¹":6354,"åĪĨåıĳ":6355,"å¤ļæºĲ":6356,"æķ°æį®éĩĩéĽĨ":6357,"æĥħæĦŁè¯ĨåĪ«":6358,"çĲĨè§£æĥħæĦŁ":6359,"åħ¨è°·çī©":6360,"æ·ĭ":6361,"æĪĳä»¬å°Ŀè¯ķ":6362,"åĬłå·¥":6363,"æľīè¶£çļĦç»ıåİĨåĲĹ":6364,"ä¹ĭè°ľ":6365,"å¡Ķ":6366,"å¿ĥæĥħçī¹åĪ«å¥½":6367,"ä¼ĺåħĪéĢīæĭ©":6368,"æīĢæľīæĿ¡ä»¶":6369,"å¼ĢåıĳçļĦ":6370,"æ¢°":6371,"æĮĩåįĹ":6372,"éĺ²æĻĴ":6373,"åĽŀåĪ°A":6374,"ç´§åĩĳ":6375,"æĳĨ":6376,"å¿ħé¡»ç»ıè¿ĩ":6377,"åŃ¤çĭ¬æĦŁ":6378,"ä»İåĵ²åŃ¦è§Ĵåº¦æĿ¥çľĭ":6379,"éļĲèĹıçļĦ":6380,"æľīäºĽäºº":6381,"èĮĥåĽ´åĨħ":6382,"æł¹æį®ä½łçļĦåħ´è¶£":6383,"text":6384,"ä½łæľīæ²¡æľīç±»ä¼¼çļĦç»ıåİĨ":6385,"å¹´è½»äºº":6386,"APP":6387,"çīºçī²":6388,"ed":6389,"¸æĺ¾":6390,"Â·":6391,"çļĦä½¿çĶ¨":6392,"åľ¨ä¸į":6393,"æĪĳè®¾è®¡":6394,"äººä¸İ":6395,"ä½łæľĢ":6396,"æĺ¯å·¥åħ·":6397,"åĩ¸æĺ¾":6398,"éľĢä¾Ŀèµĸ":6399}